#version: 0.2
Ġ Ġ
ĠĠ ĠĠ
č Ċ
ĠĠ Ġ
ĠĠĠĠ ĠĠĠĠ
s e
ĠĠĠĠ ĠĠĠ
i n
r e
o n
t e
o r
s t
d e
Ġ =
t h
l e
l f
se lf
m e
t i
a l
e r
Ġ a
Ġ i
ĠĠĠĠĠĠĠĠ ĠĠĠ
a r
Ġ c
Ġ '
e n
Ġ self
a n
Ġ f
a t
r o
Ġ th
Ġ re
Ġ p
u r
g e
ti on
c e
- -
Ġ "
a s
) :
Ġ t
Ġ n
Ġ s
m p
ĠĠĠĠĠĠĠĠ ĠĠĠĠĠĠĠĠ
Ġ in
a me
Ġ o
Ġth e
l i
u e
in g
# #
a te
' ,
l o
de f
se r
f i
Ġ e
c t
d i
p e
u n
r i
Ġ m
Ġ b
c o
c h
u t
Ġ w
s i
Ġ #
( )
" "
Ġi f
r a
i d
Ġ (
n t
Ġ def
ĠĠĠĠĠĠĠĠ ĠĠĠĠĠĠĠ
c k
u l
ur n
or t
e l
t urn
n ame
te r
ge t
o t
' :
a d
Ġ d
Ġf or
-- --
_ _
' )
Ġt o
on e
Ġre turn
l a
i t
v al
i s
( '
Ġi s
u p
Ġ T
Ġa n
o de
= =
p a
v er
m a
e d
y pe
## ##
mp ort
e s
i l
q u
Ġ h
Ġ [
te st
c on
o l
ser t
se t
ro m
at a
Ġ" ""
) ,
s s
x t
Ġo f
Ġ st
k e
o p
o d
as s
N one
" ,
b le
' ]
v i
Ġ 1
e t
. _
ul t
Ġc on
) )
Ġ u
de r
v e
c tion
a tion
ĠĠĠĠ Ġ
0 0
h e
a p
si on
Ġ 0
Ġ A
i th
c l
[ '
Ġn ot
en t
Ġan d
r ue
me nt
Ġe x
Ġ S
i le
val ue
g s
Ġa s
u m
fi le
Ġ %
el d
r or
Ġ C
t a
Ġ {
e ct
re s
en d
in t
an d
al l
( "
č čĊ
Ġi mport
Ġ +
a ge
b j
te d
as sert
f rom
Ġ de
p ar
Ġ -
ĠĠĠĠĠĠĠĠ ĠĠĠĠĠĠĠĠĠĠĠ
a m
t ype
Ġ F
Ġ g
e x
Ġ I
l in
t o
Ġ di
a se
u b
p tion
ke y
Ġ None
f or
t r
Ġ _
Ġ= =
ti me
p ro
pa th
Ġ test
b u
ĉ ĉ
Ġ or
---- ----
Ġc o
te xt
Ġre s
h t
Ġ P
l s
Ġb e
u s
Ġ L
Ġ 2
] ,
li st
i c
" )
Ġ r
* *
h o
u le
R e
== ==
i g
p ut
q ue
#### ####
al se
p er
st r
Ġw ith
qu al
e w
p o
f o
p t
a ble
o ut
le n
cl ass
Ġ lo
an ce
r ror
Ġ :
bj ect
s c
d ata
Ġn ame
E rror
Ġ se
i eld
Ġp ro
m at
= '
a ult
Ġ me
te m
z e
m o
o ur
ap p
T rue
Ġf ile
od ule
fi g
d ate
pe c
re d
i se
t y
o w
ar gs
ch e
Ġe l
E R
mp le
r y
a ck
li c
o f
E qual
Ġel se
] )
ĠĠĠĠĠĠĠĠĠĠĠĠĠĠĠĠ ĠĠĠĠĠĠĠĠĠĠĠĠĠĠĠĠ
e st
y s
" :
que st
Ġ D
s h
ar t
ad d
Ġ value
u re
l y
Ġa r
Ġ y
m m
m ode
re ate
Ġ O
Ġm a
lin e
w or
Ġ M
an g
Ġ v
an ge
i mport
Ġ G
ur l
Ġd ata
"" "
co de
st ance
I N
assert Equal
Ġ un
Ġst r
en se
O N
our ce
te n
i st
I n
Ġ get
t ri
o c
p y
Ġ on
Ġ x
r int
f f
b o
p on
Ġp ar
Ġ *
Ġ __
Ġ set
= "
Ġth at
p re
re nt
Ġth is
un t
i f
Ġ E
Ġas sert
s p
Ġ ra
ce ss
f a
Ġ N
ro up
lo w
g er
i p
ct or
Ġi t
in d
ver sion
l ate
E S
Ġ W
) .
Ġf rom
Ġu se
Ġ( '
at ch
d b
fi eld
di r
m s
t p
u ser
n e
Ġ `
pon se
par am
a c
ĠT rue
j o
Ġ <
vi ce
A T
Ġp a
ce pt
o m
er ror
. .
Ġ B
I T
o re
c a
sc ri
ĠĠĠĠĠĠĠĠĠĠĠĠĠĠĠĠ ĠĠĠĠĠĠĠ
Ġc h
Ġ 3
w a
Ġ en
a der
Ġw h
ar y
Ġo s
u th
o s
A R
de x
ĠT he
ic ense
th od
Ġ )
il d
b er
p ort
un d
Ġb y
app end
d d
ĠĠĠĠĠĠĠĠĠĠĠĠĠĠĠĠ ĠĠĠĠĠĠĠĠ
0 1
ĠF alse
==== ====
Ġ @
lo g
re ad
/ /
Ġ U
la y
Ġ al
en er
Ġ{ '
C on
__ (
Ġres ult
Ġo ut
Ġa t
u ment
Ġ >
Ġra ise
o u
Ġt ype
s on
o k
-------- --------
o ck
i r
te nt
ĠL icense
######## ########
Ġ }
at or
o bject
te s
m l
qu i
li ent
Ġw e
O R
ĠĠĠĠ ĠĠ
E N
') ,
T est
an s
te mp
co l
ing s
Ġ list
i z
d s
di ct
a ve
ra y
th er
in fo
il l
j ang
F alse
in it
m in
a b
p p
jang o
ti c
as k
Ġ k
ss age
de d
Ġ Re
Ġm ode
st ri
Ġ len
Ġ key
Ġp rint
v ent
li b
F ield
ce s
up date
( ):
ce ption
p h
Ġ V
Ġ R
Ġ l
ri te
val id
e c
Ġlo g
Ġa re
a mple
i ze
mm and
at us
u st
tion s
' '
un ction
co unt
an t
Ġex cept
( [
f e
con fig
for mat
he ck
Ġdef ault
Ġt ry
n o
ĠĠĠĠĠĠĠĠ Ġ
se s
si ze
g ra
e xt
re n
ul d
le r
Ġc l
re e
ma ge
lo ck
m odule
Ġ time
S E
ar i
s or
lo ad
Ġu ser
li f
ti ve
Ġ la
a pe
in stance
ter s
S T
c al
co mp
u ti
de n
m b
jo in
def ault
j son
h is
ro w
A N
th on
c ur
wor k
[ "
Ġm odule
b ase
Ġ H
. __
g in
Ġn p
Ġp re
Ġn ew
Ġc an
mode ls
g ht
scri ption
field s
st ate
g roup
A L
u te
" ]
l l
ta in
: //
a g
Ġf ield
o st
w args
ow n
ma in
um ber
i m
' }
b ack
op y
Ġw ill
c reate
ser ver
R E
Ġn o
Ġe lif
L E
b el
Ġ[ ]
Ġ 4
p en
Ġs ho
u me
Ġd o
n ode
g n
ar get
for m
co m
U T
Ġpa th
o me
d u
er y
() )
c or
re ss
Ġh e
s ub
se d
o g
ti al
st art
ma x
g th
tri bu
T I
at tr
Ġo ption
fi c
ar d
Ġo bject
E x
ĠT his
1 0
'] ,
ate d
re quest
Ġre quest
al ue
g ument
Ġp ass
i v
** **
Ġco mp
n d
Ġ{ }
r un
it y
w w
P ro
ĠI n
Ġ all
Ġ+ =
d a
or m
p i
Ġh as
k en
str ing
Ġs ys
wor d
i tem
i al
ĠI f
] .
Ġs h
b y
ri ght
Ġ **
Ġc ol
n et
Ġs up
ul l
Ġ version
| >
end of
< |
endof file
() ,
w ith
Ġs ub
j ect
wa re
ig n
ig ht
. """
li t
w rite
ht tp
pec ted
Ġ line
Ġs pec
o und
ar ch
Ġa c
ar n
I D
res ult
m d
Ġ[ '
le ment
che ck
lo at
Ġa dd
vi ew
in dex
Ġcon fig
Ġ \
qui red
N ame
T ype
or y
S t
w e
1 2
um n
Ġp y
s ing
d jango
ctor y
ho st
fi x
Ġc ur
ne ction
C o
la ce
M E
qu ery
t s
l u
Ġp o
ar k
i es
Ġsho uld
Ġc heck
t le
r on
Ġout put
stri bu
Ġ[ ],
Ġp er
Ġn ode
re turn
Ġcl ass
Ġ le
ter n
con text
a uth
param s
lin k
Ġ 5
Ġcon text
Ġf a
Ġres ponse
o bj
K e
se nt
y n
st atus
m it
Ġa pp
u de
Ġ !
3 2
re g
Ġstr ing
si ble
le d
Ġb u
D E
p s
Ġ ro
ar ray
t ings
Ġ url
c lient
Ġst ate
par se
A S
temp late
ti tle
Ġ! =
Ġ error
e e
k wargs
uti ls
ap i
ation s
v a
ĠĠĠĠĠĠĠĠĠĠĠĠĠĠĠĠ ĠĠĠĠĠĠĠĠĠĠĠ
ma il
Ġin t
of t
Ġme thod
un c
ma p
an n
C h
> >
D e
i me
me thod
t ra
t tp
r ame
v el
mo ve
Ġc reate
'] )
Ġ /
R O
ser vice
d ing
me ssage
er s
ari able
I C
i x
in put
Ke y
mode l
le te
ul ti
Ġf unction
Ġ li
Ġh ave
re p
() .
` `
' t
in e
tr y
ta ble
Ġar gs
i te
out put
Ġr un
m an
c lo
m is
u se
i ch
re ct
len gth
bu g
res ponse
re f
as h
n ew
a k
Ġun der
ub lic
d o
U R
======== ========
Ġi tem
Ġ čĊ
all y
6 4
r c
fi l
s g
st a
la bel
per ty
F ile
Ġdi ct
and ler
a x
on g
a ch
' s
Ġy ou
ur se
in ter
Ġme ssage
sh ape
Ġuse d
a y
sp lit
or g
Ġ z
Ġin stance
A C
c all
Ġde scription
a ction
Ġn e
Ġin put
oft ware
l an
lo b
Ġis instance
r an
d oc
le an
( (
pa ce
name s
' ):
ĠE x
ms g
lo c
E T
v ed
con tent
Ġ` `
Ġw or
ĉĉ ĉ
00 00
re am
S et
le ct
u al
Ġc opy
Ġ Q
t ing
' .
od y
si gn
Ġan y
< /
Ġi d
r ans
po int
ut o
sion s
s ys
Ġb ase
Ġspec i
ra p
co re
U L
lin es
c re
el p
and om
R es
Ġ text
P ar
1 1
Ġm o
Ġb o
fi ed
Ġ j
b e
Ġmode l
Ġs u
I L
A B
Ġ |
2 5
ĠĠĠĠĠĠĠĠ ĠĠĠĠ
ht ml
n um
') )
c s
tribu te
p ri
ĠA N
E D
c i
Ġvalue s
Ġo ther
l at
Ġc ode
Ġb ut
b s
Ġ .
ise s
" ),
Ġ' ''
ĠT est
IN G
ame ters
Ġwh ich
ar g
Ġma x
Ġst art
n er
ader s
Ġd ate
Ġr ange
Ġ> >>
p rint
Ġh ttp
Ġre quired
I S
it s
g ing
tr ing
s k
Ġn umber
Ġex pected
s u
v ar
me n
s pec
Ġd oc
e p
s ource
Ġ X
type s
I ON
C H
pa ck
pro cess
.. .
Ġs ource
Ġc all
################ ################
Ġm atch
Ġ one
Ġdi stribu
i tial
---------------- ----------------
Ġco mmand
op tions
ĠC on
up le
i mage
Ġwh en
a ger
op s
n ot
t in
t ro
ten sor
alue Error
D ata
u ct
ch ange
ti es
at ure
u mp
Ġma y
[ :
value s
ĠĠĠĠĠĠĠĠ ĠĠĠĠĠ
U n
cl ude
le ction
Ġ end
la ble
co mmand
A G
Ġpar am
b in
Ġt ra
lu gin
Ġcur rent
ĠRe turn
id th
id s
N U
ĠG ener
Ġ Y
or s
'} ),
c ted
tr ans
2 0
EN T
p ass
object s
fa ce
A P
ind ow
Ġo pen
mat ch
or ted
Ġ vi
con n
Ġh ost
n p
ol s
M P
b lock
pa ge
fil ter
Ġa d
l d
Ġm sg
Ġcon tain
ol ume
op en
fo o
L ist
co mm
py thon
lo t
and le
re ctory
Ġs o
ent ry
u res
s te
c ri
M ode
i on
e qual
f t
C ase
] [
er r
Ġ1 0
e vent
ment s
Ġfor mat
file name
I G
Ġar gument
} )
C O
Ġg roup
L O
ad ata
Ġ up
Ġre g
Ġon ly
to ken
tro l
T o
ta il
Ġm ust
H O
a re
t arget
iv en
Ġex p
Ġm ock
ĠĠĠĠ čĊ
T T
st ant
u id
ur ation
Ġin dex
ir st
Ġ 6
Ġch ange
id get
qu en
f low
te ger
G et
Ġt arget
F a
ex p
P O
R a
clo se
Ġo bj
Ġ ver
Ġfield s
Ġ update
f loat
th e
Ġe vent
s o
fe ren
lic ense
ww w
Ġsup er
ta g
D i
Ġ ]
n s
e mp
op tion
Ġ server
9 9
00 0
if y
ĠO R
S er
ate g
" .
Ġoption s
cor d
mb da
ser ial
Ġcon tent
f unc
a in
st ore
: :
Ġg ener
O T
vi ron
ist s
ro ot
es s
m y
} ,
o o
i code
T ime
u age
Ġs ize
A D
ĠA n
= [
Ġfile s
or der
m ark
b i
ĠĠĠĠĠĠĠĠ ĠĠ
1 6
ex ec
yn c
( _
r t
f ind
**** ****
ang uage
Ġre ad
Ġi mage
m ary
T Y
Ġ --
Ġc a
ĠS ee
fa il
c y
de bug
ti ty
Ġa ction
Ġar ray
et a
Ġ valid
P E
ca che
si tion
key s
Ġd jango
pro ject
t ask
Ġin ter
ses sion
Ġ- >
ĠD e
ut f
an y
S e
Ġc al
ann el
Ġh elp
Ġmode ls
ri d
q l
in al
mo ck
t adata
D O
v o
di t
lob al
P o
ile d
t on
f y
E n
de lete
ĠP ublic
lay er
ĠG NU
gra m
Ġ2 01
file s
Ġe xt
f unction
c cess
du ct
ES S
ĠGener al
Ġg iven
ra w
H E
Ġdistribu ted
ith er
Ġ} ,
iz er
he re
b ar
Ġm in
x y
a th
Ġdo es
ol d
set tings
ot al
Ġwor k
Ġa g
n ing
el l
Ġt rans
U p
)) )
bu ild
ĉĉ ĉĉ
se arch
ĠĠĠĠĠĠĠĠ čĊ
item s
late d
Ġf irst
pro perty
Ġo p
Ġd b
Ġ 8
A r
Ġm ore
Test Case
R AN
Ġi mp
Ġ' %
Ġa uth
ĠO F
Ġc lient
en v
ol der
Ġpro vi
Ġ K
ĠV alueError
r ate
T ER
opy right
fo re
ff er
po s
Ġname s
\ \
ĠP y
ĠĠĠĠĠĠĠĠĠĠĠĠĠĠĠĠ ĠĠĠĠĠĠĠĠĠĠĠĠĠĠĠ
Ġ J
ĠĠĠĠĠĠĠĠ ĠĠĠĠĠĠ
scri pt
ock et
m ber
d f
le ase
o ver
0 4
pa rent
s um
V alue
Ġ query
de vice
c md
assert True
B ase
Ġp ort
co ding
ma tion
* -
ho w
sp lay
Ġb ack
pe ct
ra tion
c r
Ġf il
of f
ĠI N
co urse
Ġ q
Ġla bel
ex ten
ri x
ĠReturn s
S tring
tribu tes
Ġpar ser
res ource
de scription
fi r
Ġ json
Mode l
Ġparam s
net work
di tion
M L
ame ter
o te
f ter
ĠAN Y
co py
~ ~
r ange
Ch ar
et work
C ON
Ġto ken
cur rent
Ġlog ging
Ġ( "
: `
arn ing
Ġ- *-
lo cal
uti l
lic y
C T
s a
col umn
li sh
que ue
ĠĠĠĠĠĠĠĠĠĠĠĠĠĠĠĠ Ġ
able d
add ress
f la
ĠC opyright
Ġp art
Ġn um
I d
2 01
a st
ample s
Ġg ra
( {
Ġt able
Ra ises
N ot
li ed
cri pt
po st
on ent
it test
i ter
v en
ĠĠĠĠĠĠĠĠĠĠĠĠĠĠĠĠ ĠĠĠĠĠ
T ext
u i
ump y
3 4
ĠU n
Ġ row
lan k
Ġo ver
ch ild
2 4
E X
) ]
ĠC ON
= {
y le
lic ation
pre sent
is ter
Ġp age
Ġe ither
1 5
Ġfor m
U S
pe d
Ġu sing
un k
bo x
ch ed
va i
ES T
tin ue
gra ph
ar gument
re ak
Ġre p
orm al
TT P
assert Raises
Ġf e
f rame
i ce
x ml
Ġma ke
f ul
feren ce
o us
3 0
at tern
Ġb lock
C ol
iz ed
cl s
Ex ception
Ġ' /
ĠW AR
A ME
rep lace
ex ception
Ġ val
t op
la tion
de nt
ver t
Ġv ariable
Ġfile name
T R
at s
le vel
ĠC o
Ġar g
D I
Ġpa rent
Ġst atus
s up
Ġcon nection
U N
u d
as ses
tern al
Ġe ach
stri p
AT E
ol low
Ġor der
Re turn
ate s
Ġo per
Ġwh ile
Ġt ask
i ck
ĠW IT
ri ver
ti v
st ra
tri b
Ġc ls
Ġs oftware
Ġp ri
Ġp ack
ĠĠĠĠĠĠĠĠĠĠĠĠĠĠĠĠĠĠĠĠĠĠĠĠ Ġ
ma ke
U ser
Ġresult s
Ġ 7
Ġk wargs
c er
Ġf ound
Ġu id
Ġs a
ĠĠĠĠĠĠĠĠĠĠĠĠĠĠĠĠ ĠĠ
Ġe lement
ĠWAR RAN
ut ure
tail s
la st
s ave
Ġf loat
i ve
Ġne ed
at ing
a ke
res h
pass word
ĠY ou
on t
) ),
pre fix
F I
le ss
ĠA r
Ġc or
ĠĠĠĠĠĠĠĠĠĠĠĠĠĠĠĠ ĠĠĠĠ
p k
date time
Ġ tensor
A dd
li ty
Ġex ception
Ġ template
d own
d out
ub lish
s with
ust om
', '
Ġin to
iz ation
fi er
Ġch ar
co pe
ro u
Con fig
e mail
') .
c p
IT Y
s y
i que
b ody
Ġwith out
Ġres ource
or age
pa che
Ġcon tinue
che ma
con f
m on
i e
C l
ti fic
Ġse e
F or
con nection
h as
Ġd type
p atch
" ))
p op
g o
1 4
set s
I P
ig h
5 0
n umber
jo b
Ġin st
Ġc md
ver se
me ta
Ġ2 00
vai lable
tic le
g ener
Ġdi s
T he
. ,
Ġdate time
Ġc ase
Ġ ter
2 2
Ġw as
conn ect
ch ar
V i
n ow
Char Field
quen ce
ad min
O P
Ġmo di
Ġa x
l t
1 8
ĠEx ception
[ -
P I
at ures
Ġy ield
M A
O bject
Ġde vice
Ġ' \
L I
Ġ' .
Re quest
re move
er sion
m t
di s
w idth
Ġat tr
se nd
w o
for mation
" >
Ġs ign
o ther
N o
F A
Ġspeci fied
Ġde st
2 00
Ġs ome
Ġpro cess
ac count
ĠP ro
Ġdi rectory
de o
] :
Ġt uple
A t
Ġla st
bo se
in ed
a v
lat form
Ġs p
us ter
'' '
Ġ[ "
Ġm an
Ġs y
mo te
B o
st ream
Ġset tings
Ġt ag
Ġdi ff
Ġ lib
ulti p
Ġal low
Ġsh ape
Ġ service
se n
he ader
Ġse s
1 9
Ġbu ild
res sion
ĠĠĠĠĠĠĠĠĠĠĠĠĠĠĠĠ ĠĠĠĠĠĠ
do main
us h
' \
3 3
Ġext ra
Ġex ec
r andom
Ġs ame
d type
g h
Ġw ri
N ode
si te
or d
con d
P ath
to col
1 00
f n
Ġreturn ed
Ġcol umn
s rc
Ġex ist
p c
g en
c le
Ġli mit
Ġ ge
in st
Ġth en
re q
V ER
i o
par t
si t
M e
Ġma in
ex pected
a tive
Ġ" %
license s
Ġf ollow
ut ton
n own
s how
Ġin fo
di stribu
loc ation
Ġm ark
ĠF or
ri de
ĠW e
e lement
wa it
mis sion
Ġdoc ument
i b
og le
Ġy our
Ġp os
r ary
z er
vi sion
Ġlo ad
w er
str uct
as ter
Ġf la
Ġspeci fic
sys tem
0 2
ĠS t
ca le
1 3
F F
sta mp
Ġb reak
th ing
Ġ' '
ne xt
Ġses sion
Ġco urse
par ser
Ġre t
ĠPy thon
ome try
u tion
C E
Ġpro ject
'] .
comp ile
ess age
b lank
'] ['
I O
Ġ temp
HO UT
Ġch ild
ck et
on ly
ext ra
ab s
et ch
v m
Ġpy thon
re lated
di rect
i ces
ch o
v olume
st ack
al s
ĠS oftware
ex ists
Ġde l
TI ON
ur i
ge x
Ġ err
node s
cl u
po ol
N AME
Ġro ot
ĠWIT HOUT
r ule
f uture
he aders
n ull
L o
ĠP ar
Ġb ody
( *
me tadata
f ault
Ġu ti
per ties
user name
h ash
ex it
ul ar
Ġ link
Ġlo cal
as si
c an
ĠI S
8 0
ction ary
read y
fir st
test s
f s
. "
(' /
Ġ ),
di a
5 6
mis sions
A M
ateg ory
Ġa b
Ġcon n
U P
Ġpo int
Ġt f
col or
I tem
Ġs i
ce iv
e ar
Ġ &
Ġco unt
Ġm ap
ĠT O
Ġlo c
I s
Ġm at
Ġhe ader
Ġimp lied
Ġf ind
h andler
t x
c li
" ):
t xt
de l
Ġpro gram
mp ty
Ġ ...
Ġlog ger
result s
f g
Ġ qu
f er
ĠĠĠĠĠĠĠĠĠĠĠĠĠĠĠĠĠĠĠĠĠĠĠĠ ĠĠĠĠ
Ġ 9
el per
Ġn umpy
ro und
di c
ok up
den ti
Ġ{ "
re quired
p orted
` .
Ġhe aders
Res ponse
ight s
Ġhe re
L og
8 8
qui re
auth or
w h
ĠĠĠĠĠĠĠĠĠĠĠĠĠĠĠĠĠĠĠĠĠĠĠĠ ĠĠ
C L
Ġn ext
t rue
] ]
change d
Ġco mm
Ġpar se
Ġw rite
der r
sta tic
Ġpass word
Ġ> =
B u
) ):
Ġ entry
S I
Ġr andom
c en
Ġor ig
IL ITY
low er
================ ================
Ġn on
5 5
UL T
Ġ title
Ġo b
m od
" ],
Ġl anguage
D ate
le s
Ġo pt
Ġo ld
p lot
Ġsup port
Ġ view
c c
Ġc ho
st op
t ree
n ap
p lugin
si de
t mp
is h
Ġde tails
we b
comm on
gin e
{ }
en code
Ġla mbda
en viron
Ġc lo
tra in
Ġin itial
v ariable
1 7
Ġof f
0 3
Ġa fter
str u
Ġ' -
Ġfil ter
pack age
Ġ late
K E
as ic
T H
exec ute
Ġa ct
to ols
a ct
time out
man ager
r s
w it
Ġtest s
ceiv ed
x x
u uid
Ġthe re
Ġth read
Ġw here
] ))
Ġs ample
'] :
de v
G roup
in i
k er
Di ct
In fo
A ll
n g
ĠT HE
M odule
Ġ lines
e val
UR L
b atch
Ġpack age
Ġs k
se lect
ĠG et
Ġobject s
ver y
re c
us r
Ġfa il
Ġ right
ing le
ĠF OR
le t
Vi ew
m i
si s
= (
Ġco m
by tes
Ġargument s
Ġth an
a uto
Ġn etwork
z one
ĠAn sible
. ")
R L
C reate
g r
H andler
se ction
ch annel
Ġadd ress
Ġca che
Ġg o
en sor
Ġpar ameters
O ut
= %
ĠĠĠĠĠĠĠĠĠĠĠĠĠĠĠĠ ĠĠĠĠĠĠĠĠĠĠĠĠĠĠĠĠĠĠĠ
M an
ĠS et
. ')
Ġ1 2
ore ign
ti m
start swith
al id
con tain
p lay
set up
group s
AB ILITY
C heck
ac tive
M essage
Ġit s
as on
di ces
reg ister
Ġt rue
Ġget attr
i as
Ġin formation
AL L
S S
du mp
men ted
E lement
Ġ ..
R un
co mple
bo ok
la mbda
Ġb in
Co mp
Ġex ten
rap per
Ġbe fore
in k
TY PE
Ġat tribute
ĠC reate
St ate
sh ot
_ (
Ġh o
ĠC heck
st yle
h er
a it
vi der
ĠF ound
Ġre q
s pace
Ġr ule
de st
T E
ultip le
pro file
te p
ri es
Ġen v
A l
( ?
ac cess
] ),
Ġi mple
Cl ass
Ġlen gth
-- -
Ġc re
Ġsho w
th read
m ory
log ger
ste p
ĠA dd
Ġf in
O F
od ing
l ing
Ġtime out
Q U
Ġreturn s
h andle
ĠĠĠĠĠĠĠĠĠĠĠĠĠĠĠĠĠĠĠĠĠĠĠĠ ĠĠĠĠĠ
OR T
O L
http s
n el
al y
im um
h a
pro duct
Ġerror s
a a
pre ss
Ġt a
error s
in itial
op er
Ġse arch
ex cept
Ġg lobal
Q u
ser ved
ol ute
Ġv ar
Ġc oding
3 6
Ġ" \
L IC
Ġre n
FA ULT
Ġa pi
M O
assertEqual s
] ['
t k
ex ample
di ff
Ġin clude
Ġre move
Ġpre fix
Ġre cord
Ġ utf
EN SE
Ġa ss
T O
con trib
pre c
A uth
p lace
ĠT ype
p ol
'} ,
Ġ' __
E vent
O ption
CON F
Ġun icode
off set
L ay
8 6
de p
me mber
Ġde p
C lient
P y
ĠFound ation
7 7
Ġa bs
Ġp ublish
Ġcreate d
c ent
Ġ te
b it
******** ********
oreign Key
Ġ Key
CH AN
a le
ator s
me r
Ġfollow ing
Ġh andle
con ds
ĠU ser
Ġsys tem
en tic
Ġ' --
S ize
te ra
TI C
b ot
A pp
di splay
Ġchange d
P er
arn ings
Ġa uto
Ġdo main
H TTP
u x
Ġto p
Ġst ream
TI ES
id x
P AT
B y
Ġf unc
w ise
var s
c ase
le cted
st dout
Ġal ready
Ġc r
ta gs
H T
In teger
ph a
di v
im al
Ġdi ctionary
Ġ< =
fla gs
g ment
Ġbe en
log in
( -
m ask
ex c
Ġa vailable
di o
Ġal so
ĠĠĠĠĠĠĠĠĠĠĠĠĠĠĠĠĠĠĠĠĠĠĠĠ ĠĠĠĠĠĠ
Ġmodi fy
Ġpar ameter
AB LE
con trol
Ġhas attr
ter min
Ġbo ol
Ġle vel
Ġco mple
t otal
Ġe ven
ct s
ĠWARRAN TIES
mb ol
w d
Ġstr uct
Ġf ree
Ġm y
a ti
Ġx ml
mo st
5 9
di st
t f
Ġprovi ded
). __
ro p
AT ION
) [
cl asses
ca use
E C
T h
Ġs um
ĠU RL
Ġ% (
Ġf rame
add r
wa ys
nap shot
I M
Ġdiff e
Ġconfig uration
Ġdi splay
Ġe mpty
Ġres p
ic al
Ġ1 00
ĠF ree
ction s
X X
Ġoption al
ve ctor
Ġp ost
den tial
4 0
g ate
Ġa p
Ġter ms
AT A
A n
: %
as sed
con stant
ĠS tring
A d
b a
d river
Ġ ],
bi lity
" ])
F orm
In dex
Ġ $
da y
Ġi p
f ull
ĠN ot
Ġre f
Par ser
li mit
Fa ctory
= ['
dition al
Con tent
ro ll
T his
Ġb et
F oreignKey
Res ult
i ent
ĠA ll
Q L
Ġs rc
P RO
v es
( ['
el se
un ittest
S h
pen den
Ġi ter
Ġac cess
ta ch
comp onent
co der
ĠP AR
D B
Ġun ittest
Ġi ds
IN D
Ġ --------
call back
H e
s cope
ĠA PI
S ub
Ġd on
ĠI D
Ġf ull
p l
Ġde lete
Ġtensor flow
Ġ' _
2 3
s v
W idget
Ġdata base
6 0
O S
Ġw ant
w ard
ge d
de code
Ġs ingle
sk ip
ran ch
a red
Ġdi r
G ET
ĠI t
in ce
un it
ĠAN D
Ġe mail
Ġt wo
+ )
Ġs cript
wit ch
n on
# !
or ig
exten d
s ql
s ample
Ġac count
u sed
Ġ ,
Ġen coding
c ry
g ress
k w
t uple
te red
Ġlate r
lu g
al og
il der
L e
ri c
w in
Co mmand
: ]
AG E
B U
/ %
ĠA t
Ġf alse
Ġkey s
Ġex ample
. *
ax is
Ġd own
li ke
i str
Ġcal led
si tive
KE Y
ic s
arg v
po licy
re al
7 8
Ġn ow
Ġcol or
Ġan sible
~~ ~~
v ate
Ġset up
ĠAr gs
le ft
Ġli ke
fa ke
Ġob tain
Ġhas h
Ġgra ph
Ġax is
DI R
a ded
f in
Ġre ceived
W AR
vi ous
E L
del ta
ĠV ersion
ĠC h
Ġh andler
Ġge ometry
Ġt otal
2 9
n a
d le
A c
o b
w indow
Ġra w
re po
Ġse nd
Ġ serial
A A
ĠN o
Ġs ocket
G ra
re cord
co un
c ul
N ESS
Ġre present
ched ule
Test s
ok ie
Ġsu ccess
point s
Ġ ##
par ameters
me tri
he ther
al led
D es
if t
Ġuse ful
Ġper missions
fe atures
Ġ' <
U B
Ġv olume
Ġj ust
Ġ" "
i k
emp late
M ENT
Ġtype s
p attern
Ġt ri
op t
'} )
id dle
Ġtra in
0 5
wa y
Ser ver
Ġitem s
y load
re port
fi t
6 6
ti l
ER R
h en
A s
UL AR
at tributes
to m
Ġby tes
stra int
Man ager
de red
c lean
ent ries
Ġwe b
g it
we en
m ulti
Ġt mp
Ġcol lection
st ats
Ġi m
in sert
f fix
un ique
and ard
g lobal
ĠN ame
g g
ta b
lo y
PO SE
Ġcon stant
ĠF IT
t ml
ĠN OT
un icode
Ġb atch
Ġver bose
Ġu s
ER CHAN
oc i
wor ds
ERCHAN T
p r
Ġvariable s
z ip
valid ate
denti fier
e k
Ġs ave
2 7
N O
Ser vice
b row
c at
ste ad
Ġt ree
Ġme tadata
F OR
po sition
ĠTO DO
comp ute
s ort
UR POSE
Ġbe cause
bo ol
li ance
per i
ab el
ĠFIT NESS
ĠP URPOSE
S ON
ĠPAR TIC
rep r
#! /
op ts
s ue
Ġinter face
ĠPARTIC ULAR
F rom
Ġ' ,
ĠĠĠĠĠĠĠĠĠĠĠĠĠĠĠĠĠĠĠĠĠĠĠĠĠĠĠĠĠĠĠĠ Ġ
module s
in clude
L ine
S tr
4 4
P re
M ock
Ġma th
ad ded
ERCHANT ABILITY
emp ty
Ġ" /
he ad
gn ore
inter face
% (
Ġde bug
le ctor
ge st
In put
ĠH TTP
Ġal ong
w idget
Ġat tributes
ION S
ĠĠĠĠĠĠĠĠĠĠĠĠĠĠĠĠĠĠĠĠĠĠĠĠĠĠĠĠĠĠĠĠ ĠĠ
Ġdis able
pri mary
M eta
/ >
Ġp assed
ĠI mport
Ġ ti
sp ort
ti tion
sh ip
di m
bo ard
W ith
################################ ################################
PAT H
viron ment
p latform
Ġp lugin
la tive
ĠD ata
ĠA pache
M ap
Ġdi st
s amples
ann ot
Ġapp lic
Ġex c
ĠS e
he ight
label s
P L
al low
Ġse n
C K
ke ep
ĠM ERCHANTABILITY
In ter
" }
Con nection
A uto
cur ity
D is
Bo x
Ġthe m
st derr
bu f
F rame
w s
Ġc er
M S
assert False
ge s
) "
Ġcho ices
C all
i fic
par ticle
a f
Ġuser name
de sc
ĠO ption
Ġcor rect
( __
ude nt
Ġmark er
Ġwri ting
Ġ job
rou gh
bu ffer
il y
ĠL O
P age
T EST
tic al
L icense
Ġmethod s
s ure
ĠD E
I mage
Re g
in ation
Ġs ure
st orage
S ER
ol ve
Ġpublish ed
I mple
Ġm on
Ġn ull
um my
pro xy
for ms
") ;
25 5
Ġthe y
In stance
p ublic
back end
di tions
Ġ' ',
a u
li ce
ab c
'] [
Ġ2 0
2 6
is sing
k nown
inst all
o se
ble m
com ment
de s
i mple
dential s
n ormal
cal led
7 5
s core
Ġfa iled
istr y
g or
i mp
Ġcon trol
Ġch annel
") .
Ġchar ac
Ġw ait
u red
Ġ Z
end ing
ĠQ t
Ġoff set
Ġg over
g p
re lease
ys tem
Ġs orted
ra ises
l ong
di ent
a pache
D IT
DE FAULT
Ġin teger
le ep
ou ble
b ind
Ġmat rix
load s
mat rix
V AL
Ġdoes n
Ġloc ation
comm it
ver age
Ġp attern
child ren
ca st
Ġs tep
e dit
AP I
b l
e f
pro vider
oo lean
j a
y p
ma th
ĠK IND
dir s
Ġnode s
re t
3 5
b r
f etch
s m
re ed
Ġsk ip
Ġset Up
2 1
Ġin stead
Ġ1 6
Ġcall back
L oc
ur ls
Con text
as ync
({ '
ro le
) ;
Ġbet ween
Ġexist ing
3 9
ot o
lo op
Ġme ta
gor ith
ar ds
assert Is
sc ale
b utton
, '
qui res
Ġz ip
i pe
(' \
Ġn ormal
dir name
ut able
O r
V E
C C
t d
In valid
Ġex ists
ĠWARRAN TY
in valid
D S
Ġc ustom
AC K
re en
app lication
() [
O K
G ener
Ġpro duct
Ġw idth
r f
2 8
ĠĠĠĠĠĠĠĠĠĠĠĠĠĠĠĠĠĠĠĠĠĠĠĠĠĠĠĠĠĠĠĠ ĠĠĠĠĠĠĠ
s l
-------------------------------- --------------------------------
le x
Ġcon f
s ocket
F e
__ )
ET TER
distribu te
f d
h i
v s
class method
es sion
Ġ_ ("
le m
me an
> <
en coding
ol ution
F O
Ġh tml
ĠE n
V alueError
At tribute
Ġ" '
ĠC ol
el lo
ĠL ETTER
ce back
Ġdiffe rent
Ġren der
S ta
we ight
app ing
id den
Ġw ar
Ġpre sent
Ġact ual
en abled
LIC ENSE
ser ies
A Y
- %
s q
si ty
pro to
Ġuti ls
W indow
cre t
ĠLicense d
column s
ist ory
Ġl ong
Ġn et
ix in
A ction
vi rt
O n
ase s
user s
ren der
Ġapplic able
l int
__ ':
Ġcommand s
ĠA uth
doc ument
li p
ĠR un
ĠR es
bo ve
Ġorig inal
e ff
attr s
stru ctor
T rans
V alid
f l
( **
ĠI P
Ġfor ce
s chema
Ġin clu
ĠD i
C lo
Ġp k
input s
l anguage
ĠN ote
tra ck
ma c
3 7
Ġre al
mb ed
vi deo
P R
Ġpo sition
Ġgener ate
iddle ware
0 9
ho ok
j s
Ġst op
Ġp ol
g rid
ĠType Error
ĠB ase
o lean
={ '
Ġo w
Ġimple ment
ume rate
i mat
port s
r and
Ġe val
col lection
Q t
Ġex press
se q
ĠL ist
di rectory
il ter
Ġ[ [
ok en
d t
__ ,
f older
D own
lo ader
w ri
Ġst yle
action s
Ġno ti
ĠCo mp
le ted
Ġ: :
[: ,
For mat
lic it
our se
du ce
Ġse ction
Ġ" .
ĠS er
S C
c ap
Ġm ulti
T able
den tity
ERR OR
pp ing
ol ver
Po int
Ġal ways
y ear
Ġabs olute
ro ss
h elp
v ing
T ra
Ġdef ined
H ER
Ġp atch
s ted
an k
Ġ< /
Out put
Imple mented
si ve
pro perties
Ġcontain ing
cor ds
MP L
Ġre distribute
V ersion
F L
Ġc lean
O per
ce ll
ub e
Ġ layer
Ġre mote
ST R
Qu ery
Ġ ):
ra tions
DIT IONS
ĠIn c
Ġre po
time stamp
Ġcomp liance
u ff
U D
F ound
ĠB AS
sh ort
bo und
` ,
Ġse cond
0 6
p id
Ġst a
Ġrep lace
Ġsp lit
D o
Ġoper ation
c ies
Ġg en
(" %
Ġm od
C P
Ġlabel s
ĠUn less
Ġla w
Ġta gs
Date Time
ĠO pen
vo ice
3 8
C ode
ten ant
EX T
en gine
AS S
Ġi gnore
me d
ith ub
n one
A SE
Ġbin ary
go ogle
N umber
// //
nt ry
D ir
w arning
Ġre verse
xt ure
Ġse quence
stra ct
ect or
IG HT
ĠImport Error
. '
Ġag reed
am l
Ġw indow
Ġgover ning
ĠBAS IS
er o
ĠCON DITIONS
ari es
ĠDe fault
ĠA s
z y
i re
st d
Ġfunction s
tific ate
Ġlimit ations
s ume
Ġv m
mo di
at tribute
cl uster
Ġse lect
Ġst ack
fa ctory
Ġad ded
cle ar
IN T
Ġ} )
A nd
vo id
lay out
Pro cess
d ot
Ġen umerate
Ġho pe
Ġthe se
S ION
Ġa bove
{ {
path s
Ġs ql
FI LE
su ccess
contain er
exception s
message s
I B
Ġab out
it or
Ġauth or
Ġcontain s
St atus
g ger
ĠF ile
mo ved
Ġpro perty
Ġhttp s
prec ated
u ally
PO ST
LO G
row s
se c
ĠPar ameters
I nt
US ER
he et
ho uld
C a
di sk
Ġstr ings
h elper
Ġme mber
Ġrun ning
Ġrequest s
ĠĠĠĠĠĠĠĠĠĠĠĠĠĠĠĠĠĠĠĠĠĠĠĠĠĠĠĠĠĠĠĠ ĠĠĠĠ
pa ir
ho me
sent ry
Ġ" ,
Ġwar ran
gorith m
Col umn
4 5
create d
Ġcomp onent
Ġsub process
(' %
to ol
ver bose
im g
Ġst dout
tr an
ini tion
re st
Pro perty
" \
Ġsup ported
man y
Integer Field
li ght
ĠP er
Ġun it
Ġfe ature
Ġs m
che me
Ġun ique
g round
S H
= _
sa fe
v ari
ĠCon fig
re mote
in s
Ġw idget
lay ers
Ġfla gs
P C
ĠU se
Ġw arnings
c ategory
m aster
G ui
Ġwarran ty
0 8
P ORT
T ensor
st at
Ġfa ke
Co unt
mo unt
w rap
f ra
Ġle ft
M o
p b
Ġpy lint
re ction
p ing
s ten
Return s
assert In
S pec
(' -
m k
S u
Ġ} }
Ġ[ (
) *
Ġw hether
ord in
Ar ray
Ġlib rary
cur sor
ut or
so le
EN D
4 9
n n
B utton
'] ),
c fg
ac tiv
gn u
Ġ queue
Ġp ick
S D
Ġmessage s
zer os
for ce
ance l
ix ed
", "
Ġre port
') ),
Ġch unk
Ġm ultiple
UT H
S A
Ġin it
con vert
ren cy
te x
ĠR a
ct x
u ter
c ss
Ġdocument ation
4 8
> '
M M
Ġvi deo
Col or
ag ent
ro s
re r
dump s
ĠNot Implemented
s pa
Ġm ig
mark er
C ur
clo ud
B oolean
() ))
N S
ve lo
Ġfin ally
Ġattr s
sign ed
Ġcomm on
g reg
re l
si g
re gex
Ġre ference
Ġinst all
in dices
WAR E
Ġin valid
val s
Ġvalid ate
v or
) '
Ġ[ ])
Ġs ix
ch ain
) ])
Ġopt s
h older
cen ter
ĠĠĠĠĠĠĠĠĠĠĠĠĠĠĠĠĠĠĠĠĠĠĠĠĠĠĠĠĠĠĠĠ ĠĠĠĠĠ
R ES
serial ize
Ġcl uster
Ġ-------- --
fe ed
en able
ra ise
lo okup
7 6
Ġc tx
Ġd f
M any
Ġcon vert
Ġ license
Con trol
Z E
e b
L en
Ġe d
Ġse ss
Ġ_ ('
ĠP RO
Ch ange
Ġst ore
([ [
c d
gener ate
Ġpath s
Ġcom ment
nt ax
fa ces
4 2
me di
Ġ ----
Ġp h
add ing
Ġbase d
L abel
Ġcon ditions
Ġcur sor
Ġurl lib
Ġp lt
Ġinput s
re set
T ag
o red
res pon
Ġo ps
IN E
Log ger
T ask
Ġs c
] ])
Ġpo ol
Ġ( (
us age
D oc
qu ote
ĠL o
es ca
Ġe st
ct ype
s ome
he x
Ġm ask
il tin
W OR
ci sion
part ner
R o
( \
c b
Ġar ch
Ġs chema
Ġbe ing
0 7
Ġcon ver
Ġbo th
al ias
down load
s w
Auto Field
Ġclo se
> \
ĠĠĠĠĠĠĠĠĠĠĠĠ čĊ
] +
RO M
li ties
sy m
variable s
M ixin
b asic
lin en
Ġme r
Ġfla g
r pc
S ource
am o
ĠE X
fe ature
host name
c ing
IG N
IT E
in es
r l
or ity
De fault
Ġass oci
Ġcontain er
ab i
en ter
es ted
Ġag ain
py test
res p
ss l
Ġe very
de c
lo ss
Ġ" --
] *
w arn
Ġk er
s leep
penden cies
Ġ" -
Ġ' ')
(' --
entic ation
ĠT o
b ad
event s
ĠO n
Ġlo ok
Ġcl asses
ĠL I
ish ed
men u
T emplate
c ustom
Ġs ort
Ġth rough
names pace
command s
> </
AG S
li m
Ġcan not
se quence
V er
V IC
Ġtra ck
ta ct
ĠAt tribute
script or
rap pe
Ġgener ated
Ġ1 5
end s
G L
tific ation
f ont
OF T
t c
O UT
Up date
P AR
__ __
Ġre lated
D ATA
"] .
ĉĉ ĉĉĉ
or ter
Re ad
po se
) ',
F ilter
ĠKey Error
o uld
p g
one s
i ases
Ġb ound
yn am
St art
t z
en tity
Ġ join
ma tic
Me thod
fil ters
\ .
Ġs ince
Res ource
Ġre lative
O f
Ġelement s
Ġpo licy
Fa iled
Ġw ho
ĠLO G
ĠW hen
Ġp lace
Ġsi mple
AN D
m ig
ap ter
25 6
3 1
ĠM e
Ġc fg
cs v
h ass
Ġwh at
ac y
si mple
resource s
Ġme tri
Ġnames pace
Ġexten sion
TI ME
Ġ keep
Ġa wait
T ree
p ng
Ġpro file
Ġpa ir
sit ory
ĠM ock
Ġs cope
Ġo ur
' ^
ĠH T
Ġid x
inter val
Ġpy test
F unction
um b
i fied
Ġen vironment
m ul
al le
I E
BU G
ĠĠĠĠĠĠĠĠĠĠĠĠĠĠĠĠĠĠĠĠĠĠĠĠĠĠĠĠĠĠĠĠ ĠĠĠĠĠĠ
view s
Ġdi men
Ġf l
tem s
bin ary
r type
Ġpre vious
Gra ph
log ging
resh old
C S
fla g
#### ##
sp atch
Ġpoint s
T oken
ĠO r
le g
Lay out
V ariable
Ġpos sible
ST AT
f p
Ġlo op
Ġ" <
pe ed
Ġen code
Ġdata set
] ],
Ġf n
' "
imat or
_ ,
le ar
h s
ĠNotImplemented Error
I f
gra de
fa ctor
() ),
Ġpro tocol
pro tocol
Ġm issing
exp r
FOR M
Ġw ould
ur ing
: \
ĠHT ML
Ġro le
Add ress
m ar
Par am
AT IN
ee ded
d n
Ġst ri
Ġad min
' re
U M
c m
la in
Ġp latform
S ession
Ġex pect
Ġf oo
4 6
7 9
ne cted
ĠM ake
DateTime Field
Ġthe ir
OFT WARE
Ġh ow
up lic
d one
ĠQ gs
ĠH ttp
Ġv ari
b b
D F
esca pe
se curity
ro ute
a fter
an ti
static method
Ġdistribu tion
end swith
) /
feren ces
cer t
xt ra
Ġde sc
ĠP o
B O
W N
pa re
ex ist
ign ore
Ġcolumn s
ist ration
Ġuser s
u ted
Ġspec ify
Ġex it
age ment
ĠL ATIN
ĠN O
' ",
i ver
CO L
reg ion
ch unk
Ġcopy right
Ġs im
res ses
if est
image s
cli ck
assert All
Ġdi rect
u tes
Ġd one
co me
Ġcontent s
a vailable
link s
t ten
SE T
N etwork
co ls
Ġre tri
ci i
component s
Ġover ride
E ntry
ĠA d
po ch
bu cket
sum mary
ĠO S
Ġapp lication
quest ion
linen o
t t
Ġap pro
test ing
ateg or
ĠĠĠĠĠĠĠĠĠĠĠĠĠĠĠĠĠĠĠĠĠĠĠĠĠĠĠĠĠĠĠĠ ĠĠĠĠĠĠĠĠ
p ublish
Ġcomp ute
s d
ver ify
sup ported
OR S
Ġf p
n umpy
W arning
sp an
Ġas ync
) ",
Ġp lot
f c
P UT
B lock
in x
= ',
Ġen tity
rou ter
par ts
co res
G R
g t
al pha
pro p
Ġse par
own er
Ġhe ight
Ġset ting
LE CT
Ġde c
ue ue
i de
Ġh and
Ġ' {
Ġdi sk
Ġlo okup
UL L
se cret
ch ine
s parse
re ference
cho ices
Ġupdate d
in dent
amo unt
U RE
Ad min
ĠS OFTWARE
sc ape
zer o
l ang
r b
Ġ vector
Ġin dic
re quire
. ',
0000 0000
data set
u ce
n orm
St ream
Ġwor d
over ride
Ġmo ve
Ġpro perties
state s
Ġdefault s
g l
O p
se p
S O
th is
cre en
Ġ1 1
D ER
12 34
content s
un ch
} '.
g ame
De vice
Ġco uld
an sible
(" \
Ġ% }
g ithub
g ative
Ġs cale
se conds
Ġe q
bo ot
Ġdi vision
Ġnoti ce
Ġdi sc
Ġsta tic
ser v
8 9
U E
lo aded
sign al
u ate
P Y
ap t
v as
Ġre c
Ġfe ed
i con
pi pe
Ġcor respon
pi ck
Ġ" __
ar m
W or
Ġt ran
n u
Ġse conds
ME T
Ġ( %
up per
an el
data base
con st
ar s
P a
Ġprovi der
pri ce
C ore
F T
ĠS T
################################################################ ########
vent ory
Ġd t
B ack
l ass
Ġevent s
frame work
Ġsu ch
Ġfe atures
Ġf inal
Ġinstance s
n an
time s
6 5
ri tems
Ch ild
Ġfor ms
Ġlog in
(" /
Ġchange s
ate ri
ynam ic
I R
Ġco un
ĠG o
c ity
Ġf ont
a ctor
Ġreg ister
S ystem
Ġpro xy
on s
Ġc ategory
w here
ĠA l
pk g
Ġgroup s
Ġ[ ('
Ġc ell
ant s
s napshot
ro id
f alse
r p
Ġre ason
ĠD o
Ġc li
e lif
ti o
Ġn eeded
Ġ3 0
Ġ> >
exten sion
e ve
default s
pro c
ĠĠĠĠĠĠĠĠĠĠĠĠĠĠĠĠĠĠĠĠĠĠĠĠĠĠĠĠĠĠĠĠ ĠĠĠĠĠĠĠĠĠĠĠ
Ġconn ect
O ne
C R
Ġname d
] ):
W S
Ġm apping
Ġsign al
P RE
ra g
d at
ran k
/ '
AC E
Ġallow ed
we ights
Ġreg ion
se cond
ex port
, )
ĠA pp
igh b
al most
$ ',
/ ',
-------- ----
me dia
Ġ' #
G e
Ġright s
de tails
re ctor
Ġp ublic
ĠAttribute Error
Th read
+ +
rule s
Ġst derr
Ġoper ator
jo bs
ĠJ SON
Ġby te
SI ZE
u ation
Ġpart s
9 0
to re
[: -
doc s
Ġp e
Ġre direct
P lugin
al k
sc al
al t
Bu ild
ĠS M
P ER
ut ron
Ġmatch es
Ġother wise
Type Error
Ġac tive
que sted
d ar
8 5
Not Found
argument s
Ġr c
cor rect
S QL
Ġrow s
Ġback end
k es
Ġh igh
ĠT h
me mory
Lay er
da ys
__ .
z z
n b
am ily
Ġme an
ĠB u
ow er
Ġre quire
comp any
Ġbu ffer
VER SION
v is
ren ce
g a
ar ge
} }
Con tain
Ġw ay
S y
Ġre lease
def ined
si x
Ġs pa
4 7
ti fy
Ġe qual
AN G
re verse
D R
Ġassoci ated
la b
fi ll
mon th
mit ted
fa iled
plugin s
Boolean Field
Par ameter
C om
Ġuti l
Ġre st
le arn
Ġp op
sing le
= -
Ġd a
ar ted
O pen
MA X
up load
P S
output s
Ġver ify
u ch
n ess
Ġtime stamp
Ġb lank
x c
E nd
am ma
ma pping
Ġb it
sub net
abs path
ĠF ROM
la p
ĠCol umn
fo und
ĠU p
ang le
fic ation
Ġmodule s
O O
Ġcomp ile
trans form
cp u
is ted
Ġt x
Ġ" _
s ync
Ġbu f
E dit
ĠT ime
P ort
ra ft
pri vate
Ġst ats
ĠR E
Ġo c
Ġst orage
Ġuse s
Ġapp ly
`` .
in teger
P ack
mis sing
Ġpar sed
en ch
Ġd river
Ġwith in
CL UD
b ranch
Py thon
un its
no red
ĠA R
Ġen able
se e
C I
ti st
host s
ra ys
as cii
Ġs ite
Ġw x
an aly
Ġfil ters
Ġus age
ad o
V ENT
} ".
Ġde termin
p ted
Ġcal cul
Ġal pha
un ded
Ġlo ck
( %
Ser ial
Ġin v
x b
at tach
Ġin dices
FI X
se ed
sh a
comple te
Option s
ĠC OP
mp t
Ġcal lable
Ġvi a
L ink
s lug
Ġf older
( ('
U SE
M ax
di date
Ġst andard
)) .
on ce
ĠM ode
L L
> ',
h y
ĠCOP Y
Ġin dent
Ġwe ights
pa yload
dep th
ron g
Po licy
ĠC ourse
.. /
Ġop tim
Ġan other
option al
C RE
mp y
app ly
S p
Ġn s
ĠĠĠĠĠĠĠĠĠĠĠĠĠĠĠĠĠĠĠĠĠĠĠĠĠĠĠĠĠĠĠĠ ĠĠĠĠĠĠĠĠĠ
ha vi
Ġme mory
Ġkey word
g b
Ġad ditional
sup port
un i
_ %
li ter
Ġp lay
control ler
s n
lo ts
ces sed
ume ric
IN FO
Ġ ])
ĠV alid
CLUD ING
exp and
Ġpa yload
Ġ3 2
app s
x e
Ġ entries
Ġexp ression
Call back
Ġv ol
extra ct
> "
9 6
metri c
re direct
Ġx range
ut ing
+ '
9 5
Ġw in
no te
ateg y
ĉ čĊ
su ffix
ach ed
b al
Ca che
lib rary
/ {
) ],
[ ^
G E
Ġt ab
si d
Ġf etch
is o
Ġimplement ation
at rix
IN TER
e q
Ġis sue
Ġse nt
Clo se
Ġneed s
f name
fi es
Ġ Error
ĠM y
ar r
Ġcollection s
" '
I X
/> .
Ġh ass
Ġdown load
Ġe p
en ce
ĠM o
Ġac tiv
G ER
und le
Ġ1 000
12 8
ker nel
N ew
) \
E CT
ĠRe quest
Ġpro to
H ost
ge ther
ro t
Ġb ar
fa cts
Ex p
Ġper son
get Logger
ĠCON TR
fer red
sup er
Ġp ipe
di ms
Ġbut ton
cre ment
Ġh ome
Ġre served
cur rency
Ġsh util
Ġman ager
De f
resh ape
U ID
g ments
w isted
as ure
brow se
di us
ro y
Ġ[ {
Ġse lected
Ġcharac ters
Ġvi rt
tra ce
s chedule
'] ))
de tail
Ġz ero
Ġsu bject
ex pect
a z
Ġw rap
mb ols
is sue
12 7
Ġinst alled
s ock
ser tion
Ġb ad
co s
la ck
Ġexception s
D ATE
X ML
bu s
m c
o ok
Ġto o
con v
MA IN
"} ),
Ġpro b
Ġhe ad
ss h
Ġen sure
trans late
config uration
Ġin te
s heet
by te
gra d
Ġen abled
base name
li te
Ġto ol
M B
Ġper mission
ĠL og
brow ser
task s
Ġoutput s
cri ption
Re f
ĠP O
token s
Ġg ot
service s
d raw
ue st
RE CT
t ty
Ġre moved
Fa il
Ġlo ss
g ent
Type s
ur al
S L
in ternal
Ġc op
. %
d om
c ut
ak es
re quen
Ġs pace
ed ge
AR Y
ste ps
ca ched
urn al
7 0
( """
ĠO TH
si m
Ġsh ort
DE BUG
M et
F la
ial og
Ġrep r
Ġpri mary
a va
ti tem
Ġcomple te
Ġ{} )
. )
s ur
Ġwe ight
M IN
Len gth
or ary
ĠD O
R ange
Ġf it
. ",
ĠI O
call s
che my
in f
Ġexec ute
Ex ec
l on
te cted
par k
w ik
ĠS ub
VIC E
j ust
y es
assi fier
f mt
Ġ1 4
be fore
assert Not
() ):
w ards
or iz
her it
update d
ĠT H
ĠM A
': '
ON E
Ġs parse
peri od
12 3
cry pt
is ode
A UTH
Ġ- =
f fic
ĠM an
st udent
r m
R IGHT
sy mbol
ul ate
, ))
package s
Ġpro blem
ĠT ext
~~~~ ~~~~
Ġcall s
i od
Ġker nel
1 000
ĠĠĠĠĠĠĠĠĠĠĠĠĠĠĠĠĠĠĠĠĠĠĠĠĠĠĠĠĠĠĠĠ ĠĠĠĠĠĠĠĠĠĠ
top ic
an ization
rector ies
Ex ten
ser ve
Ġ //
g ui
time Error
Ġ uri
x f
Ġtoken s
FL AGS
Ġd st
Ġi tera
Ġtest ing
scri be
ation Error
en u
Ġim g
F C
Ġi g
h ello
k ind
(' .
**************** ****************
Ġc v
fi ers
Ġb ranch
me m
Ġk w
Ġk ind
sq rt
ĠB y
us ing
ve c
ĠWIT H
Ġs ig
h istory
ĠĠ čĊ
ab sent
Le vel
Ġm ost
, "
un ct
run ning
([ "
coun ter
row ser
i ed
ĠQt Gui
k ip
sg i
ite ritems
w rapper
d rop
i tes
SE LECT
return s
HO ST
Ġb ot
P ass
ĠX ML
Ġsign ature
Ġe dit
g its
9 8
ĠOption al
fi xture
u int
Ġas sign
6 7
red uce
Ġre quires
d st
M in
i a
Ġper form
ĠOTH ER
ĠF ield
() ]
gener ator
Ġbo x
ĠD is
i ti
AC T
u dio
Ġme ans
Ġw rapper
C TION
x a
ĠA S
Ġ_ ,
S ign
f inal
V ector
fl ush
du ction
Ġsupport s
ĠU SE
i um
ou gh
M atch
Ġwe re
Ġm any
Ġac cept
sume r
Pro xy
f lat
di stance
Ġsu ffix
C re
d uration
S cript
ati ble
M ulti
Ġin ternal
Ġs core
f ree
d r
ĠA c
Ġno va
Ġimage s
S tore
ex pi
P ri
Ġtra ceback
W rite
Ġal ias
reg istry
Ġp r
ip v
D ialog
p n
ler t
Ġspec ial
si red
ter m
Ġbu cket
Ġgener ator
w all
res sed
Ġ---- ---
Ġre set
table s
Ar gument
Ġp ut
cho ice
v ol
Ġsh ell
: '
ho ur
5 4
Ġsup p
Ġ ))
p tr
in c
Ġde n
sh ift
d ouble
B e
Ġco mb
comple x
} .
Ġun til
ĠI mage
in voice
Sta ck
Pro ject
Ġtemp file
Ġat temp
Ġbo olean
ar ange
lo cale
ex ternal
ĠV er
Ġu uid
on y
trans action
p u
ĠGo ogle
server s
ti ties
Ġtime s
su bject
Ġz one
ĠSM ALL
orig inal
Ġcomm it
__ ":
ener p
ann er
') ]
ĠW indow
S ec
b ig
Ġst d
Ġm aster
Q ueue
element s
as sign
Ġ[ -
Ġpk g
par tition
ĠString IO
ff ff
distribu tion
ast ype
'] "}),
Ġst ill
d c
ĠRe g
m u
Ġre gex
Ġp l
T arget
penden cy
{ %
Ġle t
(_ ("
se lected
\ "
p df
Un less
Ġno te
ce l
exten sions
ock er
Ġs cal
RO OT
ĠI MP
s pect
Ġsi de
Ġ{} ,
Ġs napshot
AR T
F loat
ut c
ĠCON F
================================ ================================
Ġow ner
su ite
par ameter
ĉĉ čĊ
Ġ5 0
D ec
Ġmer ge
eff ect
mer ge
si z
R en
ĠN umber
Par se
Ġf ig
Ġde v
Ġauto matic
ĠT ensor
p ush
f time
ĠG roup
AT TR
target s
Ġ" ",
Ġchild ren
gp u
G I
t ar
ir c
Ġrule s
Ġtrain ing
er ies
r up
re vision
ex clude
Ġle ast
peri ment
ol y
abi lity
dis able
pro b
8 4
Ġmatch ing
ir d
pro gress
7 4
la tions
modi fied
ul ation
ca pa
i dentity
Ġd uring
Ġpre di
b its
N e
Ġch ain
ri s
lin ux
Ġan s
Ġsy m
IB UT
Ġr v
de rer
be gin
unk nown
Ġ mp
Ġdi stance
po wer
re es
Ġstruct ure
tran sport
R A
d ns
SS L
s witch
Ġde code
s hould
"" ,
ck s
I SE
Ġe scape
greg ate
Co mm
MO DE
(' <
Ġb ind
ĠHttp Response
Y ou
CONF IG
Ġinclu ded
AP IT
con dition
sign ature
App lication
stri ct
Se arch
F IL
Ġre l
local host
Ġ6 0
ffer o
Ġc lear
ĠA ffero
Ġy ear
Ġd ump
sh ell
log y
Ġbe low
ĠS H
y aml
ĠN ode
Ġconstant s
R ule
al ign
cess ary
d types
Ġt r
Ġoper ations
L ib
qu ot
d l
in v
cor ding
or ds
h idden
c ard
de lay
Ġraise d
Ġs q
se lection
ĠIn dex
Ġsub net
Ġco re
block s
Ġt ake
Ġcorrespon ding
w n
Ġf lat
\ '
Pro tocol
+ "
ro ad
li sten
>> >
HER E
4 04
all back
He ader
Ġg rid
te ct
p layer
N um
page s
li er
is tered
method s
H ttp
.. ..
Ġ' )
Ġsy mpy
ĠS QL
Ġma il
Lo ad
AG ES
te am
ri ve
p ub
ro me
__ ()
Ġcre dentials
ar Down
Pro file
Ġro uter
Ġcharac ter
Ġ ----------------------------------------------------------------
con straint
IM IT
instance s
Ġval s
re ason
per missions
requen cy
: -
Re gex
co ver
L S
Ġoc cur
B ar
i er
run ner
Ġs amples
C A
in der
co okie
it le
app en
F low
RE QU
ust ome
ING S
pol y
_ .
ĠĠĠĠĠĠĠĠĠĠĠĠĠĠĠĠĠĠĠĠĠĠĠĠĠĠĠĠĠĠĠĠ ĠĠĠĠĠĠĠĠĠĠĠĠ
Ġe tc
di men
virt ual
w arnings
rid ge
per son
ong o
ĠE N
Ġal iases
j e
no tes
Ġcon st
z en
na il
ir t
il t
k s
ac cept
constant s
CON T
get text
7 2
Ġ1 3
ĠS pec
N OT
te ration
vi de
} /
jo urnal
ful ly
: "
un ic
Ġse q
set Up
0000 00
un pack
ĠL IC
Ġma c
Ġthread ing
Ġh ref
Ġsa fe
Ġblock s
Ġon ce
vi sit
Text Field
LI ED
Ġresource s
bo olean
ul lable
Ġth ose
WOR D
Ġex pi
Ġbe st
Ġdel ta
Ġal gorithm
`` ,
ĠL IMIT
str ings
M enu
bu ilder
Ġ1 9
Ġde cor
t od
sc reen
t wo
u ses
st ub
u g
in te
ma g
ff ect
Ġup load
at om
len dar
Ġst ored
valid ation
Ġfa ctor
mo ves
Ġs w
b eta
V ID
place holder
Ġset attr
B ASE
Ġbe havi
O bj
======== ====
') [
per mission
re ader
Ġp ur
ategor ies
t n
sh ared
Ġi dentifier
Ġbe gin
fir m
umb nail
ix el
Ġa void
Ġtrans form
Ġmax imum
Ġexp licit
back up
wri ter
Ġwork s
Ġend point
al th
Ġex clude
Ġextra ct
Ġass ume
######################################################################## ######
. \
ĠQ u
uplic ate
e lem
Ġlo cale
ĠMode l
Ġf ix
5 8
ic ro
a il
Ġho ok
Ġwri tten
__ .__
reate r
F E
q ty
p ad
re v
Ġun its
88 59
Ġf i
ĠLIC ENSE
Ġversion s
f req
Ġadd r
c f
M D
Ġexp r
M AP
U ti
se ek
re lation
Ġ ?
SI B
Ġter min
, ),
Ġdirect ly
Ġdest ination
ip s
b reak
i dentifier
end point
Ġa ut
iz ers
Po ol
E MA
ĠC lo
r r
ĠD jango
APIT AL
ĠĠĠĠĠĠĠĠĠĠĠĠĠĠĠĠĠĠĠĠĠĠĠĠĠĠĠĠĠĠĠĠ ĠĠĠĠĠĠĠĠĠĠĠĠĠ
D ES
Ġor g
Ġme dia
Ġ< <
ĠD AM
exist ing
oper ator
"] ["
ĠAn y
Ġtrans action
6 9
sor ted
g y
re pe
ĠP re
Ġf ill
r al
Ġd ay
di spatch
template s
ĠĠĠĠĠĠĠĠĠĠĠĠĠĠĠĠĠĠĠĠĠĠĠĠĠĠĠĠĠĠĠĠ ĠĠĠĠĠĠĠĠĠĠĠĠĠĠĠ
Ġde leted
RE AD
ĠB e
LE TE
sub process
LO CK
Ġ201 3
Ġd at
Ġdep th
ĠT e
Ġw arning
abs olute
Ġh elper
'] ",
W eb
Ġc y
: ``
ĠRe served
Ġp d
Ġg it
ĠIMP LIED
Ġvirt ual
Ġco ordin
Ġcase s
Ġre cur
x d
N E
Ġpro per
Ġst at
Ġcon dition
F G
ĠC APITAL
] +)
m iddleware
a ce
00 1
Ġb oto
Ġi o
5 7
Ġf rappe
Ġb asic
il ar
W rapper
ĠC O
Ġlo wer
Set tings
S imple
A b
te ps
Ġpri vate
assi stant
Ġmig rations
: ])
op tim
J SON
ces ses
device s
s age
De lete
6 8
po sed
fi re
W ri
Ġd raw
) (
ĠCo mmand
s in
Ġn d
o ols
e g
Ġs ci
Ġan aly
Un it
Ġnumber s
an e
R I
ct ure
R ow
Ġre cords
tiv es
de g
ti t
channel s
Ġig nored
(" -
ĠD oc
W E
4 3
Inter face
sh are
environ ment
Ġpick le
Ġpre v
Doc ument
ĠRe ad
ĠD ate
medi ate
HE AD
//// ////
Ġme nu
Ġa mount
OR Y
h n
set ting
fail ure
si tions
S V
ĠUp date
ench mark
D U
LE D
N ING
Ġgo ogle
vel y
a mp
le nt
ĠB UT
Ġcon straint
Ġ201 2
ist ri
comp are
source s
cript or
di gest
ĠS y
S up
4 00
ĠT rans
s lice
Ġpart ner
Ġcon trib
To ol
h igh
VAL ID
* .
os v
Ġm ight
Par ameters
Ġvi sit
Ġsum mary
Ġt ar
Ġlink s
name d
ten ce
la ces
C an
, -
ĠR ights
d ummy
al g
ex e
Ġk now
c ancel
Ġex ternal
Ġw ell
pa y
"] :
Ġre quested
ĠT emplate
oc ab
Ġ' "
ĠS h
s cheme
Ġs sl
co st
comp at
J o
Ġed ge
LI B
ys ql
e mon
set default
oper ation
ut ation
ĠD B
de leted
Ġ( -
Ġse ed
spec ific
version s
Ġcheck s
bo sity
Ġpage s
yn ch
ustome r
M y
ĠRun timeError
contain s
de scriptor
File s
Ġpackage s
B ad
ax es
Ġcurrent ly
si an
ĠN e
Ġco okie
url lib
FORM AT
I F
cl ar
Ġde ri
Ġs witch
Ġde le
- >
O ver
ĠWindow s
Ġtarget s
ta x
Ġmetri c
Ġf ra
d p
de cor
se ss
=' ',
in ner
Ġg lob
ĠLIMIT ED
work er
ĠWe b
Fe ature
I ME
main ing
Ġgra dient
v ance
Ġpack et
J ECT
Ġpar tition
Ġprovi de
di sc
Ġe lem
ĠT ra
p red
Ġp id
Ġow n
STAT US
Re cord
Ġdef inition
Ġt yp
liter als
Ġsh ared
n ative
Ġsu ite
sub scription
o id
ĠH e
Cur rent
s qu
Ġd types
cre dentials
Des cription
U rl
j or
Ġwor ds
In itial
Ġhost name
Ġ series
99 99
Ġapp end
Ġlo ader
roll ment
ĠM odule
Ġautomatic ally
Se lect
ĠA nd
Lo ader
process ing
ĠG e
Ġpro p
Ġex port
G B
Ġpro c
re ce
Ġin sert
age d
Ġ2 5
St orage
Ġstate s
L INE
Ġre lation
ĠDE FAULT
en e
xx xx
C U
Ġy et
8 7
fi gs
( ',
o auth
Ġag ent
Ġ ()
Ġfail ure
al chemy
ĠIO Error
ĠO ther
v lan
Ġp adding
ĠO ut
LO W
Ġinter val
S U
sis tent
ch ase
ul k
pi x
pri ate
pre dict
PI PE
ĠAr gument
se l
ut down
ĠOn ly
Ġper iod
ĠRe move
Ġsy mbol
Ġb its
Ġinclu ding
s r
plot lib
get attr
ĠM eta
(? :
Ġde precated
Ġf d
Ġop enerp
Ġtask s
Ġa st
ĠEx ample
M T
e mbed
Ġdimen sion
Auth or
as y
Co uld
## #
Ġst udent
Ġvalid ation
T e
ari o
p lt
Ġne cessary
p to
Des criptor
S Y
v g
Ġf low
request s
code s
r ing
4 1
Ġl ang
or n
ty le
Ġm d
Loc al
O ff
istri bu
R el
g i
t v
is instance
Ġr ate
coun try
ip ient
Con s
Ġaction s
Ġexten sions
ĠRa ises
S P
ĠLI ABILITY
ĠG ra
T op
ti le
tri es
in ja
Name s
Param s
Ke ys
ash board
b ed
e ded
c ate
ok ies
Ġsa ved
ans wer
ar is
m g
re cords
distribu tions
E xtra
sc an
Ġis n
Ġreg ular
Ġo k
om ial
Ġd s
Ġse curity
Ġrepresent ation
Ġ2 55
g u
/ "
f r
me s
Ġn orm
li es
W idth
Ġc types
to gether
ĠThe se
e poch
c la
HT ML
is file
handler s
== =
5 3
E M
co mb
clo sed
ref resh
U I
d k
bu iltin
Ġ1 7
Ġ201 5
Ġlist s
P T
Ġl on
J ob
imp l
Ġun known
Ġc at
Ġro und
act ual
ac c
ĠEx amples
H andle
D river
ati bility
[: ]
Ġt z
F R
w x
xt ures
Ġk nown
ĠL oc
str ftime
Or der
Ġf name
vi sible
": "
gate way
Ġdef ine
arch ive
ja va
LI ST
count s
change s
as set
Ġ 64
et c
CO MP
V ar
ĠO UT
Ġmodi fied
Ġat tach
allow ed
is dir
pre v
Ġappro priate
vi e
Ġde sired
' %
compile r
E num
DO MAIN
mon itor
:` .
Pro vider
qual ity
! !
p ur
Ġ201 4
metri cs
Ġe mbed
w sgi
me th
Ġh appen
V M
A ccess
O B
T emp
vari ance
Ġcomple x
c wd
Ġencode d
Ġ" {
no tify
pipe line
g is
Ġagain st
Ġmon th
Ġc sv
Ġrepresent ing
pre di
e v
per m
ĠAuth ors
pen dent
Ġg l
pre vious
ou ter
al ler
le v
CO DE
/ ')
Ġcer t
an tity
ec ted
Ġhost s
li ve
en um
t b
ynch ron
ĠIn ter
h ref
: ",
find all
member s
de precated
Ġs chedule
fix ed
Ġsource s
Ġact ually
p x
) ')
ne ed
un ity
t ol
Ġorig in
Ġsome thing
ur ity
aa aa
trans lation
in line
Ġ" )
irt ual
6 3
56 78
initial izer
ation al
A V
D D
are a
i ted
Ã ©
Ġ4 2
* (
M iddleware
n i
:` ~
road cast
il ing
ĠB E
p lan
g on
line ar
Ġ ~
Se quence
=" %
(" --
LO C
for ward
Ġi denti
g le
ĠThe re
ame ra
com ments
Ġex act
Ġs ur
h and
Ġset s
ĠOS Error
m ultiple
Ġ2 4
5 2
ĠĠĠĠĠĠĠĠĠĠĠĠĠĠĠĠĠĠĠĠĠĠĠĠĠĠĠĠĠĠĠĠ ĠĠĠĠĠĠĠĠĠĠĠĠĠĠ
k it
ns ure
Ġtuple s
pro blem
ate r
re lative
ab stract
la zy
Ġf ixed
Ġen gine
Ġap pe
_ {
orig in
Ex ist
assertAll Equal
Ġi con
C ho
ue ss
Ġcer tificate
ls o
function s
]) .
ti d
SER VER
ten d
Ġbu ilder
ĠW H
r aries
Ġp ad
ro zen
Ġstri p
ĠS ystem
Ġsub class
ĠTest s
Po sition
Ġc ap
ĠIn valid
S R
n x
a ws
con sole
div id
L D
pack et
Ġe c
Ġ ).
ĠC lient
tiv ity
D IS
ip her
st ock
Ġlo aded
iz es
Value s
W e
ĠCOPY RIGHT
Ġli sten
Ar gs
ĠV i
] ["
Ġcre ating
Ġ --------------------------------
Ġs lice
P U
sen sor
Ġs cheme
Ġpar tic
for med
L A
5 00
Ġexec ution
Ġsci py
ag ic
ĠTH IS
Ġde pendencies
9 7
alle l
Ġstate ment
Ġd ot
c tive
Ġallow s
se par
n c
stru ction
) +
Ġt akes
bl ue
us ters
h at
co very
Un known
(' _
: ',
e di
Ġ layout
a ut
ff e
S chema
Ġ" #
Pass word
inter faces
) ")
bi lities
M on
ĠAnsible Module
M atrix
format s
se lector
On ly
Ġlo w
quen ces
" },
AA AA
- +
Config uration
PR ESS
T C
ĠO N
Re ference
8 2
e ver
Ġpro gress
config ure
l b
match es
ific ation
r as
di rection
wik i
Sh ape
tra ct
T itle
ĠW HERE
pri ority
F S
b c
ĠD ec
In st
all close
sta ff
sp h
g z
Ġarg parse
Un able
ge o
Ġc m
C ourse
M ain
late st
Ġm ar
Ġarch ive
script s
Ġc ached
By tes
P ASS
th reshold
m ble
con ver
M ake
time r
ĠP ath
Ġf uture
ĠB o
ate way
Ġn ullable
struct ure
Ġs teps
pre pare
Ġar rays
Ġa tom
Ġpair s
ĠM essage
m as
= ["
re quires
b d
( ':
String IO
def ine
Str uct
) **
par tial
Ġp i
ĠW or
te ri
Bu ilder
a vi
velo per
Ġr ank
L EN
q a
CL ASS
Ġre pe
ut ors
N N
Ġans wer
qui va
gra tion
eval uate
Ġte arDown
helper s
Wor k
Serial izer
_ )
} '
ĠE vent
Ġre try
Ġwor ld
ba z
fa ct
Di rectory
Ġre ce
Ġter m
ĠBu ild
E mail
ĠV M
5 1
sc a
ER S
Ġs creen
lo gs
ĠC om
Ġtri gger
cl one
con nected
w atch
Ġtable s
ou se
ĠX XX
Ġauth entication
Co mple
Ġback up
Do es
I mport
Ġle g
Ġupdate s
wh en
S UB
di ag
Ġbu g
Re ader
pa ces
11 11
To Many
Ġ' =',
Ġen viron
C annot
00 01
b um
OR E
b lob
Ġimple mented
project s
thread s
Ġiter ator
v c
Ġcomp are
P os
Ġview s
Ġma chine
read line
Ġac c
Ġ' $
f amily
h ort
fla vor
Ġs ock
7 3
and as
Ġcorrect ly
Ġbehavi or
g f
s al
il la
' +
S tyle
lo or
En abled
S how
TE MPL
Ġdec imal
S um
Ġ10 24
Ġin side
sub mit
ĠAuth or
L ANG
ĠNOT E
STR ING
TION S
Ġfile names
ad ing
ĠIn put
str ument
F ont
diff e
p lain
c nt
ateri al
Ġm is
a ther
> ')
train ing
ra tio
uff le
Ġ" +
RO UP
dest ination
Ġp layer
im ate
(_ ('
UT E
M sg
Ġe v
Ġtime delta
Ġdi rectories
V AR
P ost
meta class
ig ration
Ġtop ic
ĠS o
er ature
ĠS ource
B E
no va
'] ]
Ġ lin
st it
gra dient
s cores
ven io
den se
) }
g amma
de pendencies
Ġs n
Ġfa ctory
ST ATE
eta il
" })
Ġd rop
dis abled
UT F
b est
man ifest
Ġexp and
ĠD I
Ġq s
ĠC ode
divid ual
Ġcontrol ler
k t
pro gram
ce ed
we ek
ä ¸
Ġsk learn
Ġd ue
ĠS imple
exec utable
ĠS ta
ĠO bject
V olume
ĠA lso
r u
Ġde scriptor
Ġc s
oriz ont
cul ate
ep copy
OL DER
ĠN etwork
H ash
ĠC an
con tact
Ġno thing
Ġal ign
s peed
DE F
ed ges
Ġdevice s
int s
list s
k a
} \
Ġt wisted
Ġ tenant
T EXT
process or
Ġb rowser
Ġsi mp
b and
la ime
x is
Ġcall ing
mo x
6 1
sph inx
c v
Ġprocess ing
w b
vo ke
exp ression
z ed
Ġconnection s
loy ment
key word
ph inx
clu ded
T S
O M
g lob
order ing
# ----------------------------------------------------------------
gener ic
L IN
di an
ist o
____ ____
CH AR
Ġreg istry
ĠB SD
r d
ĠIn itial
} "
Ġcon v
ĠI tem
update s
CO MM
per cent
do ctype
RE G
in ary
Ġitera ble
Change d
g res
' d
Ġre ader
ch an
Ġan not
U se
ites pace
ĠE VENT
') ))
pro j
ĠPro ject
Ġ' '.
R et
Ġle ss
201 3
19 2
l n
Ġwork ing
ef fic
ĠCon tent
p ending
Ġ1 8
Ġwri ter
q s
Ġpipe line
Ġsen sor
iz ard
Ġtra ce
Ġh y
Ġcoun ter
re try
9 4
F oo
ge titem
scal ar
Ġp ixel
Ġne utron
ec tive
PRE FIX
DI RECT
Ġtran sport
al ity
Ġin spect
mo us
Ġpar sing
Ġd ouble
H elper
ĉĉĉĉ ĉĉ
c mp
st one
F N
late x
Ġbo ok
Ch annel
ĠDi ct
Fail ure
Ġvar s
I Z
el ls
b ra
si bility
time zone
ĠĠĠĠĠĠĠĠĠĠĠĠĠĠĠĠ čĊ
Uti ls
Ġre vision
ho use
std in
Ġd ns
tra ceback
loy ee
orizont al
ĠIn teger
agic Mock
ĠT EST
" %
Ġit self
Ġpol y
o ted
al loc
') (
Ġwork er
Ġdimen sions
Oper ation
ToMany Field
ch er
an cer
g mail
P ES
Ġma de
IS O
in ux
ĠL ine
dimen sion
Ġs ync
Ġ' [
Ġ" ")
Ġpar tial
pattern s
add on
the me
U U
k o
assertAll Close
UR CE
Ġme m
ro py
ĠV alue
ĠUn icode
state ment
z ure
Ġb l
Ġ( _
Ġdetermin e
col ors
Ġtemplate s
Ġ" {{
Ġmetri cs
base d
Ġcre ation
Ġgra d
Ġst ride
Se lection
Ġadd resses
spec s
Ġfail s
te ction
Ġh ex
siz es
ĠC al
ce pted
ĠSer ver
ma chine
tri gger
gra mm
Ġc la
Loc ation
Ġraise s
rite ri
Ġclo sed
S tep
pair s
assertIs Instance
Exten sion
Ġ201 6
Ex it
8 3
Ġthread s
bo b
Ġor d
W R
Control ler
EN CE
IC T
ĠRes ponse
ĠF unction
den ce
ĠM ulti
prec ation
at o
Re p
"" )
Ġen um
Wri ter
x path
Ġformat s
ighb ors
ĠF ind
c id
ch or
n or
res olve
REQU EST
at t
p m
Ġ# :
w ant
Ġprovi des
6 2
di alog
Ġstart ing
de le
o tes
Ġf mt
Al most
ony mous
re cur
quiva lent
wh ich
N ET
Ro le
H ello
Ġse lection
Oper ator
or ing
edit or
ti tions
Ġtime zone
effic ient
Met adata
A F
Ġse c
par sed
Ġse gment
Ġd uration
Ġ ur
Ġ' +
Ġcon structor
Ex pected
it ude
Po sitive
201 5
T ran
Ġdef er
a cl
time delta
e mit
B ACK
B C
Ġcomponent s
Ġin ner
je ction
Ġconfig ured
Ġro t
Ġp ush
d raft
Ġg r
Almost Equal
Re direct
IT S
A gent
S a
ĠN ULL
e m
Ġh our
Ġ' *
Ġcompile r
ĠOut put
ĠSer vice
ro les
w alk
comp ress
ĠS E
bi as
9 3
Ġscal ar
Ġt s
l st
Not Exist
Ġhome assistant
co gn
f un
Ġdi rection
n ested
Ac count
Ġrepo sitory
Ġin tera
A pi
S ocket
with out
y si
Ġca pa
lic a
Ġw rong
FI EL
Ġmat plotlib
Ġn one
av ing
de ps
; ":
s pe
ol ds
Ġpri or
velo p
ve y
Result s
in ventory
Ġgo od
Ġapp lied
ĠDoc ument
s ame
can vas
Ġse en
laime r
c pp
re et
d x
wor ld
map per
Ġinter pre
get value
Ġn or
ĠS ER
r strip
Ġurl parse
A li
pro ps
TEMPL ATE
ta ched
ex er
ĠL es
== '
K EN
Ġbu iltin
la bility
Ġbu ilt
la ve
ĠF ake
2 34
AP P
Ġ qui
en sure
Pro duct
ag ing
file path
Ġd ummy
dered Dict
Ġcop ies
Ġn ested
Re move
Ġmon itor
St op
D V
mo re
c ar
pre view
ne gative
Option al
Ġp ower
u a
rup t
Pack age
pe t
ĠH AS
8 1
(" <
f ollow
ĠB Y
({ "
p us
ĠĠĠĠĠĠĠĠĠĠĠĠĠĠĠĠĠĠĠĠĠĠĠĠĠĠĠĠĠĠĠĠ ĠĠĠĠĠĠĠĠĠĠĠĠĠĠĠĠ
reg istration
99 9
Ġb ig
G o
Ġse cret
Ġ{} ".
fail Unless
x ff
Ġcan didate
open stack
DE LETE
Ġpartic ular
co ord
L Y
ist ic
in ing
um ul
h r
vai lability
Con n
Ġdis abled
ĠL e
i ble
Ġdisc laimer
Ge ometry
ar ticle
dest roy
3 00
[ (
or ph
Gener ator
Ġt urn
ĠF IX
col lect
dec imal
Ġf s
Ġ4 0
tit ude
ul a
ic ros
Ġro ute
ĠW hether
iter ator
UN D
ĠS Cons
Ġre duce
ĠRes ource
r v
wh ite
IN CLUDING
ile r
un der
add resses
a graph
Data base
) ?
Comp onent
L C
Ġl arge
Time out
Ġquery set
Ġc lf
Does NotExist
Many ToManyField
pl us
au dio
cat alog
IBUT ORS
al len
list dir
it al
ĠO ver
ab ly
ĠIP v
ĠN ow
st age
Bu ffer
"" ")
comp atible
Ġm ime
ed x
{ '
Ġde lay
pre cision
Ġas k
t m
Ġ" [
a lf
ĠS ome
Ġnd array
Ġchar set
Ġax es
lic ies
ĠLes ser
@ @
Contain s
m q
Ġconver ted
UR N
201 2
Ġ question
res sions
Ġa round
ĠPRO VID
cli p
Ġpo sitive
N et
Ġ= ================================================================
at trib
pol l
se gment
T F
Ġp s
ra ble
T ab
Ġm x
ĠE lement
sertion Error
rec v
ini tions
Contain er
ĠDAM AGES
g reen
ST ART
pe er
Ġc c
E P
') ])
a i
F ind
cen e
at ter
Ġt m
assi fication
backend s
Ġc enter
C ell
init y
Ġre stri
ke t
ge om
201 4
P rint
Ġ lineno
.* ?
Ġmin imum
ĠLo ad
ĠL a
par ame
pro g
Me mber
on ical
f rappe
set Text
ĠOther wise
h d
copy right
ĠT able
ti ces
st rap
ly ing
ĠCONTR IBUTORS
ur ses
) -
N ormal
st andard
ol ved
Ġar r
t or
serial izer
h cp
Ġt b
T P
LO AD
rom ium
auth entic
Ġclo ud
En tity
Ġm s
Ġpri ority
require ments
VAL UE
float ing
Ġvi m
ĠJ o
tri p
] ',
Ġsql alchemy
Su ite
ET HER
I mp
ĠP lease
Ġqu ote
v id
s li
h ave
clean up
SIB LE
ag gregate
ref s
ateri als
Ġg tk
sen der
" ',
") ),
co ords
ĠR o
9 2
Ġde g
p in
serv ation
G rid
di gits
ĠIN CLUDING
C al
Ġcomp any
Ġany thing
rand int
AT ED
ĠC ur
Ġread only
Ġ}} "
Ġg ame
clu sive
Ġc ross
ĠA UTH
ly ph
I ter
Ġsupp lied
un link
C LI
Ġfor ward
G G
cer tificate
Ġno qa
t l
Ġdi spatch
I I
ex act
Ġto ols
ĠS up
vis or
ĠSt art
li ct
ce d
un til
pro mpt
ĠĠĠĠĠĠĠĠĠĠĠĠĠĠĠĠĠĠĠĠĠĠĠĠĠĠĠĠĠĠĠĠ ĠĠĠĠĠĠĠĠĠĠĠĠĠĠĠĠĠ
B asic
end or
ĠE ach
NU M
([ ^
c ross
ra m
Ġback ground
Ġde scri
Item s
repo sitory
in herit
def er
ge ometry
> %
unct ools
spec ial
bal ance
pt s
ĠS U
lim iter
C ESS
[ \
ĠVer ify
Ġ8 0
e gg
At tr
an o
Ġex amples
C ustom
est imator
L ock
Ġac cording
ĉ ĠĠĠ
Ġs sh
IN ST
serial ized
Ġcl one
wh ile
ten tion
rep ly
IS ING
Ġn x
CU MENT
Ġ## #
si st
T ri
TY PES
c n
me sh
v n
Ġline ar
A IL
reg ular
ĠSH ALL
mo ving
ci pe
Col lection
Format ter
Ġper m
ĠN E
ct xt
IL D
aris on
ĠPROVID ED
EN TI
x s
ĠO ne
Ġup per
de li
ĠFIX ME
Ġsh a
ĠLI ABLE
1 01
ra dius
Run ner
â Ģ
ct l
L ast
R andom
fore ign
Per mission
S CH
man agement
def inition
F unc
tific ations
cate n
Ġpri ce
hook s
Ro ot
Tra ck
connection s
ĠI s
cur acy
ĠPro cess
ĠAR ISING
Ġne gative
ĠT ask
Ġreg istered
Ġfl ask
Ġsepar ate
Ġm i
ĠWH ETHER
ĠU N
Ġh istory
char s
Ġa verage
Ġhand ling
S kip
Ġattemp t
ĠCONTR ACT
query set
"] =
network s
assert AlmostEqual
W IT
Ġ'/ '
Ġte am
inst alled
I ST
ĠPar se
Ġpre cision
Field s
ĠClo ud
sub class
' ll
Do main
p anel
as is
AN CE
ĠE nsure
get ter
der s
0000 0
CO UN
ĠPo int
E mpty
e ps
S c
res olver
ĠN ew
Un icode
activ ate
activ ity
mig rations
real m
assertIs None
W ISE
st and
ĠTest Case
ver tical
set ter
ĠT ry
ĠL anguage
Ġtrans lation
re cted
] '
ost on
ĠĠĠĠĠĠĠĠĠĠĠĠĠĠĠĠĠĠĠĠĠĠĠĠĠĠĠĠĠĠĠĠ ĠĠĠĠĠĠĠĠĠĠĠĠĠĠĠĠĠĠĠ
tic s
ble ms
nd array
T uple
ĠO P
UP PORT
Ġs qu
Ġbase string
or ation
ĠE xtra
ĠEX PRESS
Ġb al
Ġnormal ize
f ri
C opy
C AC
re a
ro l
icros oft
Ġserver s
sm all
at ar
IP T
ĠD ATA
sa ved
n l
Ġdocument s
com ing
Ġretri eve
Ġcom ments
Ġb ro
i i
Ġh ard
m ultip
on d
ing er
M IT
sec ure
Ġne ver
ti re
c art
ĠP ost
i fies
st ar
Y Y
Ġiter tools
Ġe tree
wit ter
fra gment
Back end
as cript
lo ur
RE T
Ġservice s
velop ment
O FF
u om
EX A
dic ate
D etail
Ġ4 04
Ġz er
Ġcho ice
Ġbo ot
P h
Ġin d
Ġb eta
W ait
Ġcomp atibility
tod ay
fa st
Ġcon struct
ap pro
key words
jo int
M ark
7 1
C lean
bot tom
ighb or
Ġexec utable
Mo di
n ed
B B
re view
(' .')
H ook
pick le
av g
() ;
Node s
Ġinitial ize
a ir
10 24
R PC
run time
no tification
| '
ti ck
ĠOption s
d ag
fi xtures
= ('
11 1
Ġ2 3
Ġ' \\
de pendent
G ROUP
Con ver
ĠRe distributions
cry pted
ash es
S ample
Ġf ire
mt ree
normal ize
re store
| \
ĠH ow
ĠS SL
sen sitive
Per son
s oft
back ground
Ġgener ic
Ġ4 00
Ġdecor ator
um an
cry ption
Ġqu ot
Ġdi m
S ave
Ġ{} '.
ĠOTHER WISE
d ynamic
b undle
e le
ĠCh ange
uni form
ntax Error
Ġc apt
RE E
Ġres olve
([ (
9 1
u ous
ci o
AD ATA
av ascript
us sion
G S
ĠT ORT
/ .
P open
pay ment
Comm on
N ext
ĠF irst
make dirs
Lo op
I con
Ġsy mbols
Ġadd ing
Ġpro duce
av es
Ġcli ck
iv es
Ġst arted
Ġca use
MPL ES
m ust
p adding
hi de
', ),
Ġ' (
mk dir
Ġ2 2
AM ES
o logy
M issing
Ġver y
r st
ĠCon nection
Ġmember s
v l
Ġda ys
Ġ ččĊ
Ġth ings
> ",
Ġconfig ure
V al
201 1
Ġ201 0
ĠS hould
=[ ],
P lease
Ġdi rs
ap s
j ar
frame s
Ġsm all
i ke
mi ted
ok ed
th umbnail
Ġproper ly
us ted
Ġ{} ),
sy mbols
comp o
S IG
i mation
li d
Ġy aml
P oly
U sage
ĠF e
DO CUMENT
initial ize
Ġ' ':
F older
j pg
bo unded
Ġ5 00
Ġderi ved
ker as
Ġ' :
ator y
ĠC a
split lines
Ra w
ach ine
S ITE
m gr
Pa rent
cal c
ĠDe lete
Dis play
on al
6 00
Ġe ffect
at ype
AS K
Ġone s
ic ally
C er
Ġsy ntax
fin ished
Ġre ferences
red s
check s
Ġe di
la g
orn ado
C D
st ics
ep isode
Ġ201 1
Ġth reshold
Ġ' {}
Ġ ser
ed u
Ġread ing
s yn
b f
Ġtemp orary
Ġ( [
a e
org anization
par ty
Ġa ble
ĠSt ate
str ategy
En coder
istribu tion
AN SIBLE
w ar
Ġco st
ĠH OLDER
Valid ationError
an a
16 8
a verage
Ġre v
Ġpattern s
to o
UR I
CO M
AR K
z illa
UN K
web site
Ġdist utils
e cho
De bug
Ġvari ous
ĠCon vert
Ġget s
201 0
ti os
Ġcheck ing
Ġinter faces
Ġs peed
oper ations
P ACK
Ġc pu
Ġle x
Ġmap per
ON G
si b
AD DR
allen ge
Ġerr no
j ax
k ing
Ġcalcul ate
Ġcon nected
fig ure
XX XX
Fe ed
ig en
ra se
pre sen
ma y
Ġsh ift
Ġthe me
-+ -+
an ded
Ġport s
/ <
ĠDefault s
Ġest imator
li ck
Positive IntegerField
track er
ron t
Re quired
Ġorder ing
MET ADATA
Ar g
ĠM ax
ti ce
Ġcal ler
le af
ĠU SA
ĠC ustom
Ġkey words
Ġman ifest
Ġc b
A IN
C UR
Con straint
Ġstri ct
Ġ( @
He ight
re size
assertNot Equal
50 9
Ġlate st
Name d
Ġ ^
En gine
out ube
TER N
at al
ime n
he el
title s
; \
ce eded
" +
, \
ĠKey word
Ġman ual
m ysql
ĠCon struct
ĠS top
PO INT
], [
ĠĠĠĠ ččĊ
add Widget
ir cle
re name
ĠQu ery
el y
S o
Ġde al
PE CI
} :
ĠArgument s
. +
t ot
G lobal
('/ ')
Ġmeta var
co v
Q gs
COL OR
Ġpa y
a gs
Ġin ventory
CON N
man age
Ġdi d
z on
(' #
={ "
ĠP ri
LOG GER
Ġ" (
=_ ("
Ġco ver
ten ded
volume s
cy cle
g ri
du cer
n dim
Ġ ri
Ġs can
Ġrun s
Ġchannel s
. "),
Ġpre tty
E VENT
ff t
Ġsim ilar
ac ter
Ġme t
R ect
ĠS tr
Ġv s
ĠS UB
assertRaises Regex
Ġauth entic
Ġinclude s
Fa ke
ex amples
Off set
b re
op le
ĠO per
WOR K
Ġin dividual
ĠS u
Ġover write
Sy mbol
Ġ urls
Set ting
Ġst uff
can didate
B ig
auth ors
mi tive
I ES
ĠB oston
P P
C md
Ġwrap ped
2 000
S parse
cer ts
Ġma kes
Ġfa cts
Ġ/ >
/ (
"] [
i dent
gra ms
Ġh idden
gramm ing
Trans form
clean ed
b lack
mo o
Ġor dered
ĠL ib
FF FF
tific ates
q t
G IN
section s
Ġcur r
Ġre ally
S end
Ġre cent
si tes
Ġcode cs
Ġth ree
as array
y y
shape s
. ],
Ġp lan
pix el
Ġa m
S ingle
Ġ( ?
ĠC l
Ġed ges
o om
ĠCo mm
st arted
ĠĠĠĠĠĠĠĠĠĠĠĠĠĠĠĠĠĠĠĠĠĠĠĠĠĠĠĠĠĠĠĠ ĠĠĠĠĠĠĠĠĠĠĠĠĠĠĠĠĠĠ
Ac tive
Ġn b
err no
Com ment
M apping
ĠW rite
Ġde pendency
Ġsen der
Data set
Ġhash lib
ĠS TR
ĠIndex Error
lo pen
il li
] }
po ut
lex ible
lib s
con figs
Ġra ther
for mer
Ġcheck ed
cel ls
Ġ{ %
Ġbet ter
Ġpro cessed
AT OR
EC TION
Ġserial ize
ver sed
Ġle arning
and roid
len code
Ġno tification
Ġm u
Ġm m
L exer
yn cio
! ")
is m
Ġ[{ '
Ġd ynamic
v r
igh ted
b g
EN ABLE
un ter
d m
Ġpre vent
fin ite
Ġfa ce
Ar ticle
ph p
s lots
Ġ layers
Ġcon sole
Ġre maining
vance d
Ġg u
Fla gs
oc ial
ur ations
% %
Cur sor
char set
ĠNo tes
read only
` :
RE D
ĠGener ate
z A
ĠV ariable
al iases
Ġwho se
Valid ator
ĠC lass
work flow
ĠD on
isto gram
cre te
Ġin voice
yn omial
CRE ATE
Ġe poch
ĠPO ST
tmp dir
M ESS
lif y
Ġappe ar
Ġc wd
ĠG a
Ġplugin s
Ġu i
D el
si lon
Ġdoc s
Fla g
: ],
At tributes
Ġfin ished
Ġren dered
Ġw arn
ma jor
AS H
den tical
Ġi dentity
hour s
V irtual
log ical
con sumer
sa le
se en
Ġcomp at
Ġdi alog
un used
and s
Ġserial izer
ĠP ass
F irst
g ot
Ġ ;
ĠT ag
account s
ac quire
Ġexplicit ly
re load
} ),
ĠD IS
Ġproduct s
is ual
window s
pe ak
flat ten
Ġcon tact
s ol
Ġrun ner
Ġ201 7
ON T
ĠĠĠĠĠĠĠĠ ččĊ
l r
en tities
#### #
F UN
P H
Ġshow n
de epcopy
L AN
TIME OUT
/ (?
u tions
Ġs lug
Co okie
t un
N ULL
c ategories
Ġg ive
Ġp lease
Ġrep ly
ĠS kip
Ġas set
m time
i an
---- --
Ġdi gits
cre ation
k b
ler ance
Ġsh are
in crement
C or
AR D
ass oci
pro duce
P ick
U UID
ĠC or
Ġ2 1
tr unc
Ġp ub
G TH
Ġfloat ing
b ile
at temp
PASS WORD
ĠC all
iv ar
} ',
Ġun pack
Ġt run
. '),
Ġd om
ĠA b
Ġpro mpt
Ġ jobs
Dec imal
li text
po sitive
') ],
ĠEx p
N C
d y
ti s
go od
S ome
b ro
] "
m ime
ĠTensor Flow
t cp
Ġs leep
ysi cal
sup p
provider s
or dered
Ġlon ger
ĠOr deredDict
s lot
S pace
B atch
N on
: ")
us sian
AR GET
Ġcoordin ates
P art
S m
ĠPer mission
################ ########
d ashboard
Ġapp s
C ategory
sig ma
Ġsuccess fully
Ġp ie
ĠH O
co in
ĠU sed
d al
f b
ĠS ession
load ing
Ġin line
> `
di f
Ġ2 56
po inter
obj s
P attern
ĠC ho
ch dir
co ordin
Ġman age
M AC
E Y
w t
al let
Cl assifier
B it
AT CH
b all
Ġr pc
Ġ 00
th eta
"" ",
Ġe quivalent
EXA MPLES
c u
po w
Ġma g
Ex ists
ra ps
cap t
Ġcol s
EMA IL
Gener ate
al lation
ĠC H
Ġw on
MP LE
') ):
ĠF I
re ceived
Ġsu c
Set up
' <
ĠC A
m ongo
Ġs yn
Su ccess
N ote
Ġreturn ing
Ġ' ?
Ġ\ \
Ġ gs
D T
Re port
Ġcreate s
[' _
In te
Ġe s
g ation
modi fy
Ġcount s
Ar ch
in tera
Ser ies
ĠValid ationError
Ġi teration
Process ing
ĠI F
vari ant
> =
LOC AL
De p
============ =
5 12
ti fact
Ġge o
co okies
Ġun i
I t
Ġrun time
Ġp or
__ ',
n ers
ĠData base
Ġen ough
Ġpe er
Ġse p
Ġper cent
xy z
Ġm ultip
** *
TO KEN
ry pto
Ġmatch ed
h ot
comm unity
man ual
Ġas signed
Ġst ati
Ġevery thing
repe at
a lert
bind ing
ã ģ
f u
ti p
" />
} {
loc ations
Ġre actor
AN Y
DOCUMENT ATION
ten tial
ĠW S
hy per
m icro
X Y
Ġun less
S ee
() ).
DE X
ĠB O
Ġdi ag
Ġth row
T er
D AT
ĠB lock
Ab stract
Al low
attach ment
k ill
Ġst age
ma zon
Data Frame
Ġcy cle
Ġmodi fication
Ġ' &
Ġi r
ĠAr ray
ĠR FC
ĠP Y
publish ed
Ġtest dir
Ex ample
Bo ok
ĠCom ment
Ġresponse s
ĠR et
MET HO
o bs
Ġcheck point
pro tected
Ġversion added
check sum
Ġhandler s
encode d
Window s
Ġ12 8
ca y
Ġat ol
Ġbot tom
Ġp ip
Ġ ls
j ected
Ġmig ration
def s
ph ase
ĠV ER
Ġexec uted
ul ly
ter ms
con s
Ġreg ard
ĠHOLDER S
th rough
EN S
ĠG ET
[ [
F in
Ġformat ted
EC K
tr l
__ ))
v ocab
E st
ĠD es
Ġc ancel
Ġref resh
P ACE
s f
ĠQt Core
Ġc ut
cal lable
d ocker
Ġrepresent s
T otal
Ġtrans late
ĠS IGN
Ġout file
St ats
Ġ* =
d rive
o res
sh utdown
lat forms
St ub
Ġclean up
check point
(' ')
ta bs
Ġli ter
File name
(" .
TH ON
u it
Reg ister
S ite
di git
metri cal
Ġ å
cl usters
Ġen tire
Ġan gle
tro ls
En vironment
' m
b order
we et
Cl uster
Ġfra gment
ment ation
HEAD ER
Sec urity
az ure
HO ME
Ġlo gs
L im
201 6
ĠComp ute
Ġserial ized
lin alg
imat ors
y e
bound s
] {
do es
ite rable
Ver ify
ĠA TT
Ġpy game
Ġf unctools
ri ces
x p
ĠR ed
Ġen tities
a ff
me asure
vi le
ca lendar
Ġs olution
Con vert
WAR NING
Ġdep ends
B Y
W IN
iv y
limit s
con structor
parame tri
CH ECK
ĠF orm
ph one
fin ish
Ġin f
Con f
Clo ud
date s
loc ator
(' ',
ĠĠĠĠĠĠĠĠĠĠĠĠĠĠĠĠĠĠĠĠĠĠĠĠĠĠĠĠĠĠĠĠ ĠĠĠĠĠĠĠĠĠĠĠĠĠĠĠĠĠĠĠĠ
ĠG iven
in el
Ġre tain
s ince
Ġimport s
assertNot In
Ġre d
I AL
UB LE
Ġhttp lib
Ġ er
i j
ang ing
N AMES
ch at
con cat
ĠDec imal
IN PUT
Ġres pon
r mtree
ri gin
Ġcol lect
stub s
Ġs cores
bi an
re at
sp litext
ffic ient
l ash
he alth
b ulk
Ġre ct
g id
] (
Ġ" \\
Ġchunk s
Ġp rom
con tinue
Ġcol ors
SC R
AR CH
Ġ" $
N a
Qt Core
as te
is ten
'] ):
G en
Ġcon side
exec ution
ĠIn te
Ġf rozen
ap er
Ġme asure
ĠS p
Ġare a
Ġfig ure
ĠI mp
Ġpre pare
M ultiple
schedule r
Ġvi sible
Ġt xt
ĠOr der
Ġ3 1
P A
+ ',
- \
Ġcop ied
Ġv lan
L a
PRO TO
Ġ ve
Ġm ut
Sp lit
ĠK EY
collection s
ĠCOPY ING
widget s
Y PE
ĠA uto
([ ])
Qt Gui
ĠS phinx
cur r
Time r
pur chase
Ġeval u
=' /
I V
b ut
Cho ice
ç ļ
gg le
Bo unded
Ġk lass
S cale
çļ Ħ
M UL
Le ft
quot a
ro pout
Ġinst anti
Ġg ateway
O pt
B ody
ma ps
con struct
SE QU
Tran sport
J son
assertIs Not
p w
([ ],
/ $',
m id
al gorithm
en coder
an iti
po lation
Ġcontrib utors
D C
Ġgener al
Ġf o
Ġt w
RE F
ĠM atrix
Ġ5 1
Ġp andas
En ter
response s
in ct
Ġpredi ctions
Ġal tern
Ġab sent
e u
Pro perties
Vi deo
h ard
ĠATT R
B ind
sw ap
------------ -
ĠGener ic
con firm
Ġ= >
Ġactiv ation
ĠP age
rec tive
Ġs in
Ġl at
ad ditional
Ġver bosity
Ġarg v
an ity
ad s
al ive
Ġ""" )
d ating
_ '
sa mp
R C
ĠS ec
ĠAs sertionError
', )
FIL ES
v ault
__( *
ho od
let ter
format ter
LEN GTH
CAC HE
C ER
f w
Ġspa ces
Ġimp orted
Ġ{ {
read lines
si der
Ġload ing
Ġ'. '
tensor s
Ġsq rt
ĠL E
ue s
And Return
Ġc p
Pro to
h int
v t
ĠG tk
g c
I dentifier
Ġg c
Ġedit or
! "
ĠSe arch
/ *
= ""
ca de
Ġe mit
{ "
33 33
ĠB oolean
F i
di ctionary
analy sis
a lect
is co
RE AM
Pre fix
in ations
Me mory
mig rate
H as
r um
or ies
Ġc f
de serialize
th at
sv n
sp i
al ways
let te
z a
case s
ĠA ction
Ġg ran
parent s
ĠMe thod
> ,
ri eve
P ol
le arning
S M
ch rome
ex periment
spa m
Ġstd in
ĠAd min
ENTI AL
Ġbe come
graph y
iz ing
ĠU RI
Ġqu eries
Ġ2 8
ĠP ack
ER Y
index es
5678 9
book s
Â ł
Ġre store
NO WN
Ġret val
MB ER
I teration
b ridge
r gb
Ġb order
Object Name
t w
Ġin correct
U ST
RET URN
domain s
v v
mp o
lu x
r x
ĠP a
ĠH andle
sv c
B inary
issue s
la unch
la h
ĠM ark
Ġ" (('
Ġr tol
Test ing
Query set
SH A
up grade
MS G
mg mt
Ġg reater
Ġor m
ten v
l g
={ }
Ġco efficient
ur ther
ro ke
Ġ| =
j ac
sd k
() ])
ĠM O
Ġcomp uted
P K
m x
co ef
rid den
T CP
Ġco s
Lo okup
Ġsuccess ful
Ġim mediate
Exp ression
cre ator
, %
T AG
ï ¼
Ġe ar
te ctor
ra in
Ġopt parse
Ġ[ %
comm unic
n ick
mp ath
") [
([ ('
R UN
ĠB ook
OP TIONS
Error s
match ing
Ġc atch
ĠT hen
Ġm uch
Lib rary
Ġwho le
Se ction
Ġprob ably
C URE
ne g
Element s
F lexible
VIC ES
Ġse ver
Ġra dius
fire wall
clar ation
Ġdoc test
c lock
Re ceived
Ġmap s
ĠIn st
Ġse quences
Ġx b
< <
Ġ tes
pre p
P anel
Ġoptim izer
S K
Ġper mitted
Ġfil tered
Ġy es
diffe rence
check er
Gra dient
ou cher
PECI AL
p d
cre dit
Ġhand led
Ġf req
Auth entication
[ ]
Ġse lector
Ġ" *
Ġ= ====
Ġplace holder
pre tty
Ġsc ra
Ġac ross
Ġ-------------------------------- ----------------
cs rf
=" /
ne utron
sub set
mis c
N ONE
Ã ¡
Ġb lob
__ ),
)) ))
en ded
Ġ3 7
tist ics
Ġtensor s
P lay
pro d
] \
{} '.
n r
Ġback wards
= "",
Ren der
LIN K
Ġfla vor
Ġcoun try
Ġconstraint s
get cwd
sub scribe
Ġunder lying
P lot
Ġpro blems
Ġnew line
RA W
ise d
Ġrelation ship
Ġa v
Ġa ws
OF P
Ġdiffe rence
Ġlog ic
Ġm k
sc ene
Group s
COUN T
Run ning
Ġconside red
set ObjectName
RES ULT
I VE
File Name
Ġep isode
En coding
Ġl st
Ġp ending
FIEL D
er ge
log its
Ġl ar
Ġo l
Ġr ng
DO WN
M C
Flexible ForeignKey
sc i
LANG U
USE D
8 00
utc now
inger print
Queryset Equal
Ġstr ategy
AN T
H elp
AD D
Ġca st
mig ration
ĠĠĠĠĠĠĠĠĠĠĠĠĠĠĠĠĠĠĠĠĠĠĠĠĠĠĠĠĠĠĠĠ ĠĠĠĠĠĠĠĠĠĠĠĠĠĠĠĠĠĠĠĠĠ
ĠF oo
Ġr hs
df s
ĠS ign
'), )",
Ġparent s
Gener ic
parametri ze
i os
in o
Ġden se
Ġo auth
ĠT oken
D est
need s
ĠDe f
s nap
Ġen ter
() .__
E MPL
Ġs olver
process ors
c ube
ĠC re
Ġcon ven
assert QuerysetEqual
ĠE nd
Ġb el
Ġsig ma
i di
sym metrical
A X
b ri
T ARGET
i fier
Ġfile path
DU LE
ĠO K
p ull
Ġth ing
Ġp ys
Ġcon version
Ġfa st
Ġchar s
Ġcheck sum
lock ed
dep loy
Ġeval uate
E E
ĠI nt
Ġr and
Ġx module
co eff
/ ?
ve red
SCH EMA
Ġb undle
ĠA WS
ĠD ummy
Ġwe ek
Ġj s
ĠĠĠĠĠĠĠĠĠĠĠĠĠĠĠĠĠĠĠĠĠĠĠĠĠĠĠĠĠĠĠĠ ĠĠĠĠĠĠĠĠĠĠĠĠĠĠĠĠĠĠĠĠĠĠĠ
co verage
En able
Ġw atch
Line ar
Ġph ase
ul ated
L anguage
ĠB ad
Ġ3 00
Lo gin
Ġos lo
B R
c ustomer
Ġt p
loc ate
document ation
Ġflat ten
Ġ---- -
M igration
M achine
Ġhy per
wri tten
Ġdef ines
../ ../
un ce
Ġs ol
Ġar ticle
u do
de coder
Ġla unch
wrap ped
FE AT
sub s
Ġfl ush
Ac cept
Ġglobal s
ĠPer son
//////// ////////
CC ESS
I p
Ġw a
ĠAr ticle
listen er
ad ow
U sed
it ch
Ġli ght
ĠAl low
ar ing
constraint s
ab out
ĠST ATE
trans pose
Ġag gregate
me t
ĠP rint
C F
Ġm aterials
si c
Ġweb page
Ġwork flow
TI M
ver bosity
Ġmin utes
Ġpo inter
Ġag ree
U ES
CL A
Ġdir name
capa city
Ġp lain
P r
---- -
BU ILD
le c
Ġman agement
Op tim
C opyright
de sk
ĠThe y
cen ario
Ġ200 8
len ium
Ġme sh
MO D
Ġfin ish
Con stant
Ġl d
Ġdefault dict
riteri a
AC TI
A rea
"] ),
PO S
=' %
E d
ĠIn stance
su ally
ĠEN D
ĠM IT
S cope
add Callback
Ġker as
ĠMA X
f requency
Inter val
Ġla zy
global s
Ġin herit
y cle
AC TION
SER VICE
S pa
Reg ion
co hort
~~~~~~~~ ~~~~~~~~
V EN
Ġstart s
de ri
Ġe mp
ch a
play list
A xis
By te
d hcp
ĠSt ream
N ull
AB C
Ġro ut
Ġcomp atible
ĠF L
V EL
v pc
Ġa udio
Ġc ar
ze ug
SO CK
ĠCur rent
Ġf requency
Ġst ub
Ġsetup tools
are st
S N
quen tial
S creen
Ġta ken
An sible
Ġd uplicate
se g
Ġe ps
k zeug
Initial ize
h ist
local s
Ġfunction ality
lap sed
Ġto l
Ġc ent
ĠData Frame
ST REAM
Ġlib raries
Ġcon sumer
Re po
ĠR en
Ġc e
mar gin
OT E
ti cket
ast ic
st an
fo x
Ġsub scription
Ġread y
Pro gramming
IN IT
Ġf ew
DE D
MESS AGE
rag ma
W A
S cal
Ġretri e
CONT ENT
b tn
pro cessed
sy ntax
tab stop
' ve
ch art
ESS ION
Ġs li
d ll
ĠA C
sh ake
ti vely
G IS
Ġindic ating
wa ve
U til
con ditions
match ed
cid r
Ġp t
Ġimple ments
ID ENT
Ġbound s
me try
un ion
Ġin cre
-------- -
la ys
lev ant
Ġrece ive
ti ally
An aly
Ġl b
Ġn est
rol led
l ar
as c
Ġ5 9
Ġcode s
ĠCon trol
B LOCK
Ġshould n
Ġ' '),
Ġp g
fo c
Ġf amily
caten ate
B L
Ġexact ly
d ings
RE C
Create d
Ġcomple ted
Ġin p
sc en
ĠAc count
b ank
C LO
Ġf h
TE GER
Ġtra iling
Ġno se
Ġrecur sive
an te
Ġc ells
a ign
ĠO p
pre ad
pl ural
OUT PUT
ĠM ust
UR ES
click ed
ser ted
ld ap
Ġh it
Ġs lot
-------- --
Ġwh itespace
S im
Ġspecify ing
M ask
ĠFor mat
me ter
Ġresult ing
Ġ` ``
Ġtime r
p time
Ġab stract
ty p
trans fer
ĠGra ph
pa per
Ġup grade
Ġn ative
ĠV AL
ĠQ ueue
ient ation
Ġ} ),
spec ified
Ġsimp ly
Ġg uess
de mo
valid ator
ctype s
=[ ]
[ %
Ġt or
Ġch r
Ġ200 9
Ġreplace d
Ġt ax
ĠM et
Re lease
Ġbound ary
ĠĠĠ čĊ
ar rays
n umeric
Ġg amma
" ')
S IGN
Ġlog ged
) ._
Ġre view
ĠS ince
mode s
Ġformat ter
Ġindic ates
De code
dis connect
Ġb us
Ġreg istration
Point s
func s
g re
Ġcan vas
Ġv tk
sc roll
ME DI
b n
bit rary
Ġdo ing
c as
work ers
ĠLoc al
E val
RO L
Ġde li
? ?
or a
OP EN
ĠW ith
foo bar
return code
ĠF ilter
b box
Conn ect
du ces
assertIsNot None
> .
In it
si one
cp us
l p
1 30
log o
Comp ute
D N
R GB
ann ed
ĠJ ava
ĠSe lect
ĠIN TER
Ġactiv ity
leg end
Ġf ab
l arge
ph i
k g
Ġsub set
De ferred
range s
P DF
ĠB asic
P N
ab e
arch y
Ġn umeric
M ac
ĠSt atus
r ating
en cy
Ġde tect
P e
h ar
p ip
Sum mary
L isten
ent ropy
b et
annot ation
Ġ" {}
ĠE T
ip pet
Ġal t
du al
v pn
ti ll
SER T
ĠA CTION
Ġ ----------------
Ġcon sume
ĠS end
se titem
k i
add ons
In line
Ġlog its
precation Warning
inc ip
ĠM ain
Ġa lert
rece iver
Ġd ocker
Ġsub classes
m ass
Ġzer os
UP DATE
F D
predi ctions
qu ent
Ġc t
m f
Ġc ategories
_ [
1 0000
decor ators
M od
re start
Ġfi xture
sup ports
gen e
a de
ĠSt orage
En v
R ight
Ġc lip
C AS
Re mote
se udo
ĠM in
ĠB ack
Ġcur rency
ĠU P
ense mble
min imum
ac i
s park
Ġreplace ment
i ties
ĠN et
rec ipient
Ġa ff
G C
Ġget ting
number s
' (
Ġe asy
fil tered
Ġinitial ized
sign als
V T
. '''
Ġ journal
pa use
Ġskip ped
Ġ% .
n at
Ġ2 9
mark s
Ġpro cesses
sm art
Ġgran ted
ron tend
Sign al
in ess
ou te
Ġanaly sis
MUL TI
inter net
ĠRes ult
Ġframe work
oo se
ĠM agicMock
e ager
file no
V S
ĠS a
LO B
da emon
squ are
termin e
ĠU UID
c lf
ĠCon text
vi des
Inst all
for um
R ed
i denti
ĠEx ec
mo use
n av
g gest
am ing
pi e
Ġ2 6
ategor ical
t ls
ĠP OS
p laces
Con sole
ar tist
B AD
in ted
Ġw s
pri v
bi b
bind ings
Ġf allback
METHO D
D jango
Ġ" ":
Ġb ias
Ġip v
Ġitera tions
Ġmer ged
Ġtry ing
D one
} ]
la red
ss ue
Ġc ach
Ġv o
ti cks
ĠL abel
Ġ ke
ĠAs sert
ĠWS GI
M AL
Ġh aving
lan ation
Z ip
Ġmo unt
G T
Ġmark up
Ġdisplay ed
Ġsend ing
R ate
TEST FN
ĠL ay
re moved
ĠP lace
el low
level s
FA IL
ĠDI RECT
ĠCreate s
Ġac cepted
post gres
^ ^
ĠR andom
C FG
Ġe as
if ace
Ġto k
Ali gn
=' '):
PAR AM
12 0
Widget s
TI CE
: /
qu it
f fi
ĠE mpty
ce p
lo s
App end
Ġhandle s
Ġre start
Ġs s
Ġde tail
ĠM ap
Ġ9 0
Ġta il
ik i
f k
ĠG L
> ")
content types
v tk
ĠR PC
pro x
stru ctions
T ABLE
b p
Ġ[ ("
Ġsign als
mo bile
Ġsepar ator
ĠCh ar
rest ype
Ġdi sp
ĠĠĠĠĠĠĠĠĠĠĠĠĠĠĠĠĠĠĠĠĠĠĠĠĠĠĠĠĠĠĠĠ ĠĠĠĠĠĠĠĠĠĠĠĠĠĠĠĠĠĠĠĠĠĠ
Ġrec ipient
( ("
ĠA L
sq lite
Ġget text
ard own
Ġgo ing
= \"
h w
h orizontal
Ġdoc string
Sta tic
I LED
j i
' ")
ĠH ost
Ġpass ing
Ġfile system
io dic
Ġcoordin ate
am i
com men
DES CR
Http Request
file names
v endor
ĠG OO
bin s
n y
------------ --
(' {
Ġout side
Ġnormal ized
ĠCON N
Un expected
ri cal
Ġ" :
to ur
PRO JECT
M AN
mo vie
gener ated
Ġlet ter
it ation
ĠS PECIAL
Ġcomp ression
ther net
201 7
code c
ir th
Ġc irc
Ġman ually
te ll
Sh ell
; '
O IN
Ġlocal s
Al gorithm
NotFound Error
Ġin crement
X ml
/ ",
ĠAdd ress
.... ....
S ensor
u k
Ġag greg
Create s
Ġwe ak
Ġrequire ments
abstract method
ĠA ccess
Ġto day
arg types
g w
Ġcon d
su do
k v
ĠS im
Ġn ume
ĠS P
)) ]
B ound
ro om
ra c
F ITS
ne ighbors
qu eries
Ġf urther
WIT H
moo th
an cy
EN AME
] =
ro ve
Ġn n
loc ity
Ġo uter
ĠPO INTER
uplic ates
f tp
E rr
Ġre produce
se ct
Ġre main
oriz on
Clean up
ĠVi ew
se cs
bot o
Argument Parser
ype s
dir ty
ro per
emp loyee
ch r
for ma
ite cture
c atch
Ġs g
ar row
assertRaisesRegex p
$ {
Ġp red
Ġcon tin
/ \
Ġv ocab
activ ation
M IS
ild card
per f
CA DE
ĠDIS CLA
module store
int o
Ġ2 7
MO DULE
I dentity
T L
C alled
spa wn
CLI ENT
Event s
Ġl n
Ġf u
Ġvector s
separ ator
) ['
qu antity
Ġen coder
ry py
Edit or
200 9
gener al
Ġmap ped
ad apter
B IN
Ġadd s
As sert
Ġun used
al tern
ĠSy mbol
Ġt y
P i
al bum
P ay
S witch
work ing
g uest
si vely
Ġlanguage s
in p
Ġco ord
ĠD NS
ra d
l as
? ',
S oftware
cs r
L P
co urses
Ġ\ "
m n
Ġdi dn
pro files
Ġ$ {
Ġwh ite
out ine
li o
Ġex periment
C ancel
Ġretri es
st ic
sur face
ren ces
Ġ'% (
: ,
Ġwait ing
SEQU ENTIAL
Ġp laces
leg acy
Ġn args
re tries
Ġdate s
ynchron ous
pa gin
Re set
+ =
Ġu gettext
Ġf un
sl ash
Ġsub mit
Ġra tio
ile nt
01 234
mp aign
ĠAUTH ORS
l c
Ġtrans fer
her ited
Ġp in
Ġ qual
sh op
D raw
V IE
optim izer
R Y
f allback
` )
F ull
Ġnoti fy
ĠE mail
fetch all
fail ures
author ized
N OR
USER NAME
D en
Ġbase s
Ġj ava
T RAN
str ptime
ĠS ave
S chedule
ĠWor k
min utes
Ġ================================================================= =============
Sy ntaxError
fi d
C MD
sib ly
OR IZ
able s
IM AGE
Ġframe s
de t
Ġcer tain
and atory
Ġpol ling
ĠLO SS
ĠEn vironment
Ġ quality
ĠS O
ĠM on
ri cs
est imators
Ġro les
Ġpixel s
si mul
an der
ST IT
Ġspeci fies
Ġreal m
capa bilities
gen ce
Ġloc ations
ort ran
De le
--- +
tz info
* ',
db ot
v in
ĠB it
Ġb r
Ġ( {
Key Error
top ics
a w
s olve
Ġinteger s
W in
ĠC FG
! =
ĠCON SEQUENTIAL
Re present
Ġsq lite
> [
A ST
P ix
Ġf ully
l and
Con v
equal s
Ġcat alog
x i
ĠV ector
Ġfa ct
Ġ ################################
") ]
Ġlook ing
Ġliter al
no ise
; "
Ġth umbnail
Fe atures
* \
Set s
ä »
Ġin iti
Ġco verage
i ms
ub er
Ġhelper s
Ġge om
nb sp
Ġa u
ER P
r ator
ar c
la re
unct uation
F ixed
Ġbuild ing
assert Contains
In ternal
IG ENCE
chunk s
Ġweb site
n ic
ĠP lugin
j avascript
max imum
Reg istry
a o
Ġb and
po six
s ink
b roadcast
Ġauth ors
ĠInitial ize
GL IGENCE
Ġc n
A fter
PL AY
rand n
g uid
Ġ2 04
me ans
ĠA RE
1 99
(" _
temp erature
G EN
Ġindex es
Ġle ave
roll back
P ush
Z ero
Ġvalid ator
Ad apter
ã Ĥ
ction aries
dict s
ĠIN C
Check er
] -
d temp
ĠIN DIRECT
QU E
sh ard
ĠR O
Ġcontrib utor
Ġs izes
ri er
( "")
ĠPRO FITS
Ġcl assifier
se ason
lin space
gg reg
ĠBy tes
Ġd x
se mb
UP ER
dd t
STIT UTE
Ġ""" \
A UT
Ġrestri ction
D ouble
Ġal ph
ĠGe o
18 0
De coder
P ipe
Ġs alt
Ġinitial izer
ĠMy SQL
Ġvari ant
Ð °
UT C
SO URCE
Ġle af
ses sions
} ))
check ed
Ġpa gin
et ree
Ġzip file
Ġwindow s
Ġscript s
R UP
Ġde limiter
Ġpar allel
Ġdep loy
b enchmark
MET A
boot strap
={ },
ĠOver ride
de pendency
sur vey
P layer
re pos
Ġti cket
ĠT ABLE
(' __
veloper s
b gp
me ri
F etch
T LS
Ġ ut
w rong
Ġp df
(" [
Ġat tached
Ġe t
ĠR el
b log
Ġg yp
Ġqu otes
dia lect
a ux
rou ped
Mo ve
Time stamp
å ı
Ġf ore
Ġ200 6
Ġxml ns
S ING
Ġcl assi
deg ree
L ines
re lu
Temp orary
w as
P ublic
communic ate
li hood
Ġno ise
Ġwidget s
ten cy
Ġ200 7
ĠH E
ĠF loat
ĠNE GLIGENCE
re tri
per ms
Ġperform ance
Ġde tected
Ġbase name
Ġm icro
spa ces
Ġb enchmark
k l
LE VEL
oc us
Ġp p
epoch s
ta ke
Top ic
an ted
Ġissue s
Ren derer
Ġmac ro
con sume
Dis k
g pl
Ġpay ment
Ġs oft
ISE D
inter cept
Ġchar ge
it able
ĠSet s
Trans action
Up load
D istribution
or ator
n m
c ms
Ġsh all
DE VICE
Ġle arn
Ġassign ment
c amera
cl assi
fe e
l v
TE MP
D b
w ind
Ġexten ded
Ġh old
cal culate
} _
con fir
ins pect
M ar
ĠTh read
decor ator
temp dir
b ing
cla use
Ġa ir
ĠMan age
de ad
Ġoverride s
st mt
ĠIn venio
D P
am b
nor mpath
ta ge
] ')
T OP
real path
NO DE
Ġi de
Ġpro duction
36 00
Ġp print
kw ds
############################################################################## #
Ġdistribu te
op ro
Ġv oid
s olver
si mp
dic ator
j u
ur lencode
r nn
bo th
su ch
L ong
Ġc ss
il dbot
Ġcomp iled
25 0
ĠC er
G ame
en c
Ġoccur red
m ut
Ġp ull
tain er
o v
st able
assign ment
co pg
Ġde serialized
([ -
Bad Request
col lector
exten ds
Ġinitial ization
b old
Ġ-- >
bal ancer
fra c
******************************** ********************************
g ge
Re al
Ġexp ressions
Ġlimit s
ĠO Auth
' [
i lo
Ġe igen
k ely
ĠU TF
$ ')
as sets
ĠM ay
u lip
ĠA DV
Ġlisten er
Ġde coder
TI F
Pro p
y outube
parser s
} ",
ata ble
Ġr s
NU MBER
liter al
Ġpredi ction
ph rase
Ġsystem s
Ġover ridden
b idden
Ġcomp arison
Ġstati stics
C AP
P G
Ġd ag
IME D
Lim it
Ġv pc
Ġro ll
Def inition
L B
Des c
Ġse g
ĠB US
An y
L AY
Ġlocal host
ĠL inux
xx x
Ġserial izers
( ",
AC CESS
Ġda emon
IN DEX
cogn ized
d up
po licies
box es
ĠPar ameter
Ġmar gin
set attr
en rollment
(' ''
x FF
Config ured
data store
Ġbegin ning
ĠAt tributes
or se
Ġth ird
po ses
Ġ: ]
Struct ure
pro cesses
Request Handler
W H
Ġ$ (
sc r
Name space
Ġbl ue
P latform
OR D
.+ ?
STAT IC
Ġ Ð
Com bo
ĠSUB STITUTE
g ain
reg istered
out file
Ġcom ma
! ')
R F
ĠHow ever
str ong
data sets
mark up
... ,
Ġdef initions
= """
Ġst ock
LE FT
c irc
P lace
Ġidenti fy
ID D
ĠDE BUG
callback s
edi table
Comp iler
W ord
() ['
D A
h am
= ",
P M
Ġt k
wh at
Pack et
T here
recur sive
se mble
Ġco okies
=_ ('
Ġad dition
i ma
Ġn t
Ġsever al
Ġg ui
t an
in verse
ĠConfig uration
cry pto
d uplicate
annot ations
s lave
ĠFor ti
log out
Z Z
last ic
contain ers
Ġpro ps
Ġpre dict
vide os
Ġsign ed
ag greg
ato ms
foc us
Ġli ve
U tf
per form
Ġshape s
Me dia
Ġfrozen set
ĠC PU
IN ESS
ĠT YPE
WR ITE
Ġb ra
Ġto gether
Ġdi alect
ri t
no ti
Ġtz info
Ġimp licit
V ari
Ġprevious ly
Ġ licenses
im ize
P op
D L
ĠN on
Ġ3 5
de cl
Ġb roadcast
Te X
rece ive
ĠSe quence
Ġper formed
ur lopen
Ġdep ending
ĠT ree
Ġb i
0 33
I ds
ĠSTR ICT
12 5
Bo ol
WN ER
incip al
... ")
(" #
Ġfail ures
Ġpol l
AT FORM
gge red
ĠL ink
Ġlevel s
hex digest
E MP
repe ated
st or
comp ressed
er ce
th ird
Di stance
TO OL
er ing
TO DO
Sm all
en g
Ġh ad
EC ore
bs ocket
Ġappro x
Ġpro x
bo lic
Inter rupt
B rowser
is c
ener gy
FL AG
go ing
Ġxb mc
... "
Ġreg ression
w i
gr al
connect or
ĠCol or
Ġhour s
pa red
ĠW AY
ĠDISCLA IMED
Ġc ard
Ġfire wall
Ġimmediate ly
u v
Ġare n
ext ras
0000 000
lit tle
SIB ILITY
IDENT AL
= \
th ree
Ġt ornado
doc test
O ther
In sert
ten ance
Content s
re maining
: ]:
e ch
Ġ[' -
Ġadd on
$ (
y ield
ĠF a
ad a
graph ic
pro duction
g tk
]) [
Ġd n
5 01
fe at
fetch one
ĠSER VICES
"> <
ĠADV ISED
ado op
Ġw ave
a jax
Ġi ris
rf c
Ġdata store
Ġe ff
v d
/ {}
ĠSU CH
ĠINTER RUP
ĠINC IDENTAL
Ġo bs
Ġd up
script ors
ĠA ss
p db
Ġse ctions
Ġcal ib
Ġc mp
ĠPar am
)) [
qui et
CAS CADE
q os
table name
A ctions
f q
He aders
Mon itor
ĠBUS INESS
proto buf
ĠPOS SIBILITY
ĠE VEN
ĠSt andard
Ġgradient s
may be
ĠUn it
Down load
w ho
LO AT
CURE MENT
ĠGOO DS
Ġnetwork s
we ak
WE VER
ĠAd ditional
Ġis o
file system
Sub Element
Ġc are
Model Admin
EMPL ARY
' \\
Ġren derer
wh itespace
ĠDAM AGE
Ġab ort
ĠU ti
00 2
su res
conver ter
Re play
22 22
T ON
sh uffle
a res
Ġma king
Extra ctor
Ġthe ta
ĠU sage
Ġ'- '
ĠHO WEVER
relation ship
cre ts
d ry
sub dir
LI MIT
Ġhigh er
M agicMock
Ġ: ,
ĠDe vice
Ġdi gest
200 8
form set
Ġle ading
__ :
P ON
f x
ĠRe quired
ĠEX EMPLARY
ĠTHE ORY
C lick
ĠPRO CUREMENT
c ipher
d ash
s ter
ĠINTERRUP TION
id le
to k
stream s
ĠCA USED
Ġto po
ĠE OF
Ġ0 2
Ġsm art
æ ľ
ĠN ON
include s
ct rl
Ġgener ation
ĠNO TICE
N A
pa que
Ġu sually
C lear
Ġar bitrary
ĠID s
Ġti le
Iter ator
G PL
l strip
x block
ill ing
sub mission
Ġtermin al
a vailability
Ġa ge
A MP
Ġa zure
ĠE num
Ġli sted
ĠURL s
Ġspecific ation
ĠD RAW
In formation
++ ++
man aged
Ġn a
abc def
Ġpol ynomial
Ġfab ric
min or
Ġregard ing
di rected
Pro gram
ĠM igration
SE CRE
Ġin verse
Ġvolume s
file obj
r ho
an onymous
comple ted
super user
Ġowner ship
presen ted
par titions
PAT TERN
u ro
ĠP ort
annot ate
Ġc d
out line
skip Unless
ĠCONN ECTION
) })
Ġb lack
ĠEn able
MODE L
Ġprom ote
Ġ' ..
Ġx y
Ġso up
gradient s
x m
ure ment
A ML
x F
Ġcho ose
Ġti ck
ĠP oly
To One
Ġ200 4
k lass
REG EX
Ð µ
Cer tificate
R ENT
Ġpo sitions
CH O
top ology
S hould
or th
Ġ' {{
Ġper mit
Exec ute
Ġp anel
min ute
p ci
re o
py c
uest ion
ĠS SH
CE PT
ĠLib rary
po sitions
IN ET
Ġsh ard
Ġ-- -
UNK NOWN
S G
ĠM ac
Ġmo ment
document s
rep lica
authentic ated
COMM AND
Ġg ives
D a
lic as
Pro gress
ĉĉĉĉ ĉĉĉ
ĠLE FT
ĠDe le
Ġmag ic
ne c
Ġ"/ "
Oper ations
che mas
scri ber
Ġform set
serv ations
p an
End point
FEAT URES
l ask
od b
exten ded
mac ro
f h
xxxx xxxx
has attr
Detail s
as ing
'] ],
T ags
Ġsub stit
ĠEx ten
Ġsta ff
y thon
and box
Ġcomp o
L ES
Ð ¾
Ġre name
Ġre fer
con t
ne eded
Map per
de scribe
ren derer
end ly
User s
? \
gr p
sis tency
sc ra
ON LY
(' ^
" ;
ĠT ri
Z one
com bo
ipe dia
c inder
re quested
er kzeug
ĠS ET
A W
ĠStop Iteration
run s
rou tes
NE W
pr inter
Ġx s
ar b
'] }
W ID
Ġh ack
Ġstride s
ra dio
k y
ex tent
), (
________ ________
Ġch art
code name
] )))
æ ķ
15 0
ul ary
aaaa aaaa
D K
ĠBO X
some thing
(', ')
UU UU
Ġm id
man ent
O b
Ġstate ments
Ġtyp ing
(' [
Ġcal c
Fi xture
un e
Ġpre serve
Content Type
Ġm ysql
Ġd ry
r n
semb ly
sca ler
fl ash
chan ism
full name
Ġb s
Sparse Tensor
Ġ_ (
ĠIn fo
Ġannot ation
Attribute Error
in formation
l ue
g anization
ĠTh at
a uti
Ġs ca
pon ent
Ġcla use
e ach
Ġv ault
ĠH at
un ix
Ġc inder
Ġbind ing
reate d
As sign
non zero
sv g
_ ('
h p
roper ly
p end
Ġ"% (
fo ot
AR E
mag ic
P atch
13 01
m aries
Ġcm ds
vector s
ĠV irtual
re stri
ĠF rank
mm utable
Ke ep
idi ty
h it
Ġd c
ĠRe ference
ich a
map ped
exec utor
re dis
ur a
Ġprob ability
Ġ3 6
Ġfa kes
stri de
m aterial
ak ing
Ġmay be
A K
å Ī
L AB
Ġd p
Ġst and
H istory
ĠDis play
Module Error
p at
ĠComp onent
St andard
gorith ms
Exec ution
in strument
ĠPro duct
ĠS um
Se lector
f loor
rp m
SECRE T
c df
200 1
Ġin c
cap s
Ġassume d
leg al
tes ter
Ġexten d
Author ization
ĠT arget
En code
c annot
IN VALID
Ġdi ctionaries
Ġwh y
ak er
Ġp ragma
dep loyment
lib raries
Ġlook s
' /
ro bot
ta cts
cm ds
Ġvari ance
Ġn avi
pri me
Ġindic ate
le ast
ĠDO UBLE
to ms
in et
me mo
As ync
ĠCa che
== "
Ġmodule store
A ng
21 10
Ġth ough
ap is
cur ve
Ġh a
ĠPy Qt
Ġcr ash
ch es
be at
ri ft
bound ary
Ġuti lity
iter al
ĠFL AGS
() }
Label s
Ġeval uation
Ġnamed tuple
: ')
Ġmark ed
=- =-
ĠP L
Ġc lock
Ġen er
Ġ4 5
SCR IPT
Ġattach ment
ã ĥ
ĠRe distribution
W h
Ġ' :'
ĠT emp
Ġs pi
al ph
abi lities
D ummy
Ã ³
ĠN a
Ġad just
Ġ3 3
i ris
O rigin
valid ators
Ġ12 34
_ :
_ ):
Ġde ad
medi an
Wor ker
analy tic
Ġ' @
Ġd y
sub type
ĠDRAW INGS
g iven
Di ctionary
Ġdest roy
] /
Ġcon sider
Ġ" ".
Ġhigh light
ĠSpec ifies
r hs
dimen sions
Ġe cho
T ick
^ {
AR M
ha lf
Ġpie ces
ĠN ormal
SE TT
d ue
ch apter
sk y
################################################################ ################
mk dtemp
Ġsw ap
ĠT uple
sione d
F n
pe p
ĠE ntry
Ġsh utdown
serial izers
Ġinte gration
Ġver tex
Ġread s
Ġorg anization
ĠCON T
R R
fin der
Ġa vg
Ġc txt
auth entication
Ġdebug ging
Ġas yncio
Ge o
f an
ĠPro tocol
Ġe qu
ĠĠĠĠĠĠ čĊ
ol ding
Ġnames paces
is ation
ĉĉĉ čĊ
Ġp c
Ġcapt ure
ĠSE LECT
Con dition
St at
Ġbo ard
tod o
Ġleg acy
ver tices
l un
vi ded
non ce
cut s
Ġ| |
Ġinst allation
Ġc id
char acter
200 6
ume n
ACTI VE
Ġca lendar
par allel
Ġsqu are
w ers
Ġb box
publish er
an chor
ĠR ule
g uess
Ġs heet
url parse
ĠSer ies
dat as
fi dence
scal ing
ĠG E
M I
i co
Ġdi git
C ES
V OL
') ).
Ġun expected
Ġdis covery
U DE
d g
G P
p le
Ġdecode d
ĠApp lication
Ġsh uffle
rec tives
i q
Ġos v
Ġconver ter
Ġcoefficient s
Ġs r
names paces
F ree
G ate
SU CCESS
() `
Ġgover ned
Est imator
o pe
la titude
C TYPE
Process or
Ġimport ant
P ower
Ġr ing
ĠF in
Ġg zip
Ġde ps
Ġad apter
expi res
Conver ter
res olution
po ols
. '))
ĠF ail
ra vel
Ġfollow ed
mi rror
Bounded Big
S li
qu anti
S izer
ff ers
Ġembed ding
Ġre levant
ĠF rame
) `
Ġno tes
Object s
ad just
D ist
S W
ĠFrank lin
di rectories
"] ))
Ġmat rices
Ġm ouse
h dr
Cre dentials
[ @
to uch
d jang
Ġm iddleware
Ġ" &
Di ff
. /
client s
tmp l
Ġclean ed
ĠS how
Ġhere by
dep ends
Ġsec ure
N EL
Ġp latforms
S UPPORT
board Interrupt
atom ic
C LE
e th
ann ing
work space
tt l
pa city
from Utf
Sh ort
e a
ĠOpen ERP
Ġi te
ar ante
M ARK
ase d
ĠH elper
ST EM
Ġ\ '
Ġre versed
Ġis subclass
ĠMan agement
g yp
AL I
ĠCor p
re served
Ġse gments
Ġspa tial
im ated
CP U
Ġrepe at
} ')
Ġin coming
Ġdata sets
-------------------------------- ----------------
desc r
3 77
* '
Ġsub mission
Ġ/ =
h u
LANGU AGE
aniti ze
Ġbro ken
Ġx block
ĠZ Z
PROTO COL
w izard
]) ]
i pt
ĠHe re
Ġg ithub
roperly Configured
Ġres olution
ĠI mple
termin al
is ing
Ġsepar ated
Ġs ilent
cal ler
Ġme mo
rot tle
b es
Ex pr
Sign ature
Ex port
( .
ĠC opy
A ss
ĠSer ial
Ġperson s
ĠU sing
). """
AL LOW
ĠS ite
ĠSet up
R M
tuple s
4 32
Ġcan onical
ĠLine ar
VIE W
Ġ0 2110
PY THON
Ġhappen s
" )))
sub plot
expand user
> /
Ġ* /
ĠD ist
pass wd
Ġt v
Ġif ace
MEDI A
re cipe
set Level
Ġother s
Ġdele gate
he st
base dir
SE D
x es
ĠĠĠĠĠĠĠĠĠĠĠĠĠĠĠĠĠĠĠĠĠĠĠĠĠĠĠĠĠĠĠĠ ĠĠĠĠĠĠĠĠĠĠĠĠĠĠĠĠĠĠĠĠĠĠĠĠ
; ')
ĠS pa
Ġte ll
ĠCon stant
join ed
be am
Ġso uth
member ship
ĠTe am
meri ca
re con
Ġt reated
' >
defer red
Min imum
s ocial
Ġd d
r ng
Ġre use
Ġt ries
pe m
ĠA LL
: ].
si dual
m r
In f
Al chemy
B UT
Ġh int
ĠG it
ĠW ait
Ġpo tential
Ġpo six
Ġs low
se quent
! '
Ġd raft
comp ose
Ġc en
"> </
Ġschedule r
Ġaccept s
Ġar c
EN V
G A
zone s
ha red
Ġcl assification
auti ful
I MP
I ZE
te t
for tios
Optim izer
Ġf ri
vi sions
ub y
Ġlimit ation
foreign key
L inux
Ġf rag
Ġh alf
G Y
ĠS UPPORT
Ġ6 00
y label
Ġn u
se quences
un try
vi ation
Ġwe bob
Ġsur face
] ",
Tra ce
Ġlink ed
Ġg data
REQU I
ee k
tor rent
unt u
su c
s un
Ġformat ting
AAAA AAAA
R T
Ġ vec
Ġn an
pon en
Ġmode s
Ġg reen
Ġse ll
comp iled
ĠAdd ing
ĠA SC
ĠC LA
Ġquot a
icha el
al arm
S cene
Ġa ux
Ch ain
Se lected
b an
ATTR IBUT
A ctor
region s
le ave
al one
capt ure
U sing
y a
V C
m orph
ĠSet tings
Pick le
al ter
Ġen c
Ġattemp ts
al o
pe g
Ġcon firm
Ġw sgi
W hen
Sup port
ĠIS O
Ġch er
Ġin venio
Fa ctor
Ġre presented
Y R
Co unter
ĠCh romium
th row
Ġ' |
Ġcon fir
Ġplay list
ch mod
CO OK
ĠUn iver
z ation
ĠAb stract
Ġcomp utation
ĠDi ctionary
To ols
iz ations
J ava
ĠI ECore
4 01
A VE
K ind
Ġre load
Ġin serted
O DE
ver ti
Ġcomp ress
re aded
Ġ12 3
subscription s
ĠC LI
Ġp b
D Y
G reater
ĠR ES
Re st
Ġpor tions
Ġtri m
ĠOpen Stack
B ot
http lib
En rollment
S PE
mask ed
p od
(" {
ĠP h
Ġite ritems
Ġ( <
An not
y our
si ted
QU ERY
F ROM
PI O
T IT
u ght
F inder
'] ).
Ġhe alth
con catenate
**************************************************************** ********
on ic
Ġw alk
Ġdi c
Ġh uman
add Cleanup
que e
ar ily
exp licit
clu ding
Ġf c
qu oted
Ġco ords
ĠRa dio
P B
NOR MAL
Ġcomb ined
s am
Ġc ipher
ST ER
Ġobtain ing
n ume
ĠN UM
stru cted
(' \\
Ġs pect
Ġopen stack
Ġ% %
UPER USER
From String
)) ),
scen ario
+ \
ĠD own
Ġcho sen
to ggle
ffe red
No tification
T X
Ġlex er
R U
P UB
Bu cket
lat in
skip ped
commen ded
C M
di d
S ame
comple tion
Ġ' '))
: .
Un its
Ġf all
ENT ITY
Ġsa mp
ware house
D NS
'] "})
Ġ1 0000
initial ized
tera ble
R outer
Ġs cene
d on
Ġc u
IN SERT
Ġsen tence
Ġn c
iv ed
Ġrot ation
Res olver
s b
Ġexpi res
Ġqui ck
Ġto uch
ĠM atch
a co
Ġsu do
Ġ 99
Ġagree ments
ĠB ut
Key word
Ġma jor
lic ations
er nel
N T
ge tenv
no unce
Ġb asis
Ġend orse
Stub Out
umul ator
Ġconn ector
Ġ ._
... )
Te am
if th
patch er
Ġte le
Ġtmp dir
P AGE
ol l
ex clusive
P tr
Ġclo sing
BoundedBig AutoField
Ġco me
field name
ced ure
ĠF rom
fe rer
H ome
p assed
t wisted
Re vision
Ġapp ended
x label
Ġg ather
ĠF oreignKey
Q Application
ig hest
ar ound
align ment
ac le
Ġ3 4
A WS
en crypt
log ged
ĠS m
vo te
ĠAnsible Error
ver ified
$ ",
ang ular
ĠA pi
ab ort
Ġpre ce
Co ordin
v rf
Ġb g
88 88
RES PON
Ġ lf
FA ILED
P lan
et ag
Ġse l
link ed
Par tition
ĠStr uct
Ġs olve
vi sibility
Ġman aged
Ġend s
S ync
RO W
] ")
Ġtmp l
S ur
de e
spa tial
di sp
ĠJ OIN
ci dent
disc ussion
Ġs nap
in y
pe ction
serial ization
Ġrepe ated
ph oto
coordin ates
O Auth
long itude
par agraph
Equal s
ot or
Ġh ist
ĠBytes IO
S ESSION
multi part
Ġcontain ed
ĠCo mple
tool bar
Ġwho m
h old
With Mock
E nt
ga ther
tr unk
Ġup dating
EX P
ad j
en queue
inter section
l ator
sent inel
y per
check out
RO P
resolver s
ig ure
Ġretrie ved
E MENT
py plot
co vered
Ġ""" <
Ġ===== ===
Ġprocess or
Replay All
ig nored
ĠG lobal
ne tes
Ġver tical
uber netes
language s
un defined
Ġbin s
Ġmask ed
Ġdefer red
Ġc nt
regex p
H ex
gr pc
h ints
Ġmon key
Temporary File
ra cle
Ġ* ,
ĠRe cord
I A
In clude
Ġoper ators
ta iled
org an
F it
Ġfollow s
FR ING
ac curacy
' (?
ĠL et
1 10
import s
read able
normal ized
Ġe g
Ġb ridge
ul se
e very
r g
reg ression
Poly gon
" %(
Ġpre c
C AL
Ġg lyph
on gs
for k
Ġdep loyment
Ġmean ing
new s
Ed ge
R oute
S B
it ro
Ġinv oked
foo ter
ro uting
Ġde sign
; &
Ġrequire ment
A merica
ENT ER
en roll
ĠCon n
[: :-
thread ing
è ¯
('/ ',
StubOut WithMock
BUT TON
FRING EMENT
ver tex
Ġ5 12
Ġre ach
Ġdi v
ĠSta tic
ri ch
length s
al ax
part ment
Ġproject s
B A
Ġm aterial
ap ters
Un ique
P ublish
va tive
FIL TER
Ġauthentic ate
å Ĳ
Ġlar ger
å ħ
mo id
Ġpop ulate
Met ric
p lots
rep orter
TIC AL
ĠEn gine
f m
S HO
se gments
M is
Ġcheck er
es h
() '
IP v
ĠLa TeX
dimension al
Ġin tern
ID s
web page
Ġmulti processing
So up
y ml
Ġf our
ĠW ill
te le
Ġtemp erature
v p
base s
Ġsu itable
Ġexec utor
hi er
D ump
De v
Ġcallback s
f rozen
comp ression
Ġsa le
IN F
SS H
re m
cri tical
DAT AB
nec tivity
el astic
ĠĠĠĠĠĠĠĠĠĠĠĠĠĠĠĠĠĠĠĠĠĠĠĠĠĠĠĠĠĠĠĠ ĠĠĠĠĠĠĠĠĠĠĠĠĠĠĠĠĠĠĠĠĠĠĠĠĠ
ĠE l
O URCE
j ump
Ġ' </
Go ogle
Ġli kely
Ġcalcul ated
ve st
CO D
S to
w ire
i ence
ang er
Col lector
ĠFI LE
B IT
g cc
sw ift
U ME
Ġrece iver
Ġclient s
Con struct
Ġ ERROR
; ',
C Y
ĠNe ed
Id x
doc string
c reds
Ġden sity
ĠU SER
product s
o le
ĠSt reet
C V
riteri on
AT H
ag g
und o
Ġ', '.
ĠH ome
so up
z oom
Ġ jo
app ings
h ic
sc atter
af ka
F ore
B OT
l hs
ms gs
qui ck
N s
override s
COM MENT
sta tistics
pop ulate
g zip
( "",
Fa ce
Ġcher rypy
ĠF loor
no op
Add r
lap se
Ġb ulk
ti f
de tect
root s
DO M
rot ate
Ġfra ction
OB JECT
Ġan chor
et ched
Ġtes ted
y m
Over ride
sess ment
Ġhook s
m v
Ġfile obj
no tifications
D imen
AL LED
Max imum
Ġn ick
ï¼ Į
Ġsee ms
L ess
V IS
in ters
g ray
ĠPro xy
n dims
Ġdict s
b z
Ġt gt
Ġoccur s
as signed
ĠSec urity
u ids
Ġg uest
ĠU I
Ġj inja
istribu ted
Ġ{} ).
ar p
opro ject
C enter
200 5
squ ared
p open
re present
info s
tran sition
ĠT CP
hash es
Ġappe ars
Test Suite
Ġco urses
log file
AP PS
sh al
B al
re actor
Ġcon t
Ġno tifications
Loc ator
) ==
R ST
L ONG
Ġbyte array
cl assifier
ĠRe port
Ġopen ed
sp in
H H
Ġrange s
ex change
ise ct
Ġep silon
ĠDate Time
pri or
to c
tx id
s alt
ig i
, [
F LOAT
scope s
IN FRINGEMENT
Ġcomple tion
æ ĸ
ch i
/ #
B in
M erge
Se par
ĠCal culate
] ;
Ġ3 30
. "))
H AND
ĠDo es
with in
Scal ar
w allet
S napshot
' %(
ĠAS F
00 5
dic ates
zz zz
b on
Ġ (),
T ry
v ors
Ġp m
build s
vid ing
h g
ĠQ U
ĠMo ved
s at
Ġa way
By Name
) """
E l
Ġtrans formation
Ġdescri bed
IS H
Message Box
Ġto lerance
ĠSu ite
t u
ph ysical
gri ty
-+-+ -+-+
co dings
we ighted
ĠB ar
{} ".
ggest ion
AR GS
z zy
velo pe
p ic
s py
To String
vi a
ĠU Int
Ġ200 5
y ou
ate ver
er m
x E
Ġp hi
Ġ""" ,
cr ash
Ġsm aller
ber t
M at
ĠLay er
r ink
ra di
com me
trans actions
Ġcomm unic
Valid ation
b lah
R S
Ġsub s
" {
ç Ķ
t witter
Ġto do
Ġab c
T ED
Ġ201 8
Listen er
Ġcon sistent
Ġbal ance
lf ile
Ġener gy
ĠN AME
Ġaut os
Ġr d
Ġro bot
Ġextra cted
fra ction
qu ad
Reg ression
oc ation
ADDR ESS
Ġac curacy
ponen tial
pa gate
al ty
T wo
ĠU TC
Ġqu antity
di um
2 24
am ble
ite rations
Ġdetermin ed
ĠA p
ac ters
p ot
x A
Ġc amera
un expected
ĠF ifth
G O
Ġd mp
pos al
A vailable
on ts
ver ts
Pa ir
Ġf w
Ġtran sition
ti vi
set Value
p lug
Ġc ube
as m
Float Field
NET WORK
umen ted
c xx
fa b
Ã Ń
Ġg db
ALI AS
Ġf ar
ans wers
builtin s
en s
compo sition
dat atype
attemp ts
set Enabled
inte gration
p rom
percent age
ĠSp lit
ĠT EXT
Ġpar a
dele tion
IT ER
djang oproject
s z
iv ing
CER T
intera ctive
Ġcl usters
Ġs l
un ary
ame l
Ġthe ano
=' ')
ĠP R
stan tial
]) ),
ID E
he ap
Ġcon sist
Ġmin ute
in er
Ġfe at
Be gin
arn ess
Ġ little
ĠC ore
ab lish
back ward
FA KE
block ing
lo pe
ĠP e
WE B
Ġe lapsed
ĠInter face
te arDown
ĠDO MAIN
3 86
Ġ ent
F FIX
Ġh ier
con tin
Ġqu anti
Ġen queue
C trl
Ġgo al
S core
ĠCLA IM
ĠS tore
Ġalign ment
an sion
FF ER
over write
Ġ[ ['
) ``
AL INGS
Ġm ass
__ _
Ġdistribu tions
Ġembed ded
predi ction
EX TR
T V
Ġf os
A U
EX EC
m ute
regular izer
| |
ul ator
Se gment
ĠA fter
Ġper f
Ġme n
Test Base
Ġsub stantial
'] ])
Str ategy
C at
n cy
Ġdeg ree
Ġgu arante
ra ck
test case
from string
ini ti
) '),
M Q
st roke
= /
=[ ('
c rop
inter pre
ĠImp roperlyConfigured
b w
or med
stop ped
ĠDef ine
urn ished
C B
Ġt abs
ue l
f old
r ated
res ume
ĠDE ALINGS
d w
w kt
Row s
1 12
Ġp ow
Ġan ce
Fin ished
Ġk ill
ĠReg ister
ĠPack age
right ness
_ "
ĠS olution
=" #
rot ation
comb ine
In tera
ĠNON INFRINGEMENT
u di
200 7
(': ')
Ġre moving
Ġmin or
email s
Ġ& &
Ġfoo ter
white list
is tent
Ġfl ash
Ġl u
Ġsub license
ĠMan ager
D AY
pa ren
Path s
Method s
Ġ# ----------------------------------------------------------------
Ġro om
Ġdown loaded
ch n
---- ---
Ġ4 8
t rees
e ven
pro ba
arg o
s rid
Ġde ep
Ġc pp
A tom
un signed
Ġnet loc
ĠST AT
b rid
Ġse ason
port al
Ġcorrespon ds
Check ed
style s
Ġpl ural
alax y
spi der
20 4
Ġ4 09
ĠValid ate
Ġres olved
Ġv isual
Change s
Ġen rollment
Ġmo vie
Ġmo ving
Ġcontain ers
ToOne Field
ex am
patch es
Ġinterpre ted
ĠAs ync
Ġmig rate
Ġop code
ch romium
> """
Ġin strument
y ellow
Con structor
ĠExten sion
LE X
FOR MS
bu ilt
Ġun signed
Arch ive
ĠT R
th en
ĠR IGHT
ĠJ ob
button s
k ins
Ġw erkzeug
base line
can onical
Ġb c
vi f
ab b
Ġwork space
embed ding
WIN DO
Ġte x
UR SE
m ixed
Ġin voke
re ach
Ch unk
Ġph ysical
Ġnorm ally
# :
Ġp sy
pp ings
ĠMe dia
M icrosoft
ti a
batch es
ti ent
ĠT op
mo tion
IP TION
Ġpro g
Ġexp anded
Ġcomb ine
ĠP lot
RESPON SE
Ġi dent
Ret ry
00 3
E xt
Ġrec v
ot a
Ġescape d
Rel ation
Reg istration
mo zilla
ĠTest ing
Ġpur pose
Ġcomp ressed
Ġ' ').
be come
+) \
Ġpar agraph
al ready
ĠMo di
Ġprefix es
child Nodes
PRO CESS
Modi fied
par sing
kw arg
Ġpro j
report s
failUnless Equal
sci py
Ð ¸
pe ople
E p
r w
Ġw izard
retri eve
re ferences
m and
Log ging
author ize
trans lations
al a
end points
ĠLoc ation
M ail
Date Field
Ġld ap
go al
tim ing
lex er
cnt l
mm ar
FIEL DS
IP S
ang les
14 0
folder s
au dit
trunc ate
x en
ĠW h
Ġin dependent
it ors
Run timeError
Ver tex
av atar
diffe rent
co lour
'] =
ces sible
ĠKey boardInterrupt
Ġgener ating
SETT INGS
E PS
[ _
config ured
Ġses sions
cl assification
Ġ[' _
ĠDes cription
-------- ---
Ġsen se
ĠE ither
ST OP
:// %
Ġl hs
ener ated
Track er
Ġr m
AS F
gra ds
Ġp at
Ġ2 000
pos sible
Ġpur poses
r ss
ĠPass word
Ġ serve
ĠĠĠĠĠĠĠĠĠĠĠĠĠĠĠĠĠĠĠĠĠĠĠĠĠĠĠĠĠĠĠĠ ĠĠĠĠĠĠĠĠĠĠĠĠĠĠĠĠĠĠĠĠĠĠĠĠĠĠĠĠĠĠĠĠ
path name
AD MIN
WID TH
H ub
Ġdomain s
ĠS Y
Ġcer tificates
LOB AL
Ġt t
M OTE
ĠS chema
Ġ4 03
IC AL
ĠA P
pe ts
ch allenge
ĠC alled
WA IT
Ġlog ical
Al ter
ĠDo main
h ub
Ġman ip
om in
sis tence
Ġpur chase
e ast
de sign
Ġf oreign
Ġintera ctive
ST M
Ġle ad
be ard
sp here
P END
co ped
] })
() ``
et s
Ġsa ving
ĠĠĠĠĠĠĠĠĠĠĠĠĠĠĠĠ ĠĠĠĠčĊ
Ġm iddle
Ġp en
Ġth us
mat mul
ffff ffff
g reater
li ze
01 01
are house
TR Y
un quote
M ON
Ġb b
A ggreg
na vi
vi es
bet ween
Ġbe am
rel path
pick ing
cep table
ap ic
Ġstart up
Ġauthor ization
IG IT
Ġco mes
ĠC lean
ew idth
Ġre ached
fi ts
si a
+ ')
Ġmin imal
il led
Ġco variance
m or
Ġex cluded
Ġ7 0
A I
S ig
Ġa ffect
ĠPer form
REE K
Pix map
ST OR
ag ain
H tml
get Attribute
H igh
Ġmo ved
Ġol der
ta ck
Ġ3 02
authentic ate
ma ppings
O k
oper ators
ĠHttpResponse Redirect
in structor
ĠCheck s
ENT RY
C N
Q ual
tri m
ĠComm on
w ner
as ket
ĠS parse
h h
deli very
c g
l oration
sk in
Ġin tended
ll ing
Pri vate
ĠNe ither
ro ut
Ġg a
Frame work
Ġp n
Ġ4 01
Ġread able
R B
Ġf cntl
Ġapp lies
Ġaccount s
d og
Ġwork ers
Ġgo es
O VER
} /{
IL LIC
Ġsp an
ĠDocument ation
YR ILLIC
iz able
Can vas
ĠRet rieve
Ġf aster
cal ib
HTTP Error
Ġ' !
quee ze
M aster
li sted
cent ral
Ġgen e
Check s
Ġtext wrap
< !
Tag Name
is nan
is ters
Un supported
sql alchemy
st ory
e per
AS CI
ĠJ son
Ġoptim ization
con ti
Ġmain tain
VAR I
Ġobj s
LAB EL
Ġh ide
Ġ1 99
Ġex e
Ġinter polation
I gnore
ĠExtra ct
D OT
Ġpa st
ĠIn ternal
second ary
up on
Ġco v
SK IP
> [^
th resh
ar ded
Ġx path
cor outine
Ġvalid ators
driver s
multip ly
h op
Ġst ores
R ot
an c
dist inct
s ound
T Z
l li
rec ent
Ġpl us
* )
ĠPro file
Ġl l
sym link
ĠT LS
D ay
S ys
Ġcur ve
ut ations
op ener
raw transaction
Ġposition al
pri se
ma ker
Ġ1 01
Ġt d
Ġmock er
split s
ĠSpec ify
st o
U ri
ite ration
V O
mp s
Ġl r
1234 5
x html
Ġpro d
ĠT k
ĠOption Parser
Ġrender ing
$ '
_ ("
Jo in
Ġpe ak
ĠSQL Alchemy
la cing
ke le
00000000 00000000
At tach
ĠGe ometry
G U
IN TEGER
v ac
V ED
al so
st ation
an other
gress or
L T
Ġt un
ĠR EST
56 7
Column s
ĠPar ser
ĠConfig Parser
or tion
tun nel
? "
_ =
ĠInst all
termin ate
bu gs
Ġreference d
Ġcon figs
pro vision
ĠSet ting
w f
to list
pro bs
pen ame
Ġsa tis
medi um
G it
Ġbro ker
r split
inter p
Ġscal ing
over flow
dis covery
ĠUser Factory
D ICT
Ġup on
Ġpro jection
den sity
Ġback ward
ĠCer tificate
Ġver ification
high light
Ġw heel
.* )
havi or
Cre ating
Ġch anging
IO S
ĠC ase
Ġsuc ceed
Ġex tent
Ġblock ing
ATION S
TRAN S
F ACE
Ġver tices
Se q
B S
... ')
AME TER
C ALL
Ġal bum
ĠTime out
(( (
Ġch allenge
snapshot s
L ike
r sa
14 7
Ġ â
Ġsort ing
J S
Ġpri vile
C SS
Se cond
Del ta
G ateway
Get s
({ })
Ġconf lict
Ġc ustomer
off sets
lec ule
Ġdef ining
Ġde ci
Ġpre ss
subnet s
COOK IE
Ġt c
00 4
s low
separ ated
ĠC SV
CHO IC
ke h
Ġqu oted
TEST S
g m
ĠB utton
AG ENT
Ġw ire
Ġlist ing
be led
D ense
c ards
pro f
Re place
G UI
Ex pect
g au
ĠV olume
ci on
ĠT ran
optim ize
cer tificates
p wd
pol ate
head line
ĠCH AR
F ire
Ġp db
ĠQt Widgets
clo sing
ad vanced
ĠCh ild
c ated
Ġc rypto
Ġint ro
ĠAn aly
wik ipedia
Ġdele ting
Decode Error
format ted
feed s
Ter min
G INE
en kins
Ġf urnished
/ ")
c am
Ġfull name
al location
ĠPro perty
s olution
F ill
Y es
ĠC YRILLIC
ance s
ce il
Child ren
R SA
Ġsm tp
Ġdeg rees
Ġs phinx
pre f
IG H
bi o
tri al
201 8
ĠI ter
NAMES PACE
b m
Ġ= ================================
Ġ( ('
ver s
ant um
Ġfin der
dispatch er
Ġz lib
... '
expi re
Ġmime type
Ġair flow
Ġco ef
Elements By
Ġe gg
un g
atter y
ce le
re qui
ro gate
OR DER
Ġgener ates
Gener al
SR C
ol ated
Ġexpi red
vi te
Ġt ot
t gt
Ġinterpre ter
vari ate
sp ot
Ġcol lected
l us
Ġr val
Ġiter ate
um ing
Ġ12 7
ip pets
queue d
# *
ASCI I
Y our
Ġd u
'] })
Ġrout ine
O G
Ñ Ĥ
in fer
plan e
Ġr x
e mu
ĠJ ust
__ [
Ġlo st
pread sheet
vi p
]] ),
Ac tiv
ol den
Ġn m
exp lanation
N D
Ġo cc
play book
ĠS ample
Ġma ch
AC CEPT
de bit
Ġa toms
R aster
), ('
Ġp aper
len v
Ġn ice
Ġan g
Ġtar file
ĠHE AD
###### #
Ex ternal
Ġf ee
setup tools
Ġr t
Ġon to
IGN OR
Ġde mo
Ġd rive
ad m
Ġde scribe
s ho
Ġsamp ling
ĠASC II
Ġn ic
res olved
Ġun defined
'' ')
w ill
Ġb ib
ten ces
Ġscope s
ĠMo ve
Ġtw ice
130 7
st ick
Ġpos sibly
tr ust
Ġdescri bing
he mer
Comm it
W atch
d ark
size of
Ġre ports
Ġapplic ations
ĠGet s
DEF INE
aa a
il ls
ĠEx pect
Imp l
Ġest imate
8 000
Ġs d
CLASS ES
S ort
Ġlo s
B its
Ġh i
ĠI Python
Ġre dis
Ġinter cept
ĠS park
Ġcach ing
lo ok
QU AL
Ġs vn
ĉĉĉĉ ĉĉĉĉ
C G
z h
con tract
tr uth
ĠG REEK
imp licit
Ġ} ]
Ġf id
Ġde epcopy
hic le
Ġcapa city
' ',
sh ards
Ġcalcul ation
CUR RENT
Pre di
ĠMax imum
Ġstop ped
s chemas
ĠRe f
Ġexec uting
ik o
Ġfil led
1111 1111
candidate s
t ur
ame nt
is a
ĠO WNER
K it
Ġen cryption
S CO
Ġth ink
up loader
__ '):
Ġme th
RO LE
i li
in dicator
Ġs lave
re w
django apps
4 03
view er
sk i
sim ilar
' -
Ġen crypted
5 000
ry pt
led ge
Ġexpi ration
} ")
c rc
Message s
apt ure
Ġlin alg
c x
S en
Ġq gis
Ġdep end
U GIN
fi ce
m ing
Ġo mitted
imple mentation
AUT O
) >
feed back
in voke
ĠGa ffer
agent s
ĠTe mple
a mazon
Ġco hort
mon ic
Pr inter
Ġ1 80
app engine
ĠIN TO
req s
ORIZ ONT
00 6
pen ded
Ġexpect s
ĠS ize
Ġe le
assert Greater
ĠP IL
uti lities
ib ling
66 66
ĠRa w
Ġco eff
PO INTER
sen ce
ĠReg ression
Ġcandidate s
c ircle
Ġq ty
ĠLog ger
S lug
Rel ated
Ġ02 111
Ġimp l
Ġro uting
question s
z ulip
Ġsee k
Command s
Ġfi xtures
r ance
sub stit
K B
key stone
Ġregex p
disc ard
ENABLE D
? ://
ĠP DF
a h
Ġin s
20 2
re ctions
b irth
# ================================================================
distance s
ti er
is digit
=' .
ne ighbor
Ġpy tz
ing ular
Group Name
M ASK
Ġ200 1
de veloper
Ġ4 4
Ġcur ses
ĠCorp oration
Ġal loc
D H
de cay
ame s
One ToOneField
Ġpr inted
sta ur
Par ticle
order s
tot ype
, (
E mbed
Ġs cenario
ch no
Ġr p
cli de
Ġcre ator
Ġsub sequent
16 0
Ġlate x
w raps
'] },
\\ \\
Ġ', '
Function s
Ġw ish
Q Size
Ġc he
Ġcol lector
cor pus
cen ters
factor ies
Le g
Ġmi rror
Ġi dentical
la gs
Ġa i
=% (
Qu eries
1234 5678
P ur
Create Model
Su bject
W W
de limiter
ĠN S
Con tact
Ġk ivy
EX IST
G D
Extra ct
i el
Ġpe ople
redirect s
Ġf atal
Trans fer
x C
Ġpo licies
ud y
istr ator
desk top
Ġ19 2
g rate
ri e
Ġw anted
con version
Ġload s
P ixel
Ġcon ditional
Comp o
+) ',
Ġres pec
Ġqui et
01234 56789
ĠUniver sity
x module
Ġp od
ĠDe velopment
Ġex clusive
Ġne ighbors
. ".
Is A
B SD
ĠĠĠĠĠ čĊ
Resource s
Index Error
Ġpredi cted
track s
Ġtrack er
ĠC L
bo o
mo val
R AY
siz ed
or al
context manager
Ġ4 3
on line
as yncio
State ment
STR U
Ġm obj
stream ing
expi ration
Ġ( `
os sible
ĠLo ok
se crets
AT URE
Start ing
cap tion
sli ces
v an
def initions
ta u
oc s
Ġ` [
head ing
DEF IN
ORIZONT AL
utor ial
Sup ported
Ali as
B ranch
Ġe fficient
ĠC OL
Ġb p
Vi sible
Ġ1 20
Ġr gb
IC ODE
air flow
Ġc riteria
Ġcre dit
Ġtrans lated
P ress
ul p
ĠUn ion
C XX
k ube
text ure
ĠĠĠĠĠĠĠĠĠĠĠĠĠĠĠĠĠĠĠĠĠĠĠĠĠĠĠĠĠĠĠĠ ĠĠĠĠĠĠĠĠĠĠĠĠĠĠĠĠĠĠĠĠĠĠĠĠĠĠĠ
Ġal g
get ElementsBy
soft max
cmd line
prefix es
ĠA D
Ġpass wd
TIF IC
Th reshold
Ġcapa bilities
sub title
rou ters
b at
ĠMe mber
Ġres olver
iter values
ĠName Error
} ;
ĠS ingle
Ġup loaded
n os
ĠOper ator
f lip
los ses
r h
Re ce
st ors
Back ground
ĠSER VICE
ĠN ull
Ġ`` '
ctor s
Ġimplement ations
Ġoptim ize
H and
Ġ[] ):
h istogram
SY STEM
Ang le
ĠDi rectory
25 3
ĠX Block
Match es
Ġre size
Ġre ceiv
Ġcon tract
clo sure
s us
ĠDist utils
: {
mp tion
Ġcon trols
tic ip
Ġget opt
Ġpre dicate
' ;
k m
Ġhe ap
ĠDe precationWarning
Ġa vailability
Ġbuild s
Ġedi table
autiful Soup
new axis
File Path
Comple te
N umeric
Ġd ashboard
ma ch
ĠS UPERUSER
PL ACE
Ġbutton s
Ġfilter ing
ĠUn ix
ĠCurrent ly
Ġc ri
li min
Ġdi rectives
DIR S
ĠCommand Error
u c
Ñ Ģ
ĠEx pected
Ac tivity
E LE
] |
': [
CE P
'" },
Ġre moves
Ġ(' _
Ġdistance s
N G
char ge
! \
, **
li mited
cal cul
Ġli mited
i ters
tri c
Ġproduce d
ĠVER SION
Ġpro posed
AC TER
mer ged
Gra d
Ġo o
ul ls
ĠA zure
Ġa cl
as n
Sec ret
** (
Ġstream s
************************************************************************ ***
" ^
Ġad j
abc d
ua lenv
samp ling
E OF
j inja
Ġsc roll
SY S
n om
ĠRe place
Argument s
file Name
w heel
Ġstr ftime
Sh ift
ĠRe ferences
Ġover lap
iver sal
? ",
Ġc art
li cts
gn oring
dis count
clu sion
i mag
ĠĠĠĠĠĠĠĠĠĠĠĠĠĠĠĠĠĠĠĠĠĠĠĠĠĠĠĠĠĠĠĠ ĠĠĠĠĠĠĠĠĠĠĠĠĠĠĠĠĠĠĠĠĠĠĠĠĠĠĠĠĠĠĠĠĠĠĠĠĠĠĠĠ
contrib utor
10 2
Ġf ront
') ;
fail s
ĠWAR NING
=[ ])
ul let
ĠS tep
ĠL im
vi r
min us
pri mitive
pro t
B r
E nsure
de tach
Ġm appings
Parse Error
al i
ĠM icrosoft
ud p
LIB R
Ġdat as
IDD LE
p list
Ġt cp
ĠE C
Query Set
ane ous
D rop
I FT
POS IT
ĠĠĠĠĠĠĠĠĠĠĠĠĠĠĠĠĠĠĠĠĠĠĠĠĠĠĠĠĠĠĠĠ ĠĠĠĠĠĠĠĠĠĠĠĠĠĠĠĠĠĠĠĠĠĠĠĠĠĠ
ĠD ep
in file
Ġs pe
wa g
R D
l m
release s
ret ch
CO URSE
ĠFe ature
T AB
Ġi i
go ti
h ape
ff set
cre dential
coun tered
r df
ĠM ARK
Ġdele tion
B D
co pi
op enerp
") ):
th an
OL D
Pri ce
ĠC ategory
F inal
ĠConn ect
ä º
BU FFER
C la
n ight
Ġm ne
Ġpar ticle
Ġn at
ĠS cript
ĠF A
Ġpa ren
AL IGN
to string
pre ference
Ġaltern ative
< =
v oucher
Ġg p
db name
Ġsimple json
p andas
ĠElement Tree
Re quire
Ġpath name
u sion
ar tifact
clar ations
ĠValue s
cu da
Sp in
E K
Ġp wd
cap ital
m w
tin y
Comple x
week day
Dep th
ĠD ES
DE V
Ġde cay
Ġ6 55
FUN CTION
attach ments
uro pe
25 4
User name
b ench
Ġshow s
g lyph
ĠSy ntaxError
c ue
ĠE st
bucket s
comme nd
ns wer
. </
bo ost
ref er
OP TION
st uff
ĠP art
æ Ī
pro posed
ĠB U
Not Implemented
Ġ'_ '
on or
Ret rieve
Ġin file
el come
ĠB LOCK
RO UT
new line
dar win
Ġtra ffic
Ġsim ulation
Ġ" ."
Ġbuiltin s
read s
col l
/ _
7 20
(' .',
ĠCo unt
q name
Ġoption ally
Valid ate
Ġleg end
o e
skip If
__( **
Me m
Auth entic
Ġweak ref
W rong
li ers
check equal
Ġpri v
Ġpre ferred
Ġregion s
ren gth
DO UT
H AS
h uman
mp eg
Ġde pendent
Ġg ain
SU FFIX
b t
Ġs ick
Ġ... ,
FO UND
Ã ¤
multip lier
Ġpar titions
Ġ3 8
Ġl xml
Ġoff sets
\. \
ĠQgs Processing
art beat
Ġen crypt
Re gressor
To o
Ġf an
Ġst ick
Ġbehavi our
00 7
Small IntegerField
Ġpsy copg
h its
SE CON
A p
Ġg id
Ġfeed back
re write
ch k
Ġres pect
Ġhow ever
SP ACE
Ġbel ong
' {
W M
fo ur
i lation
__ '
Re actor
require ment
Module Store
ĠConfig ure
Serial ize
comp uted
H S
lu id
Ġform ula
ĠDE VICE
sm tp
ĠD istribution
con ditional
Ġex change
bl k
Ġcontext lib
Ġsh ip
æķ °
Ġ[] ),
Mark er
ĠS N
ĠW ri
ĠSH A
Con nected
hemer al
H D
ep silon
Ġuni form
k in
ĠUn known
pre fetch
Ġinte rest
Ġm andatory
01 0
IO Error
et y
Ġnew ly
St d
Ġne ighbor
Repo sitory
P en
Main Window
re boot
og r
ĠS c
ific ant
u str
Ġa mp
en cryption
Ġin herited
url resolvers
wait ing
h orizon
Ġf lt
ĠI gnore
Ġat trib
Ġrelease d
dele gate
n w
track ing
Ġtrack ing
o ms
teri zed
imp orter
hand led
Ġs id
Ġnode list
Ġp asses
J ar
20 20
in cluded
ad b
__ ')
Ġg t
ex istent
ĠRe al
ATE G
Ġ ())
Ġtrans lations
ĠVi deo
(' (
arb age
one y
ip h
run e
Str ings
e y
Ġcomb ination
te ardown
ser tions
ĠSup port
m ult
lit ude
Ġspa wn
Ġlock ed
assi ve
proto cols
Ġ[' --
Vari ant
Ġme chanism
ĠR ange
check box
Per iod
ĠLo okup
postgres ql
B and
th umb
12 2
VER S
ar ator
================ ====
s x
Ġh istogram
node list
Ġhard ware
staur ant
ĠApp ly
vi m
Pro blem
G iven
S peed
om aly
gener ation
c gi
Ġt tl
gu ous
pixel s
(' "
Ġne g
m ol
Ġpro viding
Ġra di
Ġre duction
ME M
sit ories
ĠName d
G LOBAL
ĠH as
E VT
Z ONE
ĠE dit
ĠP open
Man agement
Variable s
Ġsw ift
Form Set
s oftware
w ide
Ġt ls
Ġback ends
att name
e ye
Ġg f
Ġro utes
getElementsBy TagName
Ġma v
Ġannot ations
}: {
Ġph one
)* (
Ġtitle s
Ge om
T ASK
d ropout
Ġun ion
CONN ECT
Ġ( \
app le
sa les
B F
F IN
ĠM AC
e asy
il ters
Ġwe ighted
li s
ER O
Ġm ix
ĠG PL
INST ALLED
Ġsecond ary
Ġgra ds
vo tes
Back up
Ġac cessed
tag ged
L ost
N ON
ot ing
Ġ/ *
Ġ' >
ĠD IGIT
Ġ(' /
Ġtrans actions
Ġe sc
distribu ted
Ġw raps
Be fore
B AR
] },
Ġst ar
ĠC lear
config urations
ĠDele ting
Sup er
Work flow
d rag
u tive
Q uestion
f ront
p v
G ot
Ġw iki
P F
Y ear
sp f
Ġbin ascii
te l
M ore
ĠSe ction
P ING
tribu tion
MENT S
Ġpercent age
Ġt rees
ate ly
cen tile
- '
v server
Ġby groups
Ð ½
tra il
ĠHe ader
pa ble
Ġ1 50
final ize
or ientation
Clo sed
j vm
Ġof ten
D uration
x D
re lations
000 2
Request s
open id
Exten sions
m ix
)/ (
Ġend points
m ixin
Ġdi rective
Ġp ants
start ing
l ms
RE GI
Se lf
Rule s
forma tions
th ost
ĠM ultiple
go v
DATE TIME
de ep
la ps
rup ted
S hared
sr v
ĠA li
raw ler
IR C
Ġtermin ate
S w
Ġc as
en crypted
PL ATFORM
crement al
C AD
Ġext ras
s vm
sen tence
Ġcomp ared
Allow ed
net loc
T ip
EN GINE
B us
ä ½
[' __
Ġr sp
======== =
RE Q
function al
IL L
Ġwri tes
ĠSystem Exit
te in
( ""
S lice
f ingerprint
j p
v ms
Ġas cii
Ġat t
ĠF ire
Ġl c
pi o
201 9
Ġpk t
RES OURCE
ur able
Config Parser
> (
Ñ ģ
Ġ- .
ĠSpec ial
Ġ'* '
bro ker
e mb
Ġsa ver
ĠTo ol
in a
PR IV
clide an
. ])
el ap
Ġ] :
CO PY
ĠDe bug
le ad
Ġor ientation
mark down
google apis
te e
A bs
Ġc ron
list ing
pre fs
Ġpr inter
Ġboot strap
Ġrep orted
ĠWor ld
? '
c ron
z b
} -
ĠM ongo
Tri gger
Ġm c
38 4
Ġpacket s
g an
ĠA mazon
Element Tree
post s
kele ton
Ġs it
Ġre commended
Ġde cision
gra ding
n est
re cognized
ĠM ar
Con st
ĠR ow
U AL
i ff
SI X
w p
ITE M
ver ification
Ġevalu ated
3 01
Lo ss
Ġ}} '
j peg
Ġin ts
t bl
è ¿
ĠL ast
ĠW in
max size
IP V
Ġi ps
ĠM ET
ac cepted
Sa fe
SIGN AL
ĠCo unter
Ġstrip ped
Ġtele metry
i red
Ġcor pus
CHAN NEL
Ġca uses
ĠDe termine
Vi sit
Ġpys park
ĠI d
Callback s
Jo hn
ĠG ui
IP Address
author ization
mac ros
Cre ation
FIL ENAME
p ys
Ġar tifact
Ġvalid ated
Ġc rop
ĠC F
eg gs
Ġplan e
Ã ¶
ĠP unctuation
identi fiers
g d
cl ang
Ġr df
ĠO GR
elap sed
Ġar tist
Ġmock ed
g un
M EN
r ant
de dent
GR AM
st re
Ġt reat
Ġj ar
EMP TY
H I
ĠCONF IG
i am
Ġstruct ures
Ġ' ^
cor r
[^ \
ĠAdd s
ag o
RE MOTE
alloc ate
S lot
è ¡
Test Runner
Ġbel ongs
he at
RE L
ar ma
we bsocket
Ġmis match
in ject
Choice Field
s ched
Ġen dif
Pipe line
imple mented
ĠF etch
] `
(" .")
Ġreduce d
* ,
e of
L iteral
ut ures
assert Less
ĠI ssue
pol ling
Ġv pn
ten sity
Check ing
Ġ'{ %
= .
B undle
chain s
code cs
expi red
VOL UME
v atar
ĠCl uster
i pa
er c
Ġch an
Ġ( .
AS SI
y u
Ġo me
Ġsi tes
Ġre con
la ti
Ġfloat s
ĠControl ler
b ld
w k
vi con
associ ate
MOD UL
D ynamic
00 9
ui ck
Ġactiv ate
J OB
Ġc ity
ĠSt udio
ome tries
File System
SV C
b asis
sub titles
- ',
b anner
up s
INTER VAL
Ġcon s
Ġemail s
spec ies
us able
Ġdat atype
b are
Ġinter mediate
Ġgra de
a ware
de sired
Re cords
Ġkey stone
g if
sys log
ĠZ ero
co variance
ĠRe set
Ġmonkey patch
f ort
Ġcon struction
Den ied
son g
sn mp
F LOW
arg max
u ator
x code
ĠCon tainer
V ec
Ġc StringIO
Ġand roid
DES C
ĠG UI
Ġqu ad
EC ASE
ĠCO MM
* ",
A udio
F ra
Del ay
ĠĠĠĠĠĠĠ čĊ
ma v
Ġnet app
Ġid le
Ġend ing
Service s
Ġsub mitted
Ġtrans formed
Ġuti lities
W rap
ang o
ĠRE AD
Exec utor
!! !!
ĠM apping
#---------------------------------------------------------------- -------------
er t
Ġpack ed
Man ifest
Wor ld
A ES
ĠF lask
ĠSta ck
GEN ER
Cl asses
col on
UR ATION
CL UDE
PL UGIN
q p
Ġh ighest
ship ping
Ġpatch es
Ġin structions
mo s
ĠH elp
Tests From
short cuts
start up
ĠB inary
ject ory
Ġpy gments
PRE C
Ġimport lib
ĠCh annel
sca led
ĠCal lable
Ġev t
Ġtyp ically
Decimal Field
ĠS to
par a
Un i
w ildcard
re te
00 8
Ġrep lica
Ġ200 3
T r
Ġ3 9
Ġ æ
Ġmo ves
We ight
Ġcheck out
log ic
msg id
Bytes IO
= _(
st h
Ġcre dential
Ġidenti fiers
UN IT
Ġper sistent
PRO PER
FT P
cut off
S can
ĠS V
30 2
ĠContent Type
Ġplay book
He ad
Ġsen ds
icon s
i ous
(' //
10 5
Ġindex ed
PO LIC
[" _
disk s
Ġk v
EST AMP
graph s
G ithub
Ġq t
24 0
R EST
ĠLo gin
Ġ" @
Ġdata center
Ġcode c
Code c
Ġ Keep
pro jection
ĠHTTP S
Ġma gn
= ("
sub field
å ®
Ġear ly
(' >
con sistent
Email Field
Ġr f
ST Y
URL Field
wri ting
Ġal arm
pi cture
Ra dio
Ġassume s
* "
con crete
CHOIC ES
w ater
gra ded
vari ants
pol ys
h ive
Box Layout
stat uses
Ġbal ancer
OT AL
graph ics
Ġorder s
factor s
Ġlo t
Ġde velopment
(' $
"] },
BO X
id om
Ġas sets
UN ICODE
P D
ĠS ame
Ġh olds
temp file
ren d
Ġp seudo
ir ing
Ġ ################################################################
de cision
Ġc le
ĠC ar
comp atibility
Ġdo ctype
64 7
conf lict
SD K
Ġs vc
Ġn av
ĠC ER
IPT OR
Ġof fer
ĠB ig
çĶ ¨
st ored
HTTP S
() ],
ENS OR
p aste
ra b
REQUI RED
ch oose
Ġu int
ĠF AIL
VAL UES
dec lared
Ġf g
Ġ` (
Ch art
Q A
ra pping
Ġconfig urations
i et
bs d
Ġver ified
Ġf k
vor ite
Ġchain er
) "),
re use
ĠP ATH
alle ry
war ded
M ay
it ored
Ġme ss
Ġmut ually
ver ity
ab ling
N B
web kit
v y
Ġ[ _
Ġmember ship
Match er
As sertionError
K ernel
Ġde tection
Ġf ft
Ġin ference
Ġg dal
prob ability
si stant
si lent
ca mpaign
AG IC
Ġmark ers
{ \
get Value
qu otes
Ġgr ant
Po inter
ĠGa ussian
K T
red u
li fe
struct ures
Ġnon ce
10 4
> :
h adoop
no ther
ĠFa iled
ĠF igure
At temp
è ®
IGNOR ECASE
get Current
ch ie
ĠM IME
Ġ3 600
Per form
Dec orator
tensor flow
i ro
Ġen countered
Slug Field
o ct
Co ord
Di ffe
Http Response
; ")
Re verse
Ġtr ust
Ġroot s
ĠGE OS
O UR
du cing
ĠBe cause
con tra
Schedule r
C ycle
k ivy
Ġi l
Ġv oucher
ĠCo okie
Ġserial ization
ĠComponent s
Ġc map
Re pe
OP ER
Ġreason s
quot as
ĠP ay
Ġdiffe rences
V IR
Ġs lash
ĠD istributed
u lo
Option Parser
esca ped
n ex
ĉĉ ĠĠĠ
measure ment
M F
q r
hy si
re ject
nt p
ver sal
Ġtext ure
. '.
in active
str s
Ġp ix
Ġo paque
ler ts
Ġdist inct
out box
Ġro u
ge os
)) ):
time d
p or
pop up
j it
v out
([^ "]
v hd
Ã ¼
Ġ" ('
im db
ĠGener ator
ĠP latform
XX X
in ite
Ġst mt
stri des
dist utils
Ġsick beard
80 80
isc si
lic ated
tex info
RO LL
O ps
Ġco lour
DIS ABLE
ĠCho reo
) },
ĠL D
"] ]
Ġlength s
ĠN um
Ġbox es
Ass oci
Ġf f
spa cing
G tk
Ġs ynchron
ĠP op
cho ol
ĠS ci
EXT EN
ke mon
ĠL td
cor ded
coun ters
Ġre cipe
01 2
Ġopen ing
tx n
re versed
Ġg n
ĠP ipe
Ġspec s
sh p
Ġen sures
FR AME
Ġt weet
pa lette
ĠComp any
Ġ que
Ġs park
Ġj ump
Ġs ay
Ġex am
Zip File
Ġskip ping
Ġst ory
Ġhash es
pre ferences
="" ):
? )
bu st
TER M
Ġbind ings
PE CT
Ġd l
course ware
MT P
appro x
od oc
ĠW hat
Z a
IN K
assertRaises Message
INIT IAL
M esh
ĠT wo
Ġdi ffer
di ts
Ġdesc r
to lerance
cr s
form ula
Spec ial
le aves
ol ate
t weet
Ġg iving
Ġeas ier
N ER
pe ek
the sis
TR UE
fab ric
M ust
Ġg rpc
Ġsup press
FI ED
M AT
Ġarch itecture
Ġdisc ussion
Ġxml rpc
ĠPo ol
C ar
Ġ" |
): ]
mar ize
Ġdecor ated
p as
Ġp ure
scri bed
Ġpick ing
Ġtar info
Ġtoken ize
Ġrest ored
ST ORE
Ġ[{ "
pub key
G LE
u fa
at tached
ep ub
Ġdec lared
ony m
2 64
G IT
Ġlog file
cre ase
! ',
i dentical
el ve
ĠP lay
net mask
ĠT er
S heet
f ds
ut s
price list
Ġc i
pri vile
over lap
vl ans
Ġc ms
ĠV LAN
match er
In v
Ġ7 5
Ġpie ce
Ġtor rent
in correct
dec lare
BACK END
en dif
IC K
PAR ATOR
S ide
ele ry
p lat
ĠT IME
Tra in
fi sh
Ġg ate
pk t
n ullable
Ġ' ='
Ġf ine
Ġan onymous
C ard
confir med
(" '
Ġl p
S ql
mo v
manager s
T x
gu ard
H z
s rs
ĠE d
rec id
ĠL ab
ser ving
DI ST
struct ured
hand shake
Ġg rouped
Test Result
Ġnew er
Per m
Work space
r find
() ")
ĠA B
exp ressions
e qu
ĠG rid
AR RAY
fra g
O wner
m iddle
DE P
Ġqu it
Ġp lug
se lenium
big ip
Redirect s
QUE UE
Ġe th
Ġun changed
index ed
BO SE
Ġ'{ "
j id
lib virt
ari os
Ġsa f
se quential
local time
CHAN GE
mk s
Ġauthentic ated
Coordin ate
ufa cture
Ġth resh
M ATCH
w id
in coming
Ġ{ \
Ġmatch er
Ġfn match
> ).
ut y
ĠOpen SSL
g let
=" +
Ġsome times
Ġread line
supp lier
d ro
Rep ly
Ġ ####
sc anner
pos ure
Ġrestri cted
d get
cor der
Ex pi
inherit ance
: </
Ġd r
ĠCon trib
Ġjson utils
Default s
ĠPo licy
ĠS DK
Ġloc ator
iso format
c red
me rs
D ot
W D
å ľ
Exp and
et ing
Ġdebug ger
co uld
ĠC SS
ĠB atch
ele ms
H ASH
Ġplace d
mq tt
B ro
ĠBe autifulSoup
s ay
e red
å ¤
rep lication
AB IC
wri tes
open source
Ġepoch s
Ġp tr
Ġs ingular
B ER
state ments
Ġatom ic
Ġtopo logy
Ġp w
Ġs he
mo ment
Ġbound ing
Ġeff ective
Ġautos pec
Ġm l
Ġsub type
g ap
ĠCONT ROL
Ġf ault
ĠRe mote
face book
s queeze
Ġ ç
f atal
Ġde claration
Ġcomplete ly
F uture
add le
` ).
Ġbra cket
Ġper ms
ing u
ĠRe quires
li sion
Re c
F ER
new lines
success ful
Ġrecur sively
ct ree
Ġd uplicates
st s
Ġvi f
READ ME
COD ING
a fe
blue print
H R
Ġf tp
Ġsub dir
App ly
in ode
Add s
Ġsur vey
fire fox
. :
f lux
Ġre fs
pre dicate
row se
Ġwant s
duce d
pp rint
H idden
Ġm illi
head s
Ġmime types
deli tem
Analy sis
Ġc Pickle
pro ducer
"> '
Unit Types
Ġdi ms
Ġstyle s
or acle
args pec
Rep orter
ĠRe gex
ĠT wisted
o lete
pa id
Imple mentation
aff inity
BIN ARY
ĠAuth entication
Ġstack level
Random State
S Cons
ĠF ix
pack ed
XXXX XXXX
POLIC Y
qu o
Ġen force
LOG IN
) |
ĠM issing
branch es
u ck
ti facts
Ġwh atever
B RE
P ID
li me
Ġpa use
Ġcomb inations
Ġur lencode
2 20
Ġm ixed
ĠDe ferred
di rective
Mon th
C ustomer
l ush
Ġme dian
ron ic
M ouse
ap se
Ġb ank
pro be
cur dir
iv ot
Ġ'/ ')
ĠClo se
ĠSh ape
DATAB ASE
(' {}
Ġh orizontal
De precationWarning
Ġinter vals
={} ):
ec ycle
Ġtermin ated
tivi ties
ES IS
W ER
in table
Ġcon structed
mpo tent
V A
RE EN
na cl
Ġb a
temp orary
Ġf ocus
ce ler
comple ter
f rontend
13 7
Ġdatabase s
SE ARCH
17 2
c url
da ily
Ġside bar
n f
Ġthe mes
ht t
ĠQ Q
Ġ. /
database s
Ġaut og
) [-
Ġs ched
no thing
ĠCreate d
lip se
Ġsn ippet
Ġwa ys
Ġintern ally
G uest
de crypt
ĠJava Script
Sy m
Ġindic ator
Ġmeasure ment
Ġde que
Ġget ter
mp i
Ġd ash
Ġ" ''
ĠV AR
d bus
mp loyee
PARAM S
Ġcid r
Ġh older
ĠA F
Ġlib virt
PRO FILE
01 7
11 7
Ġvi sited
IDDLE WARE
l bl
u ds
p f
=' _
Ġgraph s
c isco
x B
ĠE val
cc cc
Ġs dk
li days
M a
x o
on om
x l
Ġ0 1
Ġv t
en dian
Re cur
ĠAs sign
C ent
y r
tra ffic
22 2
DOT ALL
Ġsimp lify
D ROP
a tives
n py
Ġm time
Ġobtain ed
ĠAd ded
experiment al
a ma
Ġs v
Ġimport ing
Comp any
Pri mary
ĠVAL UES
attemp t
Ð¾ Ð
Ġh ar
10 9
Ġ5 5
ĠRE QU
& #
) ()
B reak
web driver
T ES
b id
ho le
Ġfolder s
requen cies
SCO PE
d os
Ġw f
ĠU ses
vi al
Ġrep lacing
ĠRe lease
index er
N orm
W O
ĠC SR
ne arest
ĠRe p
Ġthrow n
Ġ4 1
Type Id
Ġsym link
Ġsym metric
L ight
Ġ{} ))
amb da
Ġh ello
qual ified
hard ware
ĠL eg
]+ ',
Ġ" </
Ġimp orter
Ġ ul
KEY S
ĠData set
> `.
Sc roll
Ġpar ty
MA IL
tri ct
Ġb py
get Name
FI ER
ci a
trans forms
AV AIL
Ġs f
Ġ[' <
Ġun quote
os ted
ros pection
10 7
ex cluded
ĠL en
Ġdis connect
Run time
COL UM
j am
Lay ers
Ġp ing
b ur
Ġconver ting
Ġtrans pose
Ġas sertion
Ġ linux
alle st
vis ual
p ure
Ġs ong
Ġme as
Ġ(' -
gui de
N R
q n
for d
AT T
The me
her its
N L
top o
Ġthere fore
MO VE
* ')
b ash
Ġfor tios
Ġprovi sion
HTTP Server
Ġc x
AT ES
Pro c
handle s
EX CEP
ĠRa ise
ĠCh rome
morph ic
bo m
ĠEn tity
ĠCourse Enrollment
student s
fic ations
P adding
(' @
Ġ(' ',
IC ON
Ġover ri
e fs
or i
le ts
Ġbe h
Ġpur ge
k ed
=[ [
Ġne ither
AC H
us b
CONT EXT
Ġnume rical
ĠGener ated
comb ined
Combo Box
ED IT
Ġ{ :
assert Dict
si ent
ĠM D
ph en
Ġear lier
Ġe tag
Ġde cl
4 56
Ġpy lab
STOR AGE
Ġse man
Ġsh lex
Ġtrun cate
/{} /
M i
ĠS R
activ ated
comb inations
M Y
me ss
ĠS creen
save fig
fn match
make file
FI RST
('. /
h ance
u li
Ġloc ated
ĠMe mory
Ġexpi re
Ġintera ct
T ube
mat plotlib
ĠUti ls
code d
ĠSt udent
book mark
lo aders
ĠIN T
d v
Ġlib cloud
Ġlet ters
mpo ol
ver ted
Ġfile Name
od d
6 55
op code
ee p
Ġtri ggered
Ġbecome s
Ġre lations
gin es
CONT ROL
Ġt aking
Ġexp orted
con da
Sub net
Ġdir ty
BE GIN
R NN
an nounce
Ġa ctor
DE C
b la
Ġlong itude
Ġas pect
inal ity
ĠD IR
Ġper iodic
Ġle aves
Or ganization
Cer t
Ġcut off
E O
O ld
u ma
Ġte l
TR AIN
CK ET
CP P
hier archy
Ã §
ff old
ĠUser Profile
^^ ^^
s ynchron
ĠA CL
pie ces
Ġ" :"
gen der
Ġtop ics
fl ask
Ġm ongo
Ġ4 9
) </
is null
to s
py file
ĠP K
bo ards
token ize
Ġindex ing
W I
x r
Image s
Su ch
off line
Ġdiag onal
, ,
horizontal Layout
Q T
listen ers
ĠAnd roid
N I
U i
ur on
Ġinstanti ate
recon c
Ã £
out s
N V
out come
Ġti p
Dest roy
value d
Ġpro files
Ca pa
Ġeas ily
ĠGui de
ĠO rigin
Ġ[" -
G a
Q Q
bu ff
Ġk s
fq dn
again st
F amily
Ġemp loyee
ĠAss ume
Ġindent ation
exp lo
ĠIN TEGER
' ``
le y
Ġn r
Ġs anity
ĠDown load
. ),
Tra ceback
SH ORT
HTTP Request
ĠHTTP Error
un set
un supported
Ġconv olution
Ġnew lines
Ġany way
Un ion
ĠForti Gate
g win
Ġa pache
un safe
Annot ation
st ype
Ġgener ators
Ġsubnet s
ĠTe chno
3 04
Ġcon crete
Ġg round
Me asure
Ġt up
Ġch apter
ul ates
Ġd ropout
Ġprint ing
For bidden
ĠS w
ĠC R
Ġ'. '.
DO UBLE
si p
Ġpar ame
Ġ' "'
wa v
Ġpre ference
Str Opt
hyper visor
Ġ# '
Ġg w
ht m
append Child
For ce
Met rics
len d
ĠTra ceback
C CE
S F
pk gs
LOC ATION
Ġde scriptors
ĠIn sert
pop ulation
Ġnormal ization
x ls
ur is
C ap
S yn
di co
Ġr ating
in omial
compo site
vertical Layout
Ġprox ies
WINDO W
bar s
TIT LE
y lim
ĠR GB
let ters
assert List
Ġres ume
Comp are
WS GI
" ?
te sian
ch ors
ING LE
Ġconver ts
ĠFe ed
N ow
US H
CE L
# '
noti fier
W AY
vo ices
------------ ---
c ation
ĠG ROUP
Di vision
di vide
ĠĠĠĠĠĠĠĠĠĠĠĠĠĠĠĠĠĠĠĠĠĠĠĠĠĠĠĠĠĠĠĠ ĠĠĠĠĠĠĠĠĠĠĠĠĠĠĠĠĠĠĠĠĠĠĠĠĠĠĠĠĠ
Ġ5 6
86 01
Des cri
Ġc type
Test Data
expi ry
xis tent
Sa les
Ġ rid
un ame
ĠW idget
La unch
at an
Ġin ject
DESCR IPTOR
Ġr ho
ĠCol lection
sur rogate
CU ST
Ġstudent s
B M
T K
sh adow
Ġac i
ĠCourse Factory
as pect
qu are
EN O
mis s
T urn
reach able
Ġin structor
Ġa ri
Ġc ircle
ĠM ail
ne e
RAN GE
style sheet
Ġdump s
Ġhier archy
ti ca
Al ready
p itch
ra x
Ġun ix
vm od
t ornado
cas cade
F ri
` ."""
Ġd m
OS Error
Ġmod name
ĠST ART
Ġroll back
= ')
ul ing
Ġv rf
AR ED
Server Error
ges ted
)] ),
9999 9999
Ġc gi
+ (
add Action
Ġexp lo
Ġ ys
data center
Ġ4 7
b lit
Co untry
file list
ĠP ick
token izer
({ },
Ġshift width
am big
Ġgra mmar
Ġs ink
un ted
Ġr r
Ġlower case
stri b
ĠDO M
Ġproc urement
ĠW R
ick ness
( %(
ind s
Di ag
F ULL
v cs
ti les
25 2
Ġob servation
P AY
Ġcomp uting
ĠAR ABIC
Ġi pa
! --
F ault
ĠC C
red hat
Ġ( #
vi z
do o
mark ers
SA MPLE
pur ge
ut ter
work dir
group by
home assistant
pro tection
ber g
Ġtrain able
ĠL ock
Client Error
SUPPORT ED
Ġof p
15 9
C MS
g db
out dir
INST ANCE
A E
z ie
Ġf aci
oose Version
S OL
Ġex ceed
OP T
Ġre ject
ĠIn stead
Ġg i
Ġsym bolic
th ough
the re
1 33
clar ative
W HERE
Ġca ught
static files
Ġloc ally
Ġst oring
DESCR IPTION
Ġd ct
Ġ4 6
Z IP
Ġin place
sing ular
Ġke pt
is son
IC S
\\ \
ĠO racle
S UM
ĠC RE
vm ops
u um
å Ń
un able
pro vided
") ])
scri min
Ġfactor s
es ter
our s
dir path
ĠAl ways
ĠP ut
Ġun supported
ANG O
c map
ĠSpa tial
ĠS A
db g
OR ITY
d uplicates
'. "
à ¤
d ra
Th at
load TestsFrom
"> %
B enchmark
one t
Ġla titude
ĠFile s
el t
ĠI M
=' \
exp anded
E scape
s ch
fa sta
11 9
=[ ]):
n inja
Ġde tailed
Ġtrans parent
Ġtrans forms
Ġf r
Ġcon cat
app y
ĠD raw
ST DOUT
ĠV PC
F OLDER
-- +
Ġto ggle
for ge
Ġ2 50
assert Num
rep lay
play ers
C AT
Ġin finite
Add Field
Me an
Ġass ump
St ates
m al
t ap
å Ĭ
Ġms gs
Ġdisc ard
Ġintera ction
Ġs am
ĠĠĠĠĠĠĠĠĠĠĠĠĠĠĠĠĠĠĠĠĠĠĠĠĠĠĠĠĠĠĠĠ ĠĠĠĠĠĠĠĠĠĠĠĠĠĠĠĠĠĠĠĠĠĠĠĠĠĠĠĠ
system s
? ")
que ster
ren dered
Tensor Shape
s andbox
Ġr nn
Ġpro ducer
AB LES
//////////////// ////////////////
A sia
Ġbase line
Ġmat ter
bro ken
Na N
con tour
over lay
R ATE
_ *
w c
Exten ded
Ġam ong
10 3
+ '.
Ġz ope
de scriptors
Ġm q
32 1
Ġconnect ing
ĠAC UTE
mo ke
ac teri
Ġ%} {%
Ġconven ience
co erce
N ested
pol ar
sn ippet
] ?
Ġv l
ĠJo hn
ĠSe cond
expect ations
p asses
Ġfor wards
up pet
Ġclassi fiers
K L
Ġsli ces
Ġjoin ed
Ġpop ulation
P lug
Pro ducer
Ġ[]) .
Ġf out
app liance
Ġrep orter
ĠSy m
omin ator
: ]))
de compress
ot os
12 4
13 9
=' <
36 0
Ġdisk s
p latforms
Ġ5 3
ĠDE LETE
Update s
ĠExec ute
: #
ĠG PIO
Ġcom ing
Ġf ingerprint
Ġon delete
me as
tra iling
rep l
ĠOR DER
Ġte ardown
INST ALL
Or deredDict
Ġsh or
Ġref lect
in tent
ar ter
ĠS IG
Ġla g
ATTRIBUT E
Ġin struction
AT IVE
Module s
ĠVariable s
Ġcen ters
py pi
CS V
ĠTra ck
ĠRen der
ĠF ull
bre w
u ary
() )))
', ))
Ġ(' %
Ġsnapshot s
fri endly
C y
T k
SE C
open ssl
============ ==
n v
ALLOW ED
the ses
vm ware
Reg ular
D J
get new
ul us
ĠM IN
ume ration
DO C
L ow
v fs
In dices
$ "
][ -
queue s
Dimen sion
Cat alog
7 00
Ġ Ã
Ġa mb
FO O
OB J
Ġ'? '
Conf lict
L n
ument a
h dfs
an cing
Ġhe at
is cal
ĠT akes
Bo ard
umul ative
ĠMet adata
Ġ ten
Ġv ary
U X
k ubernetes
Ġp lots
D im
ĠM erge
start s
rate s
st reet
ĠSa fe
jo hn
Ġ' *.
Ġlookup s
L F
ĠO b
ĠG PU
mb ic
77 77
bad ge
Ġtr uth
ĠI E
str ate
Ġk b
T OTAL
si zer
dist ro
æ ĺ
O ID
ref count
ĠTrans action
Ġlo ops
off ering
fin es
Ġp list
DI FF
char acters
stand ing
pre ferred
Ġta u
Ġest ablish
Ġclose st
s ax
Ġ( :
ph an
note book
Ġcalib re
Ã£ o
G ED
Ġal gorithms
LE ASE
fic ial
Ġdat um
Ġbu ildbot
Model Form
ĠP ER
Trans lation
Cur ve
Ġfont size
S MTP
Ġas c
Sub mit
de os
C amera
ome tric
Ġinter section
Ġprob abilities
s anitize
grity Error
ra ce
Lo gs
like lihood
Ġmis c
ĠDis able
Ġpre fer
basic Config
Ġderi vative
h l
Sub scription
ĠInter val
Ġcirc ular
p si
ĠA gent
[' %
Ġprovider s
' (\
R FC
Ġw ind
Ġint f
) +"
G CC
t re
b am
m ic
Ġan sw
ress or
Ġne arest
Ġun link
sub st
Ġ"- "
team s
= (),
ĠS INGLE
def ines
assert Redirects
ĠW arning
ĠIn clude
initi ator
in side
sp ent
Ġ200 2
Run s
Ad ditional
Ġbatch es
bra cket
ANCE L
asc time
A verage
b x
x lim
loc s
Ġ6 5
c ategorical
build ing
ĠValid ation
mp p
11 5
Push Button
Ġh dr
ĠM a
)) ;
Ġv dom
PAT CH
Ġqual ified
Alter Field
No tify
E B
Ġh s
Ġfield name
Ġlicense d
CLO SE
ĠT itle
RE AL
Ġpop ulated
(' </
ĠS ort
Re view
ĠPro vider
BU IL
ret val
M ul
di x
pa st
ĠM ore
Ġx p
j k
con tacts
seq s
x sd
Ġch dir
ps y
Ġvi sibility
List s
Ġwork sheet
33 3
Ġph oto
Cre ator
ĠPa rent
C apture
Ġm ixin
Ġ201 9
REC ORD
pe x
32 6
ĠVER TICAL
Ġs tem
den ted
poly gon
Represent ation
lf ormed
Ġapp liance
analy zer
10 6
flow Error
gl ance
Ġc rc
ĠOper ation
2 15
te ch
ĠB IG
ja co
shop ping
Ġi rc
Re ason
Ġact s
F ocus
e lev
ĠM any
sub scriber
Dis able
ĠSign al
T M
D id
ĠS cal
var name
Ġtab stop
Ġregard less
Dest ination
p lit
Ġperiod s
Ġautog enerated
A nswer
F requency
ĠPy gments
over view
Ġ" "),
In dent
ĠN umeric
CO VER
D uplicate
com ma
re sid
wa gger
LIBR ARY
c lic
Data Source
Sur face
C s
Ġi e
Ġim db
Sto ck
ĠC allback
return ed
ĠY our
Read y
n od
Ġoper ating
u uids
Ġre la
Ġg rp
Time s
Ġfind ing
Input s
Ġstatic method
Ġinte gr
C ENTER
e Error
comp arison
stra ined
sym metric
(' !
(" ^
no stic
ĠCon v
Ġ6 3
For ward
ĠPo sition
Ġw arehouse
expand tab
Ġin fer
']) ),
B lue
lt as
ĠL ooseVersion
Ġout come
UD P
Ġrout ines
or row
Ġsh adow
QL abel
PAR AMETER
ĠRe present
ĠJ S
decode d
Ġa pt
Test Model
no me
ĠEn ter
Ġprece dence
se verity
matic ally
gre SQL
Ġh er
Ġag g
Ġmodi fiers
! ",
S ca
Ġde coding
Instance s
ĠP UT
Ġsent inel
gin x
inter vals
gr ant
in ference
sa ver
Ġsign ificant
æ Ĺ
Con sumer
ud nn
C ols
w est
add Handler
lt k
Ġyield s
ĠAt temp
ĠSkip Test
Ġansw ers
e lect
int f
ex pose
Ġpa lette
("/ ")
Ġ'.. ',
ĠQgs UnitTypes
i fi
ĠM at
r at
gra des
ĠSM TP
_ ')
c ac
Ch rome
[^ >
Ġur lopen
_ ',
Ġref ers
1234 56
: \\
Ġs te
peri ments
Ġf t
add Item
sig moid
N P
Bo th
Ġidenti fied
il s
Ġsta mp
c it
Ġd hcp
RUN NING
restri cted
R ank
RES ET
Ġh olding
CON ST
grid Layout
P l
Ġ' )'
en force
su er
Ġcapt ured
= <
ĠT otal
ĠD el
block ed
TERN AL
ĠAc cept
Ġre li
Ġcon tra
Ġ` _
und ant
44 3
Ġorg an
z mq
ĠL LC
ca ches
AL SE
L AT
St udent
lat ing
month s
b illing
M er
z lib
Ġs at
ke eper
Ġkey board
Ġac cessible
Ġ`` (
Ġallow ing
Update d
Ġlar gest
Ġti d
Ġw d
shift width
m ong
Ġre cogn
tp l
u er
HE IGHT
1234 56789
ĠN ational
Ġsub title
ĠRo le
H a
lo p
Ġh d
10 8
ĠPro gram
on to
Di rection
sum maries
article s
sli der
ĠM enu
Ġsize of
ĠCon tact
Ġmark down
Ġcorrespon d
Ne utron
ile stone
fil led
ĠLOG GER
mime type
ĠM UST
ren ch
Named TemporaryFile
= __
Ġf q
Ter m
lookup s
band width
E AR
me tic
Ra dius
ob ile
Pay load
) (\
Ġ' //
(" $
ATEG ORY
SOCK ET
Ġsca led
test dir
'} }
Ġac quire
xml ns
CONN ECTION
ate l
ĠH ash
trans lated
Ġf lip
ĠM ichael
nick name
coeff s
i tion
pi der
ak s
ĠIn formation
Ġcustom ize
ĠRO OT
assertNum Queries
C r
ĠS EC
Ġpro cedure
pro duces
CR Y
Ġconsume d
ve locity
ĠS chedule
ĠC annot
Ġra ising
D on
pre process
ĠLo op
U V
al ker
ac me
imp orted
Down loading
, )),
get pid
Ġas ynchronous
tr usted
Ġtest case
ph er
Ġ[] ))
Dis abled
E urope
Ġe m
sup press
u df
Ġe mul
ten dee
dis cover
gen s
assertList Equal
int ro
c riteria
ĠC E
ĠY AML
HTTP BadRequest
Ġspa m
Ġsupp ly
ate st
ims how
ou ch
Ġz ones
Ġ'/ ',
re la
De pendency
uplic ated
T HE
é Ģ
ĠEx ternal
LIC ATION
Ġpoly gon
2 16
Ġs ound
Ġd lg
') ",
ĠM ul
nx os
min i
ĠRe po
Ġac ceptable
foot note
* ?
s an
s ms
Ġe ver
be low
k k
Ġs mooth
Ġcor ner
li day
ĠS witch
=" {
Graph ics
s he
AA A
Ġhead ing
Ġs cr
ĠP i
ĠD etail
map ho
YY YY
MULTI LINE
; ",
de termin
ĠTime stamp
m nt
comm its
Ġbranch es
Ġlos ses
ĠC ity
H ard
as p
Ġon line
d ri
). "
AVAIL ABLE
Ġsee m
ĠCHAR ACTER
F lat
x fe
cla im
Ġaggreg ation
' *
v di
ab et
ask bot
('- ',
D M
Ġc trl
Ġstream ing
Ġweb kit
rout ine
Ġinstanti ated
Ġn l
Load ing
ĠMoved Attribute
) [:
T A
f v
g dal
inst aller
level name
( .*?
Ġcon fidence
per sistent
Ġcu da
A re
x or
Ġo dd
co sh
end ants
rep licas
Ġjoin s
Skip ping
H yper
[ ...,
log ies
b untu
key pair
Di rect
spe ctor
g ree
p th
Ġn om
Cal cul
C ells
AR G
train able
k top
. ':
m ts
add Test
UN T
Task s
Ġst able
RE PO
Ġspec ies
g ar
plain text
F o
U G
x ed
at tention
iet f
Ġloc ate
66 6
ĠDi ffe
NOT E
gramm ar
__ ",
Ġpri mitive
Ġattach ments
Ġc red
Ġc reds
lic ate
String Field
U Int
Ġcon caten
Ġres ol
Ġequal ity
alloc ated
li gh
---+ ---+
P ED
Ġcopy ing
PACK AGE
Ġdeli very
Qual ity
Ġb old
Bu iltin
inte rest
mks temp
Division Error
z i
Ġb az
up loaded
Ġprint s
POSIT ION
I LE
f ortran
ĠM B
=-=- =-=-
Ã³ n
keys pace
34 5
Process Error
DIRECT ORY
s mooth
=[ (
Man age
ĠSup er
from timestamp
Ġch at
); \
Table s
ĠS ocket
======== ==
Ġpre view
we ep
Ġgra b
ĠsetUp Class
IF Y
ĠJ an
dat um
Ġsuc ceeded
t up
wri table
F ix
h m
Ġ2 02
EN CODING
Ġwas n
Spec ify
" <
ĠItem Factory
soft tabstop
Ġaff ected
! '),
pre serve
im ates
tran script
(" __
G OO
Ġpro duces
subscription Id
Ġd bus
G NU
c api
m di
st ores
ref und
alo gs
g gested
å ¼
d yn
VER BOSE
' ')
Ġi ma
]] ))
PR ES
di es
| %
tk inter
Constant s
Ġde leg
Ġun iv
Ġ'{} '
ĠP RE
WAR N
Ġtri ed
lati lity
Ġa f
sc m
With out
mu sic
w file
TH READ
LD AP
S teps
in validate
(( -
Not Set
BO OL
Ġpro grams
ick start
ju gate
DEFIN ED
D er
O ri
gra der
Add on
ati vely
Ġcon sistency
Ġq os
ĠN ext
deg rees
y o
capital ize
num s
Ġauthor ized
Ġrespec tively
de tector
test data
Ġ` %
; </
11 3
Ġ9 00
X R
â ķ
id l
ma gn
16 9
current ly
Cal lable
Ġse lenium
Date time
Ġtri p
LA ST
ã Ģ
st udio
vi sed
user id
Ġst ation
ke w
now ledge
Ġtar ball
ĠS ol
va il
Ġtrack s
Link s
ffic ult
W dg
Ġb ri
ma le
Ġfo ot
Ġscra per
ĠUP DATE
M ix
gin ary
f unctools
con cept
ĠS C
A lert
Ġtop level
h c
in sensitive
in cluding
Ġs light
), )
Ġsocket s
ĠOUT PUT
Ġ timing
work s
sp rite
ĠChange s
v x
de claration
no res
ĠIn voice
altern ate
la m
ĠS ur
Ġg ap
Ġkw ds
Ġconven tion
1 32
H IGH
ĠE asy
'' ',
ĠCo uld
Ex tent
EL L
INTER FACE
Ref resh
b ond
Ġexp lanation
Ġschedule d
Ġspi der
od o
ĠRo ot
st on
ho o
ĠH andler
Ġgroup ing
Ġvocab ulary
Ġbu ff
url join
Argument Error
ĠPri vate
EXTR A
Ġf etched
Ġz oom
ra tic
off er
ĠNa N
QSize Policy
Ġ7 2
Sta mp
ĠModule Store
net conf
edi ted
â Ķ
og gle
Comp ile
Ġprivile ges
ROUT ER
Ġn db
fa c
reg ist
ĠAr ch
Ġcent ral
L R
Ġ der
par s
Ġsub titles
13 5
cat ter
Def ine
Ġla b
flow s
Ġdetermin es
Ġ ########################
Ġal ter
ĠPre pare
Ġch rome
do or
Ġ] ),
debug ger
UP LOAD
live red
La zy
ule r
mo ji
