{"version":"1.0","truncation":null,"padding":null,"added_tokens":[{"id":0,"content":"<|endoftext|>","single_word":false,"lstrip":false,"rstrip":false,"normalized":false,"special":true},{"id":1,"content":"<|endoffile|>","single_word":false,"lstrip":false,"rstrip":false,"normalized":false,"special":true},{"id":2,"content":"<|pad|>","single_word":false,"lstrip":false,"rstrip":false,"normalized":false,"special":true},{"id":3,"content":"<|instruction|>","single_word":false,"lstrip":false,"rstrip":false,"normalized":false,"special":true},{"id":4,"content":"<|response|>","single_word":false,"lstrip":false,"rstrip":false,"normalized":false,"special":true}],"normalizer":null,"pre_tokenizer":{"type":"ByteLevel","add_prefix_space":false,"trim_offsets":true,"use_regex":true},"post_processor":{"type":"ByteLevel","add_prefix_space":true,"trim_offsets":false,"use_regex":true},"decoder":{"type":"ByteLevel","add_prefix_space":true,"trim_offsets":true,"use_regex":true},"model":{"type":"BPE","dropout":null,"unk_token":null,"continuing_subword_prefix":null,"end_of_word_suffix":null,"fuse_unk":false,"byte_fallback":false,"ignore_merges":false,"vocab":{"<|endoftext|>":0,"<|endoffile|>":1,"<|pad|>":2,"<|instruction|>":3,"<|response|>":4,"!":5,"\"":6,"#":7,"$":8,"%":9,"&":10,"'":11,"(":12,")":13,"*":14,"+":15,",":16,"-":17,".":18,"/":19,"0":20,"1":21,"2":22,"3":23,"4":24,"5":25,"6":26,"7":27,"8":28,"9":29,":":30,";":31,"<":32,"=":33,">":34,"?":35,"@":36,"A":37,"B":38,"C":39,"D":40,"E":41,"F":42,"G":43,"H":44,"I":45,"J":46,"K":47,"L":48,"M":49,"N":50,"O":51,"P":52,"Q":53,"R":54,"S":55,"T":56,"U":57,"V":58,"W":59,"X":60,"Y":61,"Z":62,"[":63,"\\":64,"]":65,"^":66,"_":67,"`":68,"a":69,"b":70,"c":71,"d":72,"e":73,"f":74,"g":75,"h":76,"i":77,"j":78,"k":79,"l":80,"m":81,"n":82,"o":83,"p":84,"q":85,"r":86,"s":87,"t":88,"u":89,"v":90,"w":91,"x":92,"y":93,"z":94,"{":95,"|":96,"}":97,"~":98,"\u00a1":99,"\u00a2":100,"\u00a3":101,"\u00a4":102,"\u00a5":103,"\u00a6":104,"\u00a7":105,"\u00a8":106,"\u00a9":107,"\u00aa":108,"\u00ab":109,"\u00ac":110,"\u00ae":111,"\u00af":112,"\u00b0":113,"\u00b1":114,"\u00b2":115,"\u00b3":116,"\u00b4":117,"\u00b5":118,"\u00b6":119,"\u00b7":120,"\u00b8":121,"\u00b9":122,"\u00ba":123,"\u00bb":124,"\u00bc":125,"\u00bd":126,"\u00be":127,"\u00bf":128,"\u00c0":129,"\u00c1":130,"\u00c2":131,"\u00c3":132,"\u00c4":133,"\u00c5":134,"\u00c6":135,"\u00c7":136,"\u00c8":137,"\u00c9":138,"\u00ca":139,"\u00cb":140,"\u00cc":141,"\u00cd":142,"\u00ce":143,"\u00cf":144,"\u00d0":145,"\u00d1":146,"\u00d2":147,"\u00d3":148,"\u00d4":149,"\u00d5":150,"\u00d6":151,"\u00d7":152,"\u00d8":153,"\u00d9":154,"\u00da":155,"\u00db":156,"\u00dc":157,"\u00dd":158,"\u00de":159,"\u00df":160,"\u00e0":161,"\u00e1":162,"\u00e2":163,"\u00e3":164,"\u00e4":165,"\u00e5":166,"\u00e6":167,"\u00e7":168,"\u00e8":169,"\u00e9":170,"\u00ea":171,"\u00eb":172,"\u00ec":173,"\u00ed":174,"\u00ee":175,"\u00ef":176,"\u00f0":177,"\u00f1":178,"\u00f2":179,"\u00f3":180,"\u00f4":181,"\u00f5":182,"\u00f6":183,"\u00f7":184,"\u00f8":185,"\u00f9":186,"\u00fa":187,"\u00fb":188,"\u00fc":189,"\u00fd":190,"\u00fe":191,"\u00ff":192,"\u0100":193,"\u0101":194,"\u0102":195,"\u0103":196,"\u0104":197,"\u0105":198,"\u0106":199,"\u0107":200,"\u0108":201,"\u0109":202,"\u010a":203,"\u010b":204,"\u010c":205,"\u010d":206,"\u010e":207,"\u010f":208,"\u0110":209,"\u0111":210,"\u0112":211,"\u0113":212,"\u0114":213,"\u0115":214,"\u0116":215,"\u0117":216,"\u0118":217,"\u0119":218,"\u011a":219,"\u011b":220,"\u011c":221,"\u011d":222,"\u011e":223,"\u011f":224,"\u0120":225,"\u0121":226,"\u0122":227,"\u0123":228,"\u0124":229,"\u0125":230,"\u0126":231,"\u0127":232,"\u0128":233,"\u0129":234,"\u012a":235,"\u012b":236,"\u012c":237,"\u012d":238,"\u012e":239,"\u012f":240,"\u0130":241,"\u0131":242,"\u0132":243,"\u0133":244,"\u0134":245,"\u0135":246,"\u0136":247,"\u0137":248,"\u0138":249,"\u0139":250,"\u013a":251,"\u013b":252,"\u013c":253,"\u013d":254,"\u013e":255,"\u013f":256,"\u0140":257,"\u0141":258,"\u0142":259,"\u0143":260,"\u0120\u0120":261,"\u0120\u0120\u0120\u0120":262,"\u010d\u010a":263,"\u0120\u0120\u0120":264,"\u0120\u0120\u0120\u0120\u0120\u0120\u0120\u0120":265,"se":266,"\u0120\u0120\u0120\u0120\u0120\u0120\u0120":267,"in":268,"re":269,"on":270,"te":271,"or":272,"st":273,"de":274,"\u0120=":275,"th":276,"le":277,"lf":278,"self":279,"me":280,"ti":281,"al":282,"er":283,"\u0120a":284,"\u0120i":285,"\u0120\u0120\u0120\u0120\u0120\u0120\u0120\u0120\u0120\u0120\u0120":286,"ar":287,"\u0120c":288,"\u0120'":289,"en":290,"\u0120self":291,"an":292,"\u0120f":293,"at":294,"ro":295,"\u0120th":296,"\u0120re":297,"\u0120p":298,"ur":299,"ge":300,"tion":301,"ce":302,"--":303,"\u0120\"":304,"as":305,"):":306,"\u0120t":307,"\u0120n":308,"\u0120s":309,"mp":310,"\u0120\u0120\u0120\u0120\u0120\u0120\u0120\u0120\u0120\u0120\u0120\u0120\u0120\u0120\u0120\u0120":311,"\u0120in":312,"ame":313,"\u0120o":314,"\u0120the":315,"li":316,"ue":317,"ing":318,"##":319,"ate":320,"',":321,"lo":322,"def":323,"ser":324,"fi":325,"\u0120e":326,"ct":327,"di":328,"pe":329,"un":330,"ri":331,"\u0120m":332,"\u0120b":333,"co":334,"ch":335,"ut":336,"\u0120w":337,"si":338,"\u0120#":339,"()":340,"\"\"":341,"\u0120if":342,"ra":343,"id":344,"\u0120(":345,"nt":346,"\u0120def":347,"\u0120\u0120\u0120\u0120\u0120\u0120\u0120\u0120\u0120\u0120\u0120\u0120\u0120\u0120\u0120":348,"ck":349,"ul":350,"urn":351,"ort":352,"el":353,"turn":354,"name":355,"ter":356,"get":357,"ot":358,"':":359,"ad":360,"\u0120d":361,"\u0120for":362,"----":363,"__":364,"')":365,"\u0120to":366,"one":367,"\u0120return":368,"la":369,"it":370,"val":371,"is":372,"('":373,"\u0120is":374,"up":375,"\u0120T":376,"\u0120an":377,"ode":378,"==":379,"pa":380,"ver":381,"ma":382,"ed":383,"ype":384,"####":385,"mport":386,"es":387,"il":388,"qu":389,"\u0120h":390,"\u0120[":391,"test":392,"con":393,"ol":394,"sert":395,"set":396,"rom":397,"ata":398,"\u0120\"\"\"":399,"),":400,"ss":401,"xt":402,"\u0120of":403,"\u0120st":404,"ke":405,"op":406,"od":407,"ass":408,"None":409,"\",":410,"ble":411,"']":412,"vi":413,"\u01201":414,"et":415,"._":416,"ult":417,"\u0120con":418,"))":419,"\u0120u":420,"der":421,"ve":422,"ction":423,"ation":424,"\u0120\u0120\u0120\u0120\u0120":425,"00":426,"he":427,"ap":428,"sion":429,"\u01200":430,"\u0120A":431,"ith":432,"cl":433,"['":434,"\u0120not":435,"ent":436,"\u0120and":437,"rue":438,"ment":439,"\u0120ex":440,"\u0120S":441,"ile":442,"value":443,"gs":444,"\u0120as":445,"um":446,"file":447,"\u0120%":448,"eld":449,"ror":450,"\u0120C":451,"ta":452,"\u0120{":453,"ect":454,"res":455,"end":456,"int":457,"and":458,"all":459,"(\"":460,"\u010d\u010d\u010a":461,"\u0120import":462,"\u0120+":463,"age":464,"bj":465,"ted":466,"assert":467,"from":468,"\u0120de":469,"par":470,"\u0120-":471,"\u0120\u0120\u0120\u0120\u0120\u0120\u0120\u0120\u0120\u0120\u0120\u0120\u0120\u0120\u0120\u0120\u0120\u0120\u0120":472,"am":473,"type":474,"\u0120F":475,"\u0120g":476,"ex":477,"\u0120I":478,"lin":479,"to":480,"\u0120di":481,"ase":482,"ub":483,"ption":484,"key":485,"\u0120None":486,"for":487,"tr":488,"\u0120_":489,"\u0120==":490,"time":491,"pro":492,"path":493,"\u0120test":494,"bu":495,"\u0109\u0109":496,"\u0120or":497,"--------":498,"\u0120co":499,"text":500,"\u0120res":501,"ht":502,"\u0120P":503,"ls":504,"\u0120be":505,"us":506,"\u0120L":507,"\u01202":508,"],":509,"list":510,"ic":511,"\")":512,"\u0120r":513,"**":514,"ho":515,"ule":516,"Re":517,"====":518,"ig":519,"put":520,"que":521,"########":522,"alse":523,"per":524,"str":525,"\u0120with":526,"qual":527,"ew":528,"po":529,"fo":530,"pt":531,"able":532,"out":533,"len":534,"class":535,"\u0120lo":536,"ance":537,"rror":538,"\u0120:":539,"bject":540,"sc":541,"data":542,"\u0120name":543,"Error":544,"\u0120se":545,"ield":546,"\u0120pro":547,"mat":548,"='":549,"ault":550,"\u0120me":551,"tem":552,"ze":553,"mo":554,"our":555,"app":556,"True":557,"\u0120file":558,"odule":559,"fig":560,"date":561,"pec":562,"red":563,"ise":564,"ty":565,"ow":566,"args":567,"che":568,"\u0120el":569,"ER":570,"mple":571,"ry":572,"ack":573,"lic":574,"of":575,"Equal":576,"\u0120else":577,"])":578,"\u0120\u0120\u0120\u0120\u0120\u0120\u0120\u0120\u0120\u0120\u0120\u0120\u0120\u0120\u0120\u0120\u0120\u0120\u0120\u0120\u0120\u0120\u0120\u0120\u0120\u0120\u0120\u0120\u0120\u0120\u0120\u0120":579,"est":580,"ys":581,"\":":582,"quest":583,"\u0120D":584,"sh":585,"art":586,"add":587,"\u0120value":588,"ure":589,"ly":590,"\u0120ar":591,"\u0120y":592,"mm":593,"mode":594,"reate":595,"\u0120O":596,"\u0120ma":597,"line":598,"wor":599,"\u0120M":600,"ang":601,"\u0120v":602,"ange":603,"import":604,"\u0120G":605,"url":606,"\u0120data":607,"\"\"\"":608,"code":609,"stance":610,"IN":611,"assertEqual":612,"\u0120un":613,"\u0120str":614,"ense":615,"ON":616,"ource":617,"ten":618,"ist":619,"In":620,"\u0120get":621,"tri":622,"oc":623,"py":624,"\u0120on":625,"\u0120x":626,"rint":627,"ff":628,"bo":629,"pon":630,"\u0120par":631,"\u0120*":632,"\u0120__":633,"\u0120set":634,"=\"":635,"\u0120that":636,"pre":637,"rent":638,"\u0120this":639,"unt":640,"if":641,"\u0120E":642,"\u0120assert":643,"sp":644,"\u0120ra":645,"cess":646,"fa":647,"\u0120N":648,"roup":649,"low":650,"ger":651,"ip":652,"ctor":653,"\u0120it":654,"ind":655,"version":656,"late":657,"ES":658,"\u0120W":659,").":660,"\u0120from":661,"\u0120use":662,"\u0120('":663,"atch":664,"db":665,"field":666,"dir":667,"ms":668,"tp":669,"user":670,"ne":671,"\u0120`":672,"ponse":673,"param":674,"ac":675,"\u0120True":676,"jo":677,"\u0120<":678,"vice":679,"AT":680,"\u0120pa":681,"cept":682,"om":683,"error":684,"..":685,"\u0120B":686,"IT":687,"ore":688,"ca":689,"scri":690,"\u0120\u0120\u0120\u0120\u0120\u0120\u0120\u0120\u0120\u0120\u0120\u0120\u0120\u0120\u0120\u0120\u0120\u0120\u0120\u0120\u0120\u0120\u0120":691,"\u0120ch":692,"\u01203":693,"wa":694,"\u0120en":695,"ader":696,"\u0120wh":697,"ary":698,"\u0120os":699,"uth":700,"os":701,"AR":702,"dex":703,"\u0120The":704,"icense":705,"thod":706,"\u0120)":707,"ild":708,"ber":709,"port":710,"und":711,"\u0120by":712,"append":713,"dd":714,"\u0120\u0120\u0120\u0120\u0120\u0120\u0120\u0120\u0120\u0120\u0120\u0120\u0120\u0120\u0120\u0120\u0120\u0120\u0120\u0120\u0120\u0120\u0120\u0120":715,"01":716,"\u0120False":717,"========":718,"\u0120@":719,"log":720,"read":721,"//":722,"\u0120U":723,"lay":724,"\u0120al":725,"ener":726,"\u0120{'":727,"Con":728,"__(":729,"\u0120result":730,"\u0120out":731,"\u0120at":732,"ument":733,"\u0120>":734,"\u0120raise":735,"ou":736,"\u0120type":737,"son":738,"ok":739,"----------------":740,"ock":741,"ir":742,"tent":743,"\u0120License":744,"################":745,"\u0120}":746,"ator":747,"object":748,"tes":749,"ml":750,"qui":751,"lient":752,"\u0120we":753,"OR":754,"\u0120\u0120\u0120\u0120\u0120\u0120":755,"EN":756,"'),":757,"Test":758,"ans":759,"temp":760,"col":761,"ings":762,"\u0120list":763,"iz":764,"ds":765,"dict":766,"ave":767,"ray":768,"ther":769,"info":770,"ill":771,"jang":772,"False":773,"init":774,"min":775,"ab":776,"pp":777,"jango":778,"tic":779,"ask":780,"\u0120k":781,"ssage":782,"ded":783,"\u0120Re":784,"\u0120mode":785,"stri":786,"\u0120len":787,"\u0120key":788,"\u0120print":789,"vent":790,"lib":791,"Field":792,"ces":793,"update":794,"():":795,"ception":796,"ph":797,"\u0120V":798,"\u0120R":799,"\u0120l":800,"rite":801,"valid":802,"ec":803,"\u0120log":804,"\u0120are":805,"ample":806,"ize":807,"mmand":808,"atus":809,"ust":810,"tions":811,"''":812,"unction":813,"count":814,"ant":815,"\u0120except":816,"([":817,"fe":818,"config":819,"format":820,"heck":821,"\u0120default":822,"\u0120try":823,"no":824,"\u0120\u0120\u0120\u0120\u0120\u0120\u0120\u0120\u0120":825,"ses":826,"size":827,"gra":828,"ext":829,"ren":830,"uld":831,"ler":832,"\u0120cl":833,"ree":834,"mage":835,"lock":836,"module":837,"\u0120time":838,"SE":839,"ari":840,"sor":841,"load":842,"\u0120user":843,"lif":844,"tive":845,"\u0120la":846,"ape":847,"instance":848,"ters":849,"ST":850,"cal":851,"comp":852,"uti":853,"den":854,"mb":855,"join":856,"default":857,"json":858,"his":859,"row":860,"AN":861,"thon":862,"cur":863,"work":864,"[\"":865,"\u0120module":866,"base":867,"\u0120H":868,".__":869,"gin":870,"\u0120np":871,"\u0120pre":872,"\u0120new":873,"\u0120can":874,"models":875,"ght":876,"scription":877,"fields":878,"state":879,"group":880,"AL":881,"ute":882,"\"]":883,"ll":884,"tain":885,"://":886,"ag":887,"\u0120field":888,"ost":889,"wargs":890,"own":891,"main":892,"umber":893,"im":894,"'}":895,"back":896,"opy":897,"\u0120will":898,"create":899,"server":900,"RE":901,"\u0120no":902,"\u0120elif":903,"LE":904,"bel":905,"\u0120[]":906,"\u01204":907,"pen":908,"\u0120sho":909,"ume":910,"\u0120do":911,"node":912,"gn":913,"arget":914,"form":915,"com":916,"UT":917,"\u0120path":918,"ome":919,"du":920,"ery":921,"())":922,"cor":923,"ress":924,"\u0120he":925,"sub":926,"sed":927,"og":928,"tial":929,"start":930,"max":931,"gth":932,"tribu":933,"TI":934,"attr":935,"\u0120option":936,"fic":937,"ard":938,"\u0120object":939,"Ex":940,"\u0120This":941,"10":942,"'],":943,"ated":944,"request":945,"\u0120request":946,"alue":947,"gument":948,"\u0120pass":949,"iv":950,"****":951,"\u0120comp":952,"nd":953,"\u0120{}":954,"run":955,"ity":956,"ww":957,"Pro":958,"\u0120In":959,"\u0120all":960,"\u0120+=":961,"da":962,"orm":963,"pi":964,"\u0120has":965,"ken":966,"string":967,"\u0120sys":968,"word":969,"item":970,"ial":971,"\u0120If":972,"].":973,"\u0120sh":974,"by":975,"right":976,"\u0120**":977,"\u0120col":978,"net":979,"\u0120sup":980,"ull":981,"\u0120version":982,"|>":983,"endof":984,"<|":985,"endoffile":986,"(),":987,"with":988,"\u0120sub":989,"ject":990,"ware":991,"ign":992,"ight":993,".\"\"\"":994,"lit":995,"write":996,"http":997,"pected":998,"\u0120line":999,"\u0120spec":1000,"ound":1001,"arch":1002,"\u0120ac":1003,"arn":1004,"ID":1005,"result":1006,"md":1007,"\u0120['":1008,"lement":1009,"check":1010,"loat":1011,"\u0120add":1012,"view":1013,"index":1014,"\u0120config":1015,"\u0120\\":1016,"quired":1017,"Name":1018,"Type":1019,"ory":1020,"St":1021,"we":1022,"12":1023,"umn":1024,"\u0120py":1025,"sing":1026,"django":1027,"ctory":1028,"host":1029,"fix":1030,"\u0120cur":1031,"nection":1032,"Co":1033,"lace":1034,"ME":1035,"query":1036,"ts":1037,"lu":1038,"\u0120po":1039,"ark":1040,"ies":1041,"\u0120should":1042,"\u0120check":1043,"tle":1044,"ron":1045,"\u0120output":1046,"stribu":1047,"\u0120[],":1048,"\u0120per":1049,"\u0120node":1050,"return":1051,"\u0120class":1052,"\u0120le":1053,"tern":1054,"context":1055,"auth":1056,"params":1057,"link":1058,"\u01205":1059,"\u0120context":1060,"\u0120fa":1061,"\u0120response":1062,"obj":1063,"Ke":1064,"sent":1065,"yn":1066,"status":1067,"mit":1068,"\u0120app":1069,"ude":1070,"\u0120!":1071,"32":1072,"reg":1073,"\u0120string":1074,"sible":1075,"led":1076,"\u0120bu":1077,"DE":1078,"ps":1079,"\u0120ro":1080,"array":1081,"tings":1082,"\u0120url":1083,"client":1084,"\u0120state":1085,"parse":1086,"AS":1087,"template":1088,"title":1089,"\u0120!=":1090,"\u0120error":1091,"ee":1092,"kwargs":1093,"utils":1094,"api":1095,"ations":1096,"va":1097,"\u0120\u0120\u0120\u0120\u0120\u0120\u0120\u0120\u0120\u0120\u0120\u0120\u0120\u0120\u0120\u0120\u0120\u0120\u0120\u0120\u0120\u0120\u0120\u0120\u0120\u0120\u0120":1098,"mail":1099,"\u0120int":1100,"oft":1101,"\u0120method":1102,"unc":1103,"map":1104,"ann":1105,"Ch":1106,">>":1107,"De":1108,"ime":1109,"method":1110,"tra":1111,"ttp":1112,"rame":1113,"vel":1114,"move":1115,"\u0120create":1116,"'])":1117,"\u0120/":1118,"RO":1119,"service":1120,"ding":1121,"message":1122,"ers":1123,"ariable":1124,"IC":1125,"ix":1126,"input":1127,"Key":1128,"model":1129,"lete":1130,"ulti":1131,"\u0120function":1132,"\u0120li":1133,"\u0120have":1134,"rep":1135,"().":1136,"``":1137,"'t":1138,"ine":1139,"try":1140,"table":1141,"\u0120args":1142,"ite":1143,"output":1144,"\u0120run":1145,"man":1146,"clo":1147,"mis":1148,"use":1149,"ich":1150,"rect":1151,"length":1152,"bug":1153,"response":1154,"ref":1155,"ash":1156,"new":1157,"ak":1158,"\u0120under":1159,"ublic":1160,"do":1161,"UR":1162,"================":1163,"\u0120item":1164,"\u0120\u010d\u010a":1165,"ally":1166,"64":1167,"rc":1168,"fil":1169,"sg":1170,"sta":1171,"label":1172,"perty":1173,"File":1174,"\u0120dict":1175,"andler":1176,"ax":1177,"ong":1178,"ach":1179,"'s":1180,"\u0120you":1181,"urse":1182,"inter":1183,"\u0120message":1184,"shape":1185,"\u0120used":1186,"ay":1187,"split":1188,"org":1189,"\u0120z":1190,"\u0120instance":1191,"AC":1192,"call":1193,"\u0120description":1194,"action":1195,"\u0120ne":1196,"\u0120input":1197,"oftware":1198,"lan":1199,"lob":1200,"\u0120isinstance":1201,"ran":1202,"doc":1203,"lean":1204,"((":1205,"pace":1206,"names":1207,"'):":1208,"\u0120Ex":1209,"msg":1210,"loc":1211,"ET":1212,"ved":1213,"content":1214,"\u0120``":1215,"\u0120wor":1216,"\u0109\u0109\u0109":1217,"0000":1218,"ream":1219,"Set":1220,"lect":1221,"ual":1222,"\u0120copy":1223,"\u0120Q":1224,"ting":1225,"'.":1226,"ody":1227,"sign":1228,"\u0120any":1229,"</":1230,"\u0120id":1231,"rans":1232,"point":1233,"uto":1234,"sions":1235,"sys":1236,"\u0120base":1237,"\u0120speci":1238,"rap":1239,"core":1240,"UL":1241,"lines":1242,"cre":1243,"elp":1244,"andom":1245,"Res":1246,"\u0120text":1247,"Par":1248,"11":1249,"\u0120mo":1250,"\u0120bo":1251,"fied":1252,"\u0120j":1253,"be":1254,"\u0120model":1255,"\u0120su":1256,"IL":1257,"AB":1258,"\u0120|":1259,"25":1260,"\u0120\u0120\u0120\u0120\u0120\u0120\u0120\u0120\u0120\u0120\u0120\u0120":1261,"html":1262,"num":1263,"'))":1264,"cs":1265,"tribute":1266,"pri":1267,"\u0120AN":1268,"ED":1269,"ci":1270,"\u0120values":1271,"\u0120other":1272,"lat":1273,"\u0120code":1274,"\u0120but":1275,"bs":1276,"\u0120.":1277,"ises":1278,"\"),":1279,"\u0120'''":1280,"\u0120Test":1281,"ING":1282,"ameters":1283,"\u0120which":1284,"arg":1285,"\u0120max":1286,"\u0120start":1287,"ner":1288,"aders":1289,"\u0120date":1290,"\u0120range":1291,"\u0120>>>":1292,"print":1293,"\u0120http":1294,"\u0120required":1295,"IS":1296,"its":1297,"ging":1298,"tring":1299,"sk":1300,"\u0120number":1301,"\u0120expected":1302,"su":1303,"var":1304,"men":1305,"spec":1306,"\u0120doc":1307,"ep":1308,"source":1309,"\u0120X":1310,"types":1311,"ION":1312,"CH":1313,"pack":1314,"process":1315,"...":1316,"\u0120source":1317,"\u0120call":1318,"################################":1319,"\u0120match":1320,"\u0120one":1321,"\u0120distribu":1322,"itial":1323,"--------------------------------":1324,"\u0120command":1325,"options":1326,"\u0120Con":1327,"uple":1328,"image":1329,"\u0120when":1330,"ager":1331,"ops":1332,"not":1333,"tin":1334,"tro":1335,"tensor":1336,"alueError":1337,"Data":1338,"uct":1339,"change":1340,"ties":1341,"ature":1342,"ump":1343,"\u0120may":1344,"[:":1345,"values":1346,"\u0120\u0120\u0120\u0120\u0120\u0120\u0120\u0120\u0120\u0120\u0120\u0120\u0120":1347,"Un":1348,"clude":1349,"lection":1350,"\u0120end":1351,"lable":1352,"command":1353,"AG":1354,"\u0120param":1355,"bin":1356,"\u0120tra":1357,"lugin":1358,"\u0120current":1359,"\u0120Return":1360,"idth":1361,"ids":1362,"NU":1363,"\u0120Gener":1364,"\u0120Y":1365,"ors":1366,"'}),":1367,"cted":1368,"trans":1369,"20":1370,"ENT":1371,"pass":1372,"objects":1373,"face":1374,"AP":1375,"indow":1376,"\u0120open":1377,"match":1378,"orted":1379,"\u0120vi":1380,"conn":1381,"\u0120host":1382,"np":1383,"ols":1384,"MP":1385,"block":1386,"page":1387,"filter":1388,"\u0120ad":1389,"ld":1390,"\u0120msg":1391,"\u0120contain":1392,"olume":1393,"open":1394,"foo":1395,"List":1396,"comm":1397,"python":1398,"lot":1399,"andle":1400,"rectory":1401,"\u0120so":1402,"entry":1403,"ures":1404,"ste":1405,"cri":1406,"Mode":1407,"ion":1408,"equal":1409,"ft":1410,"Case":1411,"][":1412,"err":1413,"\u012010":1414,"event":1415,"ments":1416,"\u0120format":1417,"filename":1418,"IG":1419,"\u0120argument":1420,"})":1421,"CO":1422,"\u0120group":1423,"LO":1424,"adata":1425,"\u0120up":1426,"\u0120reg":1427,"\u0120only":1428,"token":1429,"trol":1430,"To":1431,"tail":1432,"\u0120must":1433,"HO":1434,"are":1435,"target":1436,"iven":1437,"\u0120exp":1438,"\u0120mock":1439,"\u0120\u0120\u0120\u0120\u010d\u010a":1440,"TT":1441,"stant":1442,"uid":1443,"uration":1444,"\u0120index":1445,"irst":1446,"\u01206":1447,"\u0120change":1448,"idget":1449,"quen":1450,"flow":1451,"teger":1452,"Get":1453,"\u0120target":1454,"Fa":1455,"exp":1456,"PO":1457,"Ra":1458,"close":1459,"\u0120obj":1460,"\u0120ver":1461,"\u0120fields":1462,"\u0120update":1463,"float":1464,"the":1465,"\u0120event":1466,"so":1467,"feren":1468,"license":1469,"www":1470,"\u0120super":1471,"tag":1472,"Di":1473,"\u0120]":1474,"ns":1475,"emp":1476,"option":1477,"\u0120server":1478,"99":1479,"000":1480,"ify":1481,"\u0120OR":1482,"Ser":1483,"ateg":1484,"\".":1485,"\u0120options":1486,"cord":1487,"mbda":1488,"serial":1489,"\u0120content":1490,"func":1491,"ain":1492,"store":1493,"::":1494,"\u0120gener":1495,"OT":1496,"viron":1497,"ists":1498,"root":1499,"ess":1500,"my":1501,"},":1502,"oo":1503,"icode":1504,"Time":1505,"uage":1506,"\u0120size":1507,"AD":1508,"\u0120An":1509,"=[":1510,"\u0120files":1511,"order":1512,"mark":1513,"bi":1514,"\u0120\u0120\u0120\u0120\u0120\u0120\u0120\u0120\u0120\u0120":1515,"16":1516,"exec":1517,"ync":1518,"(_":1519,"rt":1520,"find":1521,"********":1522,"anguage":1523,"\u0120read":1524,"\u0120image":1525,"mary":1526,"TY":1527,"\u0120--":1528,"\u0120ca":1529,"\u0120See":1530,"fail":1531,"cy":1532,"debug":1533,"tity":1534,"\u0120action":1535,"\u0120array":1536,"eta":1537,"\u0120valid":1538,"PE":1539,"cache":1540,"sition":1541,"keys":1542,"\u0120django":1543,"project":1544,"task":1545,"\u0120inter":1546,"session":1547,"\u0120->":1548,"\u0120De":1549,"utf":1550,"any":1551,"Se":1552,"\u0120cal":1553,"annel":1554,"\u0120help":1555,"\u0120models":1556,"rid":1557,"ql":1558,"inal":1559,"mock":1560,"tadata":1561,"DO":1562,"vo":1563,"dit":1564,"lobal":1565,"Po":1566,"iled":1567,"ton":1568,"fy":1569,"En":1570,"delete":1571,"\u0120Public":1572,"layer":1573,"\u0120GNU":1574,"gram":1575,"\u0120201":1576,"files":1577,"\u0120ext":1578,"function":1579,"ccess":1580,"duct":1581,"ESS":1582,"\u0120General":1583,"\u0120given":1584,"raw":1585,"HE":1586,"\u0120distributed":1587,"ither":1588,"\u0120},":1589,"izer":1590,"here":1591,"bar":1592,"\u0120min":1593,"xy":1594,"ath":1595,"\u0120does":1596,"old":1597,"settings":1598,"otal":1599,"\u0120work":1600,"\u0120ag":1601,"ning":1602,"ell":1603,"\u0120trans":1604,"Up":1605,")))":1606,"build":1607,"\u0109\u0109\u0109\u0109":1608,"search":1609,"\u0120\u0120\u0120\u0120\u0120\u0120\u0120\u0120\u010d\u010a":1610,"items":1611,"lated":1612,"\u0120first":1613,"property":1614,"\u0120op":1615,"\u0120db":1616,"\u01208":1617,"Ar":1618,"\u0120more":1619,"TestCase":1620,"RAN":1621,"\u0120imp":1622,"\u0120'%":1623,"\u0120auth":1624,"\u0120OF":1625,"\u0120client":1626,"env":1627,"older":1628,"\u0120provi":1629,"\u0120K":1630,"\u0120ValueError":1631,"rate":1632,"TER":1633,"opyright":1634,"fore":1635,"ffer":1636,"pos":1637,"\u0120names":1638,"\\\\":1639,"\u0120Py":1640,"\u0120\u0120\u0120\u0120\u0120\u0120\u0120\u0120\u0120\u0120\u0120\u0120\u0120\u0120\u0120\u0120\u0120\u0120\u0120\u0120\u0120\u0120\u0120\u0120\u0120\u0120\u0120\u0120\u0120\u0120\u0120":1641,"\u0120J":1642,"\u0120\u0120\u0120\u0120\u0120\u0120\u0120\u0120\u0120\u0120\u0120\u0120\u0120\u0120":1643,"script":1644,"ocket":1645,"mber":1646,"df":1647,"lease":1648,"over":1649,"04":1650,"parent":1651,"sum":1652,"Value":1653,"\u0120query":1654,"device":1655,"cmd":1656,"assertTrue":1657,"Base":1658,"\u0120port":1659,"coding":1660,"mation":1661,"*-":1662,"how":1663,"splay":1664,"\u0120back":1665,"pect":1666,"ration":1667,"cr":1668,"\u0120fil":1669,"off":1670,"\u0120IN":1671,"course":1672,"\u0120q":1673,"\u0120label":1674,"exten":1675,"rix":1676,"\u0120Returns":1677,"String":1678,"tributes":1679,"\u0120parser":1680,"resource":1681,"description":1682,"fir":1683,"\u0120json":1684,"Model":1685,"\u0120params":1686,"network":1687,"dition":1688,"ML":1689,"ameter":1690,"ote":1691,"fter":1692,"\u0120ANY":1693,"copy":1694,"~~":1695,"range":1696,"Char":1697,"etwork":1698,"CON":1699,"\u0120token":1700,"current":1701,"\u0120logging":1702,"\u0120(\"":1703,":`":1704,"arning":1705,"\u0120-*-":1706,"local":1707,"util":1708,"licy":1709,"CT":1710,"sa":1711,"column":1712,"lish":1713,"queue":1714,"\u0120\u0120\u0120\u0120\u0120\u0120\u0120\u0120\u0120\u0120\u0120\u0120\u0120\u0120\u0120\u0120\u0120":1715,"abled":1716,"address":1717,"fla":1718,"\u0120Copyright":1719,"\u0120part":1720,"\u0120num":1721,"Id":1722,"201":1723,"ast":1724,"amples":1725,"\u0120gra":1726,"({":1727,"\u0120table":1728,"Raises":1729,"Not":1730,"lied":1731,"cript":1732,"post":1733,"onent":1734,"ittest":1735,"iter":1736,"ven":1737,"\u0120\u0120\u0120\u0120\u0120\u0120\u0120\u0120\u0120\u0120\u0120\u0120\u0120\u0120\u0120\u0120\u0120\u0120\u0120\u0120\u0120":1738,"Text":1739,"ui":1740,"umpy":1741,"34":1742,"\u0120Un":1743,"\u0120row":1744,"lank":1745,"\u0120over":1746,"child":1747,"24":1748,"EX":1749,")]":1750,"\u0120CON":1751,"={":1752,"yle":1753,"lication":1754,"present":1755,"ister":1756,"\u0120page":1757,"\u0120either":1758,"15":1759,"\u0120form":1760,"US":1761,"ped":1762,"\u0120using":1763,"unk":1764,"box":1765,"ched":1766,"vai":1767,"EST":1768,"tinue":1769,"graph":1770,"argument":1771,"reak":1772,"\u0120rep":1773,"ormal":1774,"TTP":1775,"assertRaises":1776,"\u0120fe":1777,"frame":1778,"ice":1779,"xml":1780,"\u0120make":1781,"ful":1782,"ference":1783,"ous":1784,"30":1785,"attern":1786,"\u0120block":1787,"Col":1788,"ized":1789,"cls":1790,"Exception":1791,"\u0120'/":1792,"\u0120WAR":1793,"AME":1794,"replace":1795,"exception":1796,"\u0120val":1797,"top":1798,"lation":1799,"dent":1800,"vert":1801,"\u0120variable":1802,"\u0120filename":1803,"TR":1804,"ats":1805,"level":1806,"\u0120Co":1807,"\u0120arg":1808,"DI":1809,"\u0120parent":1810,"\u0120status":1811,"sup":1812,"\u0120connection":1813,"UN":1814,"ud":1815,"asses":1816,"ternal":1817,"\u0120each":1818,"strip":1819,"ATE":1820,"ollow":1821,"\u0120order":1822,"Return":1823,"ates":1824,"\u0120oper":1825,"\u0120while":1826,"\u0120task":1827,"ick":1828,"\u0120WIT":1829,"river":1830,"tiv":1831,"stra":1832,"trib":1833,"\u0120cls":1834,"\u0120software":1835,"\u0120pri":1836,"\u0120pack":1837,"\u0120\u0120\u0120\u0120\u0120\u0120\u0120\u0120\u0120\u0120\u0120\u0120\u0120\u0120\u0120\u0120\u0120\u0120\u0120\u0120\u0120\u0120\u0120\u0120\u0120":1838,"make":1839,"User":1840,"\u0120results":1841,"\u01207":1842,"\u0120kwargs":1843,"cer":1844,"\u0120found":1845,"\u0120uid":1846,"\u0120sa":1847,"\u0120\u0120\u0120\u0120\u0120\u0120\u0120\u0120\u0120\u0120\u0120\u0120\u0120\u0120\u0120\u0120\u0120\u0120":1848,"\u0120element":1849,"\u0120WARRAN":1850,"uture":1851,"tails":1852,"last":1853,"save":1854,"\u0120float":1855,"ive":1856,"\u0120need":1857,"ating":1858,"ake":1859,"resh":1860,"password":1861,"\u0120You":1862,"ont":1863,")),":1864,"prefix":1865,"FI":1866,"less":1867,"\u0120Ar":1868,"\u0120cor":1869,"\u0120\u0120\u0120\u0120\u0120\u0120\u0120\u0120\u0120\u0120\u0120\u0120\u0120\u0120\u0120\u0120\u0120\u0120\u0120\u0120":1870,"pk":1871,"datetime":1872,"\u0120tensor":1873,"Add":1874,"lity":1875,"\u0120exception":1876,"\u0120template":1877,"down":1878,"dout":1879,"ublish":1880,"swith":1881,"ustom":1882,"','":1883,"\u0120into":1884,"ization":1885,"fier":1886,"\u0120char":1887,"cope":1888,"rou":1889,"Config":1890,"email":1891,"').":1892,"cp":1893,"ITY":1894,"sy":1895,"ique":1896,"body":1897,"\u0120without":1898,"\u0120resource":1899,"orage":1900,"pache":1901,"\u0120continue":1902,"chema":1903,"conf":1904,"mon":1905,"ie":1906,"Cl":1907,"tific":1908,"\u0120see":1909,"For":1910,"connection":1911,"has":1912,"\u0120dtype":1913,"patch":1914,"\"))":1915,"pop":1916,"go":1917,"14":1918,"sets":1919,"IP":1920,"igh":1921,"50":1922,"number":1923,"job":1924,"\u0120inst":1925,"\u0120cmd":1926,"verse":1927,"meta":1928,"\u0120200":1929,"vailable":1930,"ticle":1931,"gener":1932,"\u0120dis":1933,"The":1934,".,":1935,"\u0120datetime":1936,"\u0120case":1937,"\u0120ter":1938,"22":1939,"\u0120was":1940,"connect":1941,"char":1942,"Vi":1943,"now":1944,"CharField":1945,"quence":1946,"admin":1947,"OP":1948,"\u0120modi":1949,"\u0120ax":1950,"lt":1951,"18":1952,"\u0120Exception":1953,"[-":1954,"PI":1955,"atures":1956,"\u0120yield":1957,"MA":1958,"Object":1959,"\u0120device":1960,"\u0120'\\":1961,"LI":1962,"\u0120'.":1963,"Request":1964,"remove":1965,"ersion":1966,"mt":1967,"dis":1968,"width":1969,"\u0120attr":1970,"send":1971,"wo":1972,"formation":1973,"\">":1974,"\u0120sign":1975,"other":1976,"No":1977,"FA":1978,"\u0120specified":1979,"\u0120dest":1980,"200":1981,"\u0120some":1982,"\u0120process":1983,"account":1984,"\u0120Pro":1985,"\u0120directory":1986,"deo":1987,"]:":1988,"\u0120tuple":1989,"At":1990,"\u0120last":1991,"bose":1992,"ined":1993,"av":1994,"latform":1995,"\u0120sp":1996,"uster":1997,"'''":1998,"\u0120[\"":1999,"\u0120man":2000,"\u0120sy":2001,"mote":2002,"Bo":2003,"stream":2004,"\u0120settings":2005,"\u0120tag":2006,"\u0120diff":2007,"\u0120lib":2008,"ultip":2009,"\u0120allow":2010,"\u0120shape":2011,"\u0120service":2012,"sen":2013,"header":2014,"\u0120ses":2015,"19":2016,"\u0120build":2017,"ression":2018,"\u0120\u0120\u0120\u0120\u0120\u0120\u0120\u0120\u0120\u0120\u0120\u0120\u0120\u0120\u0120\u0120\u0120\u0120\u0120\u0120\u0120\u0120":2019,"domain":2020,"ush":2021,"'\\":2022,"33":2023,"\u0120extra":2024,"\u0120exec":2025,"random":2026,"\u0120same":2027,"dtype":2028,"gh":2029,"\u0120wri":2030,"Node":2031,"site":2032,"ord":2033,"cond":2034,"Path":2035,"tocol":2036,"100":2037,"fn":2038,"\u0120returned":2039,"\u0120column":2040,"src":2041,"\u0120exist":2042,"pc":2043,"gen":2044,"cle":2045,"\u0120limit":2046,"\u0120ge":2047,"inst":2048,"\u0120then":2049,"req":2050,"VER":2051,"io":2052,"part":2053,"sit":2054,"Me":2055,"\u0120main":2056,"expected":2057,"ative":2058,"\u0120\"%":2059,"licenses":2060,"\u0120follow":2061,"utton":2062,"nown":2063,"show":2064,"\u0120info":2065,"distribu":2066,"location":2067,"\u0120mark":2068,"\u0120For":2069,"ride":2070,"\u0120We":2071,"element":2072,"wait":2073,"mission":2074,"\u0120document":2075,"ib":2076,"ogle":2077,"\u0120your":2078,"\u0120pos":2079,"rary":2080,"zer":2081,"vision":2082,"\u0120load":2083,"wer":2084,"struct":2085,"aster":2086,"\u0120fla":2087,"\u0120specific":2088,"system":2089,"02":2090,"\u0120St":2091,"cale":2092,"13":2093,"FF":2094,"stamp":2095,"\u0120break":2096,"thing":2097,"\u0120''":2098,"next":2099,"\u0120session":2100,"\u0120course":2101,"parser":2102,"\u0120ret":2103,"\u0120Python":2104,"ometry":2105,"ution":2106,"CE":2107,"\u0120project":2108,"'].":2109,"compile":2110,"essage":2111,"blank":2112,"']['":2113,"IO":2114,"\u0120temp":2115,"HOUT":2116,"\u0120child":2117,"cket":2118,"only":2119,"extra":2120,"abs":2121,"etch":2122,"vm":2123,"\u0120python":2124,"related":2125,"direct":2126,"ices":2127,"cho":2128,"volume":2129,"stack":2130,"als":2131,"\u0120Software":2132,"exists":2133,"\u0120del":2134,"TION":2135,"uri":2136,"gex":2137,"\u0120err":2138,"nodes":2139,"clu":2140,"pool":2141,"NAME":2142,"\u0120root":2143,"\u0120WITHOUT":2144,"rule":2145,"future":2146,"headers":2147,"null":2148,"Lo":2149,"\u0120Par":2150,"\u0120body":2151,"(*":2152,"metadata":2153,"fault":2154,"\u0120uti":2155,"perties":2156,"username":2157,"hash":2158,"exit":2159,"ular":2160,"\u0120link":2161,"\u0120local":2162,"assi":2163,"can":2164,"\u0120IS":2165,"80":2166,"ctionary":2167,"ready":2168,"first":2169,"tests":2170,"fs":2171,".\"":2172,"('/":2173,"\u0120),":2174,"dia":2175,"56":2176,"missions":2177,"AM":2178,"ategory":2179,"\u0120ab":2180,"\u0120conn":2181,"UP":2182,"\u0120point":2183,"\u0120tf":2184,"color":2185,"Item":2186,"\u0120si":2187,"ceiv":2188,"ear":2189,"\u0120&":2190,"\u0120count":2191,"\u0120map":2192,"\u0120TO":2193,"\u0120loc":2194,"Is":2195,"\u0120mat":2196,"\u0120header":2197,"\u0120implied":2198,"\u0120find":2199,"handler":2200,"tx":2201,"cli":2202,"\"):":2203,"txt":2204,"del":2205,"\u0120program":2206,"mpty":2207,"\u0120...":2208,"\u0120logger":2209,"results":2210,"fg":2211,"\u0120qu":2212,"fer":2213,"\u0120\u0120\u0120\u0120\u0120\u0120\u0120\u0120\u0120\u0120\u0120\u0120\u0120\u0120\u0120\u0120\u0120\u0120\u0120\u0120\u0120\u0120\u0120\u0120\u0120\u0120\u0120\u0120":2214,"\u01209":2215,"elper":2216,"\u0120numpy":2217,"round":2218,"dic":2219,"okup":2220,"denti":2221,"\u0120{\"":2222,"required":2223,"ported":2224,"`.":2225,"\u0120headers":2226,"Response":2227,"ights":2228,"\u0120here":2229,"Log":2230,"88":2231,"quire":2232,"author":2233,"wh":2234,"\u0120\u0120\u0120\u0120\u0120\u0120\u0120\u0120\u0120\u0120\u0120\u0120\u0120\u0120\u0120\u0120\u0120\u0120\u0120\u0120\u0120\u0120\u0120\u0120\u0120\u0120":2235,"CL":2236,"\u0120next":2237,"true":2238,"]]":2239,"changed":2240,"\u0120comm":2241,"\u0120parse":2242,"\u0120write":2243,"derr":2244,"static":2245,"\u0120password":2246,"\u0120>=":2247,"Bu":2248,")):":2249,"\u0120entry":2250,"SI":2251,"\u0120random":2252,"cen":2253,"\u0120orig":2254,"ILITY":2255,"lower":2256,"================================":2257,"\u0120non":2258,"55":2259,"ULT":2260,"\u0120title":2261,"\u0120ob":2262,"mod":2263,"\"],":2264,"\u0120language":2265,"Date":2266,"les":2267,"\u0120opt":2268,"\u0120old":2269,"plot":2270,"\u0120support":2271,"\u0120view":2272,"cc":2273,"\u0120cho":2274,"stop":2275,"tree":2276,"nap":2277,"plugin":2278,"side":2279,"tmp":2280,"ish":2281,"\u0120details":2282,"web":2283,"common":2284,"gine":2285,"{}":2286,"encode":2287,"\u0120lambda":2288,"environ":2289,"\u0120clo":2290,"train":2291,"\u0120initial":2292,"variable":2293,"17":2294,"\u0120off":2295,"03":2296,"\u0120after":2297,"stru":2298,"\u0120'-":2299,"\u0120filter":2300,"package":2301,"\u0120late":2302,"KE":2303,"asic":2304,"TH":2305,"execute":2306,"\u0120act":2307,"tools":2308,"act":2309,"timeout":2310,"manager":2311,"rs":2312,"wit":2313,"\u0120tests":2314,"ceived":2315,"xx":2316,"uuid":2317,"\u0120there":2318,"\u0120thread":2319,"\u0120where":2320,"]))":2321,"\u0120sample":2322,"']:":2323,"dev":2324,"Group":2325,"ini":2326,"ker":2327,"Dict":2328,"Info":2329,"All":2330,"ng":2331,"\u0120THE":2332,"Module":2333,"\u0120lines":2334,"eval":2335,"URL":2336,"batch":2337,"\u0120package":2338,"\u0120sk":2339,"select":2340,"\u0120Get":2341,"\u0120objects":2342,"very":2343,"rec":2344,"usr":2345,"\u0120fail":2346,"\u0120right":2347,"ingle":2348,"\u0120FOR":2349,"let":2350,"View":2351,"mi":2352,"sis":2353,"=(":2354,"\u0120com":2355,"bytes":2356,"\u0120arguments":2357,"\u0120than":2358,"auto":2359,"\u0120network":2360,"zone":2361,"\u0120Ansible":2362,".\")":2363,"RL":2364,"Create":2365,"gr":2366,"Handler":2367,"section":2368,"channel":2369,"\u0120address":2370,"\u0120cache":2371,"\u0120go":2372,"ensor":2373,"\u0120parameters":2374,"Out":2375,"=%":2376,"\u0120\u0120\u0120\u0120\u0120\u0120\u0120\u0120\u0120\u0120\u0120\u0120\u0120\u0120\u0120\u0120\u0120\u0120\u0120\u0120\u0120\u0120\u0120\u0120\u0120\u0120\u0120\u0120\u0120\u0120\u0120\u0120\u0120\u0120\u0120":2377,"Man":2378,"\u0120Set":2379,".')":2380,"\u012012":2381,"oreign":2382,"tim":2383,"startswith":2384,"alid":2385,"contain":2386,"play":2387,"setup":2388,"groups":2389,"ABILITY":2390,"Check":2391,"active":2392,"Message":2393,"\u0120its":2394,"ason":2395,"dices":2396,"register":2397,"\u0120true":2398,"\u0120getattr":2399,"ias":2400,"\u0120information":2401,"ALL":2402,"SS":2403,"dump":2404,"mented":2405,"Element":2406,"\u0120..":2407,"Run":2408,"comple":2409,"book":2410,"lambda":2411,"\u0120bin":2412,"Comp":2413,"\u0120exten":2414,"rapper":2415,"\u0120before":2416,"ink":2417,"TYPE":2418,"\u0120attribute":2419,"\u0120Create":2420,"State":2421,"shot":2422,"_(":2423,"\u0120ho":2424,"\u0120Check":2425,"style":2426,"her":2427,"ait":2428,"vider":2429,"\u0120Found":2430,"\u0120req":2431,"space":2432,"\u0120rule":2433,"dest":2434,"TE":2435,"ultiple":2436,"profile":2437,"tep":2438,"ries":2439,"\u0120env":2440,"Al":2441,"(?":2442,"access":2443,"]),":2444,"\u0120imple":2445,"Class":2446,"\u0120length":2447,"---":2448,"\u0120cre":2449,"\u0120show":2450,"thread":2451,"mory":2452,"logger":2453,"step":2454,"\u0120Add":2455,"\u0120fin":2456,"OF":2457,"oding":2458,"ling":2459,"\u0120timeout":2460,"QU":2461,"\u0120returns":2462,"handle":2463,"\u0120\u0120\u0120\u0120\u0120\u0120\u0120\u0120\u0120\u0120\u0120\u0120\u0120\u0120\u0120\u0120\u0120\u0120\u0120\u0120\u0120\u0120\u0120\u0120\u0120\u0120\u0120\u0120\u0120":2464,"ORT":2465,"OL":2466,"https":2467,"nel":2468,"aly":2469,"imum":2470,"ha":2471,"product":2472,"\u0120errors":2473,"aa":2474,"press":2475,"\u0120ta":2476,"errors":2477,"initial":2478,"oper":2479,"\u0120search":2480,"except":2481,"\u0120global":2482,"Qu":2483,"served":2484,"olute":2485,"\u0120var":2486,"\u0120coding":2487,"36":2488,"\u0120\"\\":2489,"LIC":2490,"\u0120ren":2491,"FAULT":2492,"\u0120api":2493,"MO":2494,"assertEquals":2495,"]['":2496,"tk":2497,"example":2498,"diff":2499,"\u0120include":2500,"\u0120remove":2501,"\u0120prefix":2502,"\u0120record":2503,"\u0120utf":2504,"ENSE":2505,"\u0120ass":2506,"TO":2507,"contrib":2508,"prec":2509,"Auth":2510,"place":2511,"\u0120Type":2512,"pol":2513,"'},":2514,"\u0120'__":2515,"Event":2516,"Option":2517,"CONF":2518,"\u0120unicode":2519,"offset":2520,"Lay":2521,"86":2522,"dep":2523,"member":2524,"\u0120dep":2525,"Client":2526,"Py":2527,"\u0120Foundation":2528,"77":2529,"\u0120abs":2530,"\u0120publish":2531,"\u0120created":2532,"cent":2533,"\u0120te":2534,"bit":2535,"****************":2536,"oreignKey":2537,"\u0120Key":2538,"CHAN":2539,"ale":2540,"ators":2541,"mer":2542,"\u0120following":2543,"\u0120handle":2544,"conds":2545,"\u0120User":2546,"\u0120system":2547,"entic":2548,"\u0120'--":2549,"Size":2550,"tera":2551,"TIC":2552,"bot":2553,"App":2554,"display":2555,"\u0120changed":2556,"Per":2557,"arnings":2558,"\u0120auto":2559,"\u0120domain":2560,"HTTP":2561,"ux":2562,"\u0120top":2563,"\u0120stream":2564,"TIES":2565,"idx":2566,"PAT":2567,"By":2568,"\u0120func":2569,"wise":2570,"vars":2571,"case":2572,"lected":2573,"stdout":2574,"\u0120already":2575,"\u0120cr":2576,"tags":2577,"HT":2578,"Integer":2579,"pha":2580,"div":2581,"imal":2582,"\u0120dictionary":2583,"\u0120<=":2584,"flags":2585,"gment":2586,"\u0120been":2587,"login":2588,"(-":2589,"mask":2590,"exc":2591,"\u0120available":2592,"dio":2593,"\u0120also":2594,"\u0120\u0120\u0120\u0120\u0120\u0120\u0120\u0120\u0120\u0120\u0120\u0120\u0120\u0120\u0120\u0120\u0120\u0120\u0120\u0120\u0120\u0120\u0120\u0120\u0120\u0120\u0120\u0120\u0120\u0120":2595,"\u0120modify":2596,"\u0120parameter":2597,"ABLE":2598,"control":2599,"\u0120hasattr":2600,"termin":2601,"\u0120bool":2602,"\u0120level":2603,"\u0120comple":2604,"total":2605,"\u0120even":2606,"cts":2607,"\u0120WARRANTIES":2608,"mbol":2609,"wd":2610,"\u0120struct":2611,"\u0120free":2612,"\u0120my":2613,"ati":2614,"\u0120xml":2615,"most":2616,"59":2617,"dist":2618,"tf":2619,"\u0120provided":2620,").__":2621,"rop":2622,"ATION":2623,")[":2624,"classes":2625,"cause":2626,"EC":2627,"Th":2628,"\u0120sum":2629,"\u0120URL":2630,"\u0120%(":2631,"\u0120frame":2632,"addr":2633,"ways":2634,"napshot":2635,"IM":2636,"\u0120diffe":2637,"\u0120configuration":2638,"\u0120display":2639,"\u0120empty":2640,"\u0120resp":2641,"ical":2642,"\u0120100":2643,"\u0120Free":2644,"ctions":2645,"XX":2646,"\u0120optional":2647,"vector":2648,"\u0120post":2649,"dential":2650,"40":2651,"gate":2652,"\u0120ap":2653,"\u0120terms":2654,"ATA":2655,"An":2656,":%":2657,"assed":2658,"constant":2659,"\u0120String":2660,"Ad":2661,"ba":2662,"driver":2663,"\u0120],":2664,"bility":2665,"\"])":2666,"Form":2667,"Index":2668,"\u0120$":2669,"day":2670,"\u0120ip":2671,"full":2672,"\u0120Not":2673,"\u0120ref":2674,"Parser":2675,"limit":2676,"Factory":2677,"=['":2678,"ditional":2679,"Content":2680,"roll":2681,"This":2682,"\u0120bet":2683,"ForeignKey":2684,"Result":2685,"ient":2686,"\u0120All":2687,"QL":2688,"\u0120src":2689,"PRO":2690,"ves":2691,"(['":2692,"else":2693,"unittest":2694,"Sh":2695,"penden":2696,"\u0120iter":2697,"\u0120access":2698,"tach":2699,"component":2700,"coder":2701,"\u0120PAR":2702,"DB":2703,"\u0120unittest":2704,"\u0120ids":2705,"IND":2706,"\u0120--------":2707,"callback":2708,"He":2709,"scope":2710,"\u0120API":2711,"Sub":2712,"\u0120don":2713,"\u0120ID":2714,"\u0120full":2715,"pl":2716,"\u0120delete":2717,"\u0120tensorflow":2718,"\u0120'_":2719,"23":2720,"sv":2721,"Widget":2722,"\u0120database":2723,"60":2724,"OS":2725,"\u0120want":2726,"ward":2727,"ged":2728,"decode":2729,"\u0120single":2730,"skip":2731,"ranch":2732,"ared":2733,"\u0120dir":2734,"GET":2735,"\u0120It":2736,"ince":2737,"unit":2738,"\u0120AND":2739,"\u0120email":2740,"\u0120two":2741,"+)":2742,"\u0120script":2743,"witch":2744,"non":2745,"#!":2746,"orig":2747,"extend":2748,"sql":2749,"sample":2750,"\u0120account":2751,"used":2752,"\u0120,":2753,"\u0120encoding":2754,"cry":2755,"gress":2756,"kw":2757,"tuple":2758,"tered":2759,"\u0120later":2760,"lug":2761,"alog":2762,"ilder":2763,"Le":2764,"ric":2765,"win":2766,"Command":2767,":]":2768,"AGE":2769,"BU":2770,"/%":2771,"\u0120At":2772,"\u0120false":2773,"\u0120keys":2774,"\u0120example":2775,".*":2776,"axis":2777,"\u0120down":2778,"like":2779,"istr":2780,"\u0120called":2781,"sitive":2782,"KEY":2783,"ics":2784,"argv":2785,"policy":2786,"real":2787,"78":2788,"\u0120now":2789,"\u0120color":2790,"\u0120ansible":2791,"~~~~":2792,"vate":2793,"\u0120setup":2794,"\u0120Args":2795,"left":2796,"\u0120like":2797,"fake":2798,"\u0120obtain":2799,"\u0120hash":2800,"\u0120graph":2801,"\u0120axis":2802,"DIR":2803,"aded":2804,"fin":2805,"\u0120received":2806,"WAR":2807,"vious":2808,"EL":2809,"delta":2810,"\u0120Version":2811,"\u0120Ch":2812,"\u0120handler":2813,"\u0120geometry":2814,"\u0120total":2815,"29":2816,"na":2817,"dle":2818,"Ac":2819,"ob":2820,"window":2821,"\u0120raw":2822,"repo":2823,"\u0120send":2824,"\u0120serial":2825,"AA":2826,"\u0120No":2827,"\u0120socket":2828,"Gra":2829,"record":2830,"coun":2831,"cul":2832,"NESS":2833,"\u0120represent":2834,"chedule":2835,"Tests":2836,"okie":2837,"\u0120success":2838,"points":2839,"\u0120##":2840,"parameters":2841,"metri":2842,"hether":2843,"alled":2844,"Des":2845,"ift":2846,"\u0120useful":2847,"\u0120permissions":2848,"features":2849,"\u0120'<":2850,"UB":2851,"\u0120volume":2852,"\u0120just":2853,"\u0120\"\"":2854,"ik":2855,"emplate":2856,"MENT":2857,"\u0120types":2858,"pattern":2859,"\u0120tri":2860,"opt":2861,"'})":2862,"iddle":2863,"\u0120train":2864,"05":2865,"way":2866,"Server":2867,"\u0120items":2868,"yload":2869,"report":2870,"fit":2871,"66":2872,"til":2873,"ERR":2874,"hen":2875,"As":2876,"ULAR":2877,"attributes":2878,"tom":2879,"\u0120bytes":2880,"straint":2881,"Manager":2882,"dered":2883,"clean":2884,"entries":2885,"\u0120web":2886,"git":2887,"ween":2888,"multi":2889,"\u0120tmp":2890,"\u0120collection":2891,"stats":2892,"\u0120im":2893,"insert":2894,"ffix":2895,"unique":2896,"andard":2897,"global":2898,"\u0120Name":2899,"gg":2900,"tab":2901,"loy":2902,"POSE":2903,"\u0120constant":2904,"\u0120FIT":2905,"tml":2906,"\u0120NOT":2907,"unicode":2908,"\u0120batch":2909,"\u0120verbose":2910,"\u0120us":2911,"ERCHAN":2912,"oci":2913,"words":2914,"ERCHANT":2915,"pr":2916,"\u0120variables":2917,"zip":2918,"validate":2919,"dentifier":2920,"ek":2921,"\u0120save":2922,"27":2923,"NO":2924,"Service":2925,"brow":2926,"cat":2927,"stead":2928,"\u0120tree":2929,"\u0120metadata":2930,"FOR":2931,"position":2932,"\u0120TODO":2933,"compute":2934,"sort":2935,"URPOSE":2936,"\u0120because":2937,"bool":2938,"liance":2939,"peri":2940,"abel":2941,"\u0120FITNESS":2942,"\u0120PURPOSE":2943,"SON":2944,"\u0120PARTIC":2945,"repr":2946,"#!/":2947,"opts":2948,"sue":2949,"\u0120interface":2950,"\u0120PARTICULAR":2951,"From":2952,"\u0120',":2953,"\u0120\u0120\u0120\u0120\u0120\u0120\u0120\u0120\u0120\u0120\u0120\u0120\u0120\u0120\u0120\u0120\u0120\u0120\u0120\u0120\u0120\u0120\u0120\u0120\u0120\u0120\u0120\u0120\u0120\u0120\u0120\u0120\u0120":2954,"modules":2955,"include":2956,"Line":2957,"Str":2958,"44":2959,"Pre":2960,"Mock":2961,"\u0120math":2962,"added":2963,"ERCHANTABILITY":2964,"empty":2965,"\u0120\"/":2966,"head":2967,"gnore":2968,"interface":2969,"%(":2970,"\u0120debug":2971,"lector":2972,"gest":2973,"Input":2974,"\u0120HTTP":2975,"\u0120along":2976,"widget":2977,"\u0120attributes":2978,"IONS":2979,"\u0120\u0120\u0120\u0120\u0120\u0120\u0120\u0120\u0120\u0120\u0120\u0120\u0120\u0120\u0120\u0120\u0120\u0120\u0120\u0120\u0120\u0120\u0120\u0120\u0120\u0120\u0120\u0120\u0120\u0120\u0120\u0120\u0120\u0120":2980,"\u0120disable":2981,"primary":2982,"Meta":2983,"/>":2984,"\u0120passed":2985,"\u0120Import":2986,"\u0120ti":2987,"sport":2988,"tition":2989,"ship":2990,"dim":2991,"board":2992,"With":2993,"################################################################":2994,"PATH":2995,"vironment":2996,"platform":2997,"\u0120plugin":2998,"lative":2999,"\u0120Data":3000,"\u0120Apache":3001,"Map":3002,"\u0120dist":3003,"samples":3004,"annot":3005,"\u0120applic":3006,"\u0120exc":3007,"\u0120Se":3008,"height":3009,"labels":3010,"PL":3011,"allow":3012,"\u0120sen":3013,"CK":3014,"keep":3015,"\u0120MERCHANTABILITY":3016,"Inter":3017,"\"}":3018,"Connection":3019,"Auto":3020,"curity":3021,"Dis":3022,"Box":3023,"\u0120them":3024,"stderr":3025,"buf":3026,"Frame":3027,"ws":3028,"\u0120cer":3029,"MS":3030,"assertFalse":3031,"ges":3032,")\"":3033,"\u0120choices":3034,"Call":3035,"ific":3036,"particle":3037,"af":3038,"\u0120username":3039,"desc":3040,"\u0120Option":3041,"\u0120correct":3042,"(__":3043,"udent":3044,"\u0120marker":3045,"\u0120writing":3046,"\u0120job":3047,"rough":3048,"buffer":3049,"ily":3050,"\u0120LO":3051,"Page":3052,"TEST":3053,"tical":3054,"License":3055,"\u0120methods":3056,"sure":3057,"\u0120DE":3058,"Image":3059,"Reg":3060,"ination":3061,"\u0120sure":3062,"storage":3063,"SER":3064,"olve":3065,"\u0120published":3066,"Imple":3067,"\u0120mon":3068,"\u0120null":3069,"ummy":3070,"proxy":3071,"forms":3072,"\");":3073,"255":3074,"\u0120they":3075,"Instance":3076,"public":3077,"backend":3078,"ditions":3079,"\u0120'',":3080,"au":3081,"lice":3082,"abc":3083,"'][":3084,"\u012020":3085,"26":3086,"issing":3087,"known":3088,"install":3089,"ose":3090,"blem":3091,"comment":3092,"des":3093,"imple":3094,"dentials":3095,"normal":3096,"called":3097,"75":3098,"score":3099,"\u0120failed":3100,"istry":3101,"gor":3102,"imp":3103,"\u0120control":3104,"\u0120channel":3105,"\").":3106,"\u0120charac":3107,"\u0120wait":3108,"ured":3109,"\u0120Z":3110,"ending":3111,"\u0120Qt":3112,"\u0120offset":3113,"\u0120gover":3114,"gp":3115,"release":3116,"ystem":3117,"\u0120sorted":3118,"raises":3119,"long":3120,"dient":3121,"apache":3122,"DIT":3123,"DEFAULT":3124,"\u0120integer":3125,"leep":3126,"ouble":3127,"bind":3128,"\u0120matrix":3129,"loads":3130,"matrix":3131,"VAL":3132,"\u0120doesn":3133,"\u0120location":3134,"commit":3135,"verage":3136,"\u0120pattern":3137,"children":3138,"cast":3139,"\u0120step":3140,"edit":3141,"API":3142,"bl":3143,"ef":3144,"provider":3145,"oolean":3146,"ja":3147,"yp":3148,"math":3149,"\u0120KIND":3150,"dirs":3151,"\u0120nodes":3152,"ret":3153,"35":3154,"br":3155,"fetch":3156,"sm":3157,"reed":3158,"\u0120skip":3159,"\u0120setUp":3160,"21":3161,"\u0120instead":3162,"\u012016":3163,"\u0120callback":3164,"Loc":3165,"urls":3166,"Context":3167,"async":3168,"({'":3169,"role":3170,");":3171,"\u0120between":3172,"\u0120existing":3173,"39":3174,"oto":3175,"loop":3176,"\u0120meta":3177,"gorith":3178,"ards":3179,"assertIs":3180,"scale":3181,"button":3182,",'":3183,"quires":3184,"\u0120zip":3185,"ipe":3186,"('\\":3187,"\u0120normal":3188,"dirname":3189,"utable":3190,"Or":3191,"VE":3192,"CC":3193,"td":3194,"Invalid":3195,"\u0120exists":3196,"\u0120WARRANTY":3197,"invalid":3198,"DS":3199,"\u0120custom":3200,"ACK":3201,"reen":3202,"application":3203,"()[":3204,"OK":3205,"Gener":3206,"\u0120product":3207,"\u0120width":3208,"rf":3209,"28":3210,"\u0120\u0120\u0120\u0120\u0120\u0120\u0120\u0120\u0120\u0120\u0120\u0120\u0120\u0120\u0120\u0120\u0120\u0120\u0120\u0120\u0120\u0120\u0120\u0120\u0120\u0120\u0120\u0120\u0120\u0120\u0120\u0120\u0120\u0120\u0120\u0120\u0120\u0120\u0120":3211,"sl":3212,"----------------------------------------------------------------":3213,"lex":3214,"\u0120conf":3215,"socket":3216,"Fe":3217,"__)":3218,"ETTER":3219,"distribute":3220,"fd":3221,"hi":3222,"vs":3223,"classmethod":3224,"ession":3225,"\u0120_(\"":3226,"lem":3227,"mean":3228,"><":3229,"encoding":3230,"olution":3231,"FO":3232,"\u0120html":3233,"\u0120En":3234,"ValueError":3235,"Attribute":3236,"\u0120\"'":3237,"\u0120Col":3238,"ello":3239,"\u0120LETTER":3240,"ceback":3241,"\u0120different":3242,"\u0120render":3243,"Sta":3244,"weight":3245,"apping":3246,"idden":3247,"\u0120war":3248,"\u0120present":3249,"\u0120actual":3250,"enabled":3251,"LICENSE":3252,"series":3253,"AY":3254,"-%":3255,"sq":3256,"sity":3257,"proto":3258,"\u0120utils":3259,"Window":3260,"cret":3261,"\u0120Licensed":3262,"columns":3263,"istory":3264,"\u0120long":3265,"\u0120net":3266,"ixin":3267,"Action":3268,"virt":3269,"On":3270,"ases":3271,"users":3272,"render":3273,"\u0120applicable":3274,"lint":3275,"__':":3276,"\u0120commands":3277,"\u0120Auth":3278,"document":3279,"lip":3280,"\u0120Run":3281,"\u0120Res":3282,"bove":3283,"\u0120original":3284,"eff":3285,"attrs":3286,"structor":3287,"Trans":3288,"Valid":3289,"fl":3290,"(**":3291,"\u0120IP":3292,"\u0120force":3293,"schema":3294,"\u0120inclu":3295,"\u0120Di":3296,"Clo":3297,"\u0120pk":3298,"inputs":3299,"language":3300,"\u0120Note":3301,"track":3302,"mac":3303,"37":3304,"\u0120real":3305,"mbed":3306,"video":3307,"PR":3308,"\u0120position":3309,"\u0120generate":3310,"iddleware":3311,"09":3312,"hook":3313,"js":3314,"\u0120stop":3315,"\u0120pol":3316,"grid":3317,"\u0120TypeError":3318,"\u0120Base":3319,"olean":3320,"={'":3321,"\u0120ow":3322,"\u0120implement":3323,"umerate":3324,"imat":3325,"ports":3326,"rand":3327,"\u0120eval":3328,"collection":3329,"Qt":3330,"\u0120express":3331,"seq":3332,"\u0120List":3333,"directory":3334,"ilter":3335,"\u0120[[":3336,"oken":3337,"dt":3338,"__,":3339,"folder":3340,"Down":3341,"loader":3342,"wri":3343,"\u0120style":3344,"actions":3345,"\u0120noti":3346,"\u0120Comp":3347,"leted":3348,"\u0120::":3349,"[:,":3350,"Format":3351,"licit":3352,"ourse":3353,"duce":3354,"\u0120section":3355,"\u0120\".":3356,"\u0120Ser":3357,"SC":3358,"cap":3359,"\u0120multi":3360,"Table":3361,"dentity":3362,"ERROR":3363,"pping":3364,"olver":3365,"Point":3366,"\u0120always":3367,"year":3368,"\u0120absolute":3369,"ross":3370,"help":3371,"ving":3372,"Tra":3373,"\u0120defined":3374,"HER":3375,"\u0120patch":3376,"sted":3377,"ank":3378,"\u0120</":3379,"Output":3380,"Implemented":3381,"sive":3382,"properties":3383,"\u0120containing":3384,"cords":3385,"MPL":3386,"\u0120redistribute":3387,"Version":3388,"FL":3389,"\u0120clean":3390,"Oper":3391,"cell":3392,"ube":3393,"\u0120layer":3394,"\u0120remote":3395,"STR":3396,"Query":3397,"\u0120):":3398,"rations":3399,"DITIONS":3400,"\u0120Inc":3401,"\u0120repo":3402,"timestamp":3403,"\u0120compliance":3404,"uff":3405,"UD":3406,"Found":3407,"\u0120BAS":3408,"short":3409,"bound":3410,"`,":3411,"\u0120second":3412,"06":3413,"pid":3414,"\u0120sta":3415,"\u0120replace":3416,"\u0120split":3417,"Do":3418,"\u0120operation":3419,"cies":3420,"\u0120gen":3421,"(\"%":3422,"\u0120mod":3423,"CP":3424,"\u0120labels":3425,"\u0120Unless":3426,"\u0120law":3427,"\u0120tags":3428,"DateTime":3429,"\u0120Open":3430,"voice":3431,"38":3432,"Code":3433,"tenant":3434,"EXT":3435,"engine":3436,"ASS":3437,"\u0120ignore":3438,"med":3439,"ithub":3440,"none":3441,"ASE":3442,"\u0120binary":3443,"google":3444,"Number":3445,"////":3446,"ntry":3447,"Dir":3448,"warning":3449,"\u0120reverse":3450,"xture":3451,"\u0120sequence":3452,"stract":3453,"ector":3454,"IGHT":3455,"\u0120ImportError":3456,".'":3457,"\u0120agreed":3458,"aml":3459,"\u0120window":3460,"\u0120governing":3461,"\u0120BASIS":3462,"ero":3463,"\u0120CONDITIONS":3464,"aries":3465,"\u0120Default":3466,"\u0120As":3467,"zy":3468,"ire":3469,"std":3470,"\u0120functions":3471,"tificate":3472,"\u0120limitations":3473,"sume":3474,"\u0120vm":3475,"modi":3476,"attribute":3477,"cluster":3478,"\u0120select":3479,"\u0120stack":3480,"factory":3481,"\u0120added":3482,"clear":3483,"INT":3484,"\u0120})":3485,"And":3486,"void":3487,"layout":3488,"Process":3489,"dot":3490,"\u0120enumerate":3491,"\u0120hope":3492,"\u0120these":3493,"SION":3494,"\u0120above":3495,"{{":3496,"paths":3497,"\u0120sql":3498,"FILE":3499,"success":3500,"container":3501,"exceptions":3502,"messages":3503,"IB":3504,"\u0120about":3505,"itor":3506,"\u0120author":3507,"\u0120contains":3508,"Status":3509,"gger":3510,"\u0120File":3511,"moved":3512,"\u0120property":3513,"\u0120https":3514,"precated":3515,"ually":3516,"POST":3517,"LOG":3518,"rows":3519,"sec":3520,"\u0120Parameters":3521,"Int":3522,"USER":3523,"heet":3524,"hould":3525,"Ca":3526,"disk":3527,"\u0120strings":3528,"helper":3529,"\u0120member":3530,"\u0120running":3531,"\u0120requests":3532,"\u0120\u0120\u0120\u0120\u0120\u0120\u0120\u0120\u0120\u0120\u0120\u0120\u0120\u0120\u0120\u0120\u0120\u0120\u0120\u0120\u0120\u0120\u0120\u0120\u0120\u0120\u0120\u0120\u0120\u0120\u0120\u0120\u0120\u0120\u0120\u0120":3533,"pair":3534,"home":3535,"sentry":3536,"\u0120\",":3537,"\u0120warran":3538,"gorithm":3539,"Column":3540,"45":3541,"created":3542,"\u0120component":3543,"\u0120subprocess":3544,"('%":3545,"tool":3546,"verbose":3547,"img":3548,"\u0120stdout":3549,"tran":3550,"inition":3551,"rest":3552,"Property":3553,"\"\\":3554,"\u0120supported":3555,"many":3556,"IntegerField":3557,"light":3558,"\u0120Per":3559,"\u0120unit":3560,"\u0120feature":3561,"\u0120sm":3562,"cheme":3563,"\u0120unique":3564,"ground":3565,"SH":3566,"=_":3567,"safe":3568,"vari":3569,"\u0120Config":3570,"remote":3571,"ins":3572,"\u0120widget":3573,"layers":3574,"\u0120flags":3575,"PC":3576,"\u0120Use":3577,"\u0120warnings":3578,"category":3579,"master":3580,"Gui":3581,"\u0120warranty":3582,"08":3583,"PORT":3584,"Tensor":3585,"stat":3586,"\u0120fake":3587,"Count":3588,"mount":3589,"wrap":3590,"fra":3591,"\u0120left":3592,"Mo":3593,"pb":3594,"\u0120pylint":3595,"rection":3596,"ping":3597,"sten":3598,"Returns":3599,"assertIn":3600,"Spec":3601,"('-":3602,"mk":3603,"Su":3604,"\u0120}}":3605,"\u0120[(":3606,")*":3607,"\u0120whether":3608,"ordin":3609,"Array":3610,"\u0120library":3611,"cursor":3612,"utor":3613,"sole":3614,"END":3615,"49":3616,"nn":3617,"Button":3618,"']),":3619,"cfg":3620,"activ":3621,"gnu":3622,"\u0120queue":3623,"\u0120pick":3624,"SD":3625,"\u0120messages":3626,"zeros":3627,"force":3628,"ancel":3629,"ixed":3630,"\",\"":3631,"\u0120report":3632,"')),":3633,"\u0120chunk":3634,"\u0120multiple":3635,"UTH":3636,"SA":3637,"\u0120init":3638,"convert":3639,"rency":3640,"tex":3641,"\u0120Ra":3642,"ctx":3643,"uter":3644,"css":3645,"\u0120documentation":3646,"48":3647,">'":3648,"MM":3649,"\u0120video":3650,"Color":3651,"agent":3652,"ros":3653,"rer":3654,"dumps":3655,"\u0120NotImplemented":3656,"spa":3657,"\u0120mig":3658,"marker":3659,"Cur":3660,"cloud":3661,"Boolean":3662,"()))":3663,"NS":3664,"velo":3665,"\u0120finally":3666,"\u0120attrs":3667,"signed":3668,"\u0120common":3669,"greg":3670,"rel":3671,"sig":3672,"regex":3673,"\u0120reference":3674,"\u0120install":3675,"indices":3676,"WARE":3677,"\u0120invalid":3678,"vals":3679,"\u0120validate":3680,"vor":3681,")'":3682,"\u0120[])":3683,"\u0120six":3684,"chain":3685,")])":3686,"\u0120opts":3687,"holder":3688,"center":3689,"\u0120\u0120\u0120\u0120\u0120\u0120\u0120\u0120\u0120\u0120\u0120\u0120\u0120\u0120\u0120\u0120\u0120\u0120\u0120\u0120\u0120\u0120\u0120\u0120\u0120\u0120\u0120\u0120\u0120\u0120\u0120\u0120\u0120\u0120\u0120\u0120\u0120":3690,"RES":3691,"serialize":3692,"\u0120cluster":3693,"\u0120----------":3694,"feed":3695,"enable":3696,"raise":3697,"lookup":3698,"76":3699,"\u0120ctx":3700,"\u0120df":3701,"Many":3702,"\u0120convert":3703,"\u0120license":3704,"Control":3705,"ZE":3706,"eb":3707,"Len":3708,"\u0120ed":3709,"\u0120sess":3710,"\u0120_('":3711,"\u0120PRO":3712,"Change":3713,"\u0120store":3714,"([[":3715,"cd":3716,"generate":3717,"\u0120paths":3718,"\u0120comment":3719,"ntax":3720,"faces":3721,"42":3722,"medi":3723,"\u0120----":3724,"\u0120ph":3725,"adding":3726,"\u0120based":3727,"Label":3728,"\u0120conditions":3729,"\u0120cursor":3730,"\u0120urllib":3731,"\u0120plt":3732,"\u0120inputs":3733,"reset":3734,"Tag":3735,"ored":3736,"respon":3737,"\u0120ops":3738,"INE":3739,"Logger":3740,"Task":3741,"\u0120sc":3742,"]])":3743,"\u0120pool":3744,"\u0120((":3745,"usage":3746,"Doc":3747,"quote":3748,"\u0120Lo":3749,"esca":3750,"\u0120est":3751,"ctype":3752,"some":3753,"hex":3754,"\u0120mask":3755,"iltin":3756,"WOR":3757,"cision":3758,"partner":3759,"Ro":3760,"(\\":3761,"cb":3762,"\u0120arch":3763,"\u0120schema":3764,"\u0120being":3765,"07":3766,"\u0120conver":3767,"\u0120both":3768,"alias":3769,"download":3770,"sw":3771,"AutoField":3772,"\u0120close":3773,">\\":3774,"\u0120\u0120\u0120\u0120\u0120\u0120\u0120\u0120\u0120\u0120\u0120\u0120\u010d\u010a":3775,"]+":3776,"ROM":3777,"lities":3778,"sym":3779,"variables":3780,"Mixin":3781,"basic":3782,"linen":3783,"\u0120mer":3784,"\u0120flag":3785,"rpc":3786,"Source":3787,"amo":3788,"\u0120EX":3789,"feature":3790,"hostname":3791,"cing":3792,"IGN":3793,"ITE":3794,"ines":3795,"rl":3796,"ority":3797,"Default":3798,"\u0120associ":3799,"\u0120container":3800,"abi":3801,"enter":3802,"ested":3803,"\u0120again":3804,"pytest":3805,"resp":3806,"ssl":3807,"\u0120every":3808,"dec":3809,"loss":3810,"\u0120\"--":3811,"]*":3812,"warn":3813,"\u0120ker":3814,"sleep":3815,"pendencies":3816,"\u0120\"-":3817,"\u0120'')":3818,"('--":3819,"entication":3820,"\u0120To":3821,"bad":3822,"events":3823,"\u0120On":3824,"\u0120look":3825,"\u0120classes":3826,"\u0120LI":3827,"ished":3828,"menu":3829,"Template":3830,"custom":3831,"\u0120sort":3832,"\u0120through":3833,"namespace":3834,"commands":3835,"></":3836,"AGS":3837,"lim":3838,"\u0120cannot":3839,"sequence":3840,"Ver":3841,"VIC":3842,"\u0120track":3843,"tact":3844,"\u0120Attribute":3845,"scriptor":3846,"rappe":3847,"\u0120generated":3848,"\u012015":3849,"ends":3850,"GL":3851,"tification":3852,"font":3853,"OFT":3854,"tc":3855,"OUT":3856,"Update":3857,"PAR":3858,"____":3859,"\u0120related":3860,"DATA":3861,"\"].":3862,"\u0109\u0109\u0109\u0109\u0109":3863,"orter":3864,"Read":3865,"pose":3866,")',":3867,"Filter":3868,"\u0120KeyError":3869,"ould":3870,"pg":3871,"ones":3872,"iases":3873,"\u0120bound":3874,"ynam":3875,"Start":3876,"tz":3877,"entity":3878,"\u0120join":3879,"matic":3880,"Method":3881,"filters":3882,"\\.":3883,"\u0120since":3884,"Resource":3885,"\u0120relative":3886,"Of":3887,"\u0120elements":3888,"\u0120policy":3889,"Failed":3890,"\u0120who":3891,"\u0120LOG":3892,"\u0120When":3893,"\u0120place":3894,"\u0120simple":3895,"AND":3896,"mig":3897,"apter":3898,"256":3899,"31":3900,"\u0120Me":3901,"\u0120cfg":3902,"csv":3903,"hass":3904,"\u0120what":3905,"acy":3906,"simple":3907,"resources":3908,"\u0120metri":3909,"\u0120namespace":3910,"\u0120extension":3911,"TIME":3912,"\u0120keep":3913,"\u0120await":3914,"Tree":3915,"png":3916,"\u0120profile":3917,"\u0120pair":3918,"sitory":3919,"\u0120Mock":3920,"\u0120scope":3921,"\u0120our":3922,"'^":3923,"\u0120HT":3924,"\u0120idx":3925,"interval":3926,"\u0120pytest":3927,"Function":3928,"umb":3929,"ified":3930,"\u0120environment":3931,"mul":3932,"alle":3933,"IE":3934,"BUG":3935,"\u0120\u0120\u0120\u0120\u0120\u0120\u0120\u0120\u0120\u0120\u0120\u0120\u0120\u0120\u0120\u0120\u0120\u0120\u0120\u0120\u0120\u0120\u0120\u0120\u0120\u0120\u0120\u0120\u0120\u0120\u0120\u0120\u0120\u0120\u0120\u0120\u0120\u0120":3936,"views":3937,"\u0120dimen":3938,"\u0120fl":3939,"tems":3940,"binary":3941,"rtype":3942,"\u0120previous":3943,"Graph":3944,"logging":3945,"reshold":3946,"CS":3947,"flag":3948,"######":3949,"spatch":3950,"\u0120points":3951,"Token":3952,"\u0120Or":3953,"leg":3954,"Layout":3955,"Variable":3956,"\u0120possible":3957,"STAT":3958,"fp":3959,"\u0120loop":3960,"\u0120\"<":3961,"peed":3962,"\u0120encode":3963,"\u0120dataset":3964,"]],":3965,"\u0120fn":3966,"'\"":3967,"imator":3968,"_,":3969,"lear":3970,"hs":3971,"\u0120NotImplementedError":3972,"If":3973,"grade":3974,"factor":3975,"()),":3976,"\u0120protocol":3977,"protocol":3978,"\u0120missing":3979,"expr":3980,"FORM":3981,"\u0120would":3982,"uring":3983,":\\":3984,"\u0120HTML":3985,"\u0120role":3986,"Address":3987,"mar":3988,"Param":3989,"ATIN":3990,"eeded":3991,"dn":3992,"\u0120stri":3993,"\u0120admin":3994,"'re":3995,"UM":3996,"cm":3997,"lain":3998,"\u0120platform":3999,"Session":4000,"\u0120expect":4001,"\u0120foo":4002,"46":4003,"79":4004,"nected":4005,"\u0120Make":4006,"DateTimeField":4007,"\u0120their":4008,"OFTWARE":4009,"\u0120how":4010,"uplic":4011,"done":4012,"\u0120Qgs":4013,"\u0120Http":4014,"\u0120vari":4015,"bb":4016,"DF":4017,"escape":4018,"security":4019,"route":4020,"after":4021,"anti":4022,"staticmethod":4023,"\u0120distribution":4024,"endswith":4025,")/":4026,"ferences":4027,"cert":4028,"xtra":4029,"\u0120desc":4030,"\u0120Po":4031,"BO":4032,"WN":4033,"pare":4034,"exist":4035,"ignore":4036,"\u0120columns":4037,"istration":4038,"\u0120users":4039,"uted":4040,"\u0120specify":4041,"\u0120exit":4042,"agement":4043,"\u0120LATIN":4044,"\u0120NO":4045,"'\",":4046,"iver":4047,"COL":4048,"region":4049,"chunk":4050,"\u0120copyright":4051,"\u0120sim":4052,"resses":4053,"ifest":4054,"images":4055,"click":4056,"assertAll":4057,"\u0120direct":4058,"utes":4059,"\u0120done":4060,"come":4061,"\u0120contents":4062,"available":4063,"links":4064,"tten":4065,"SET":4066,"Network":4067,"cols":4068,"\u0120retri":4069,"cii":4070,"components":4071,"\u0120override":4072,"Entry":4073,"\u0120Ad":4074,"poch":4075,"bucket":4076,"summary":4077,"\u0120OS":4078,"\u0120application":4079,"question":4080,"lineno":4081,"tt":4082,"\u0120appro":4083,"testing":4084,"ategor":4085,"\u0120\u0120\u0120\u0120\u0120\u0120\u0120\u0120\u0120\u0120\u0120\u0120\u0120\u0120\u0120\u0120\u0120\u0120\u0120\u0120\u0120\u0120\u0120\u0120\u0120\u0120\u0120\u0120\u0120\u0120\u0120\u0120\u0120\u0120\u0120\u0120\u0120\u0120\u0120\u0120":4086,"publish":4087,"\u0120compute":4088,"sd":4089,"verify":4090,"supported":4091,"ORS":4092,"\u0120fp":4093,"numpy":4094,"Warning":4095,"span":4096,"\u0120async":4097,")\",":4098,"\u0120plot":4099,"fc":4100,"PUT":4101,"Block":4102,"inx":4103,"=',":4104,"\u0120entity":4105,"router":4106,"parts":4107,"cores":4108,"GR":4109,"gt":4110,"alpha":4111,"prop":4112,"\u0120separ":4113,"owner":4114,"\u0120height":4115,"\u0120setting":4116,"LECT":4117,"\u0120dec":4118,"ueue":4119,"ide":4120,"\u0120hand":4121,"\u0120'{":4122,"\u0120disk":4123,"\u0120lookup":4124,"ULL":4125,"secret":4126,"chine":4127,"sparse":4128,"reference":4129,"choices":4130,"\u0120updated":4131,"indent":4132,"amount":4133,"URE":4134,"Admin":4135,"\u0120SOFTWARE":4136,"scape":4137,"zero":4138,"lang":4139,"rb":4140,"\u0120vector":4141,"\u0120indic":4142,"require":4143,".',":4144,"00000000":4145,"dataset":4146,"uce":4147,"norm":4148,"Stream":4149,"\u0120word":4150,"override":4151,"\u0120move":4152,"\u0120properties":4153,"states":4154,"\u0120defaults":4155,"gl":4156,"Op":4157,"sep":4158,"SO":4159,"this":4160,"creen":4161,"\u012011":4162,"DER":4163,"1234":4164,"contents":4165,"unch":4166,"}'.":4167,"game":4168,"Device":4169,"\u0120could":4170,"ansible":4171,"(\"\\":4172,"\u0120%}":4173,"github":4174,"gative":4175,"\u0120scale":4176,"seconds":4177,"\u0120eq":4178,"boot":4179,"\u0120division":4180,"\u0120notice":4181,"\u0120disc":4182,"\u0120static":4183,"serv":4184,"89":4185,"UE":4186,"loaded":4187,"signal":4188,"uate":4189,"PY":4190,"apt":4191,"vas":4192,"\u0120rec":4193,"\u0120feed":4194,"icon":4195,"pipe":4196,"\u0120correspon":4197,"pick":4198,"\u0120\"__":4199,"arm":4200,"Wor":4201,"\u0120tran":4202,"nu":4203,"\u0120seconds":4204,"MET":4205,"\u0120(%":4206,"upper":4207,"anel":4208,"database":4209,"const":4210,"ars":4211,"Pa":4212,"\u0120provider":4213,"price":4214,"Core":4215,"FT":4216,"\u0120ST":4217,"########################################################################":4218,"ventory":4219,"\u0120dt":4220,"Back":4221,"lass":4222,"\u0120events":4223,"framework":4224,"\u0120such":4225,"\u0120features":4226,"\u0120final":4227,"\u0120instances":4228,"nan":4229,"times":4230,"65":4231,"ritems":4232,"Child":4233,"\u0120forms":4234,"\u0120login":4235,"(\"/":4236,"\u0120changes":4237,"ateri":4238,"ynamic":4239,"IR":4240,"\u0120coun":4241,"\u0120Go":4242,"city":4243,"\u0120font":4244,"actor":4245,"\u0120register":4246,"System":4247,"\u0120proxy":4248,"ons":4249,"\u0120category":4250,"where":4251,"\u0120Al":4252,"pkg":4253,"\u0120groups":4254,"\u0120[('":4255,"\u0120cell":4256,"ants":4257,"snapshot":4258,"roid":4259,"false":4260,"rp":4261,"\u0120reason":4262,"\u0120Do":4263,"\u0120cli":4264,"elif":4265,"tio":4266,"\u0120needed":4267,"\u012030":4268,"\u0120>>":4269,"extension":4270,"eve":4271,"defaults":4272,"proc":4273,"\u0120\u0120\u0120\u0120\u0120\u0120\u0120\u0120\u0120\u0120\u0120\u0120\u0120\u0120\u0120\u0120\u0120\u0120\u0120\u0120\u0120\u0120\u0120\u0120\u0120\u0120\u0120\u0120\u0120\u0120\u0120\u0120\u0120\u0120\u0120\u0120\u0120\u0120\u0120\u0120\u0120\u0120\u0120":4274,"\u0120connect":4275,"One":4276,"CR":4277,"\u0120named":4278,"]):":4279,"WS":4280,"\u0120mapping":4281,"\u0120signal":4282,"PRE":4283,"rag":4284,"dat":4285,"rank":4286,"/'":4287,"ACE":4288,"\u0120allowed":4289,"weights":4290,"\u0120region":4291,"second":4292,"export":4293,",)":4294,"\u0120App":4295,"ighb":4296,"almost":4297,"$',":4298,"/',":4299,"------------":4300,"media":4301,"\u0120'#":4302,"Ge":4303,"\u0120rights":4304,"details":4305,"rector":4306,"\u0120public":4307,"\u0120AttributeError":4308,"Thread":4309,"++":4310,"rules":4311,"\u0120stderr":4312,"\u0120operator":4313,"jobs":4314,"\u0120JSON":4315,"\u0120byte":4316,"SIZE":4317,"uation":4318,"\u0120parts":4319,"90":4320,"tore":4321,"[:-":4322,"docs":4323,"\u0120pe":4324,"\u0120redirect":4325,"Plugin":4326,"alk":4327,"scal":4328,"alt":4329,"Build":4330,"\u0120SM":4331,"PER":4332,"utron":4333,"\u0120matches":4334,"\u0120otherwise":4335,"TypeError":4336,"\u0120active":4337,"quested":4338,"dar":4339,"85":4340,"NotFound":4341,"arguments":4342,"\u0120rc":4343,"correct":4344,"SQL":4345,"\u0120rows":4346,"\u0120backend":4347,"kes":4348,"\u0120high":4349,"\u0120Th":4350,"memory":4351,"Layer":4352,"days":4353,"__.":4354,"zz":4355,"nb":4356,"amily":4357,"\u0120mean":4358,"\u0120Bu":4359,"ower":4360,"\u0120require":4361,"company":4362,"\u0120buffer":4363,"VERSION":4364,"vis":4365,"rence":4366,"ga":4367,"arge":4368,"}}":4369,"Contain":4370,"\u0120way":4371,"Sy":4372,"\u0120release":4373,"defined":4374,"six":4375,"\u0120spa":4376,"47":4377,"tify":4378,"\u0120equal":4379,"ANG":4380,"reverse":4381,"DR":4382,"\u0120associated":4383,"lab":4384,"fill":4385,"month":4386,"mitted":4387,"failed":4388,"plugins":4389,"BooleanField":4390,"Parameter":4391,"Com":4392,"\u0120util":4393,"\u0120rest":4394,"learn":4395,"\u0120pop":4396,"single":4397,"=-":4398,"\u0120da":4399,"arted":4400,"Open":4401,"MAX":4402,"upload":4403,"PS":4404,"outputs":4405,"\u0120verify":4406,"uch":4407,"ness":4408,"\u0120timestamp":4409,"\u0120blank":4410,"xc":4411,"End":4412,"amma":4413,"mapping":4414,"\u0120bit":4415,"subnet":4416,"abspath":4417,"\u0120FROM":4418,"lap":4419,"\u0120Column":4420,"found":4421,"\u0120Up":4422,"angle":4423,"fication":4424,"\u0120modules":4425,"OO":4426,"\u0120compile":4427,"transform":4428,"cpu":4429,"isted":4430,"\u0120tx":4431,"\u0120\"_":4432,"sync":4433,"\u0120buf":4434,"Edit":4435,"\u0120Time":4436,"Port":4437,"raft":4438,"private":4439,"\u0120stats":4440,"\u0120RE":4441,"\u0120oc":4442,"\u0120storage":4443,"\u0120uses":4444,"\u0120apply":4445,"``.":4446,"integer":4447,"Pack":4448,"missing":4449,"\u0120parsed":4450,"ench":4451,"\u0120driver":4452,"\u0120within":4453,"CLUD":4454,"branch":4455,"Python":4456,"units":4457,"nored":4458,"\u0120AR":4459,"\u0120enable":4460,"see":4461,"CI":4462,"tist":4463,"hosts":4464,"rays":4465,"ascii":4466,"\u0120site":4467,"\u0120wx":4468,"analy":4469,"\u0120filters":4470,"\u0120usage":4471,"ado":4472,"VENT":4473,"}\".":4474,"\u0120determin":4475,"pted":4476,"\u0120calcul":4477,"\u0120alpha":4478,"unded":4479,"\u0120lock":4480,"(%":4481,"Serial":4482,"\u0120inv":4483,"xb":4484,"attach":4485,"\u0120indices":4486,"FIX":4487,"seed":4488,"sha":4489,"complete":4490,"Options":4491,"\u0120COP":4492,"mpt":4493,"\u0120callable":4494,"\u0120via":4495,"Link":4496,"slug":4497,"\u0120folder":4498,"(('":4499,"USE":4500,"Max":4501,"didate":4502,"\u0120standard":4503,")).":4504,"once":4505,"\u0120Mode":4506,"LL":4507,">',":4508,"hy":4509,"\u0120COPY":4510,"\u0120indent":4511,"\u0120weights":4512,"payload":4513,"depth":4514,"rong":4515,"Policy":4516,"\u0120Course":4517,"../":4518,"\u0120optim":4519,"\u0120another":4520,"optional":4521,"CRE":4522,"mpy":4523,"apply":4524,"Sp":4525,"\u0120ns":4526,"\u0120\u0120\u0120\u0120\u0120\u0120\u0120\u0120\u0120\u0120\u0120\u0120\u0120\u0120\u0120\u0120\u0120\u0120\u0120\u0120\u0120\u0120\u0120\u0120\u0120\u0120\u0120\u0120\u0120\u0120\u0120\u0120\u0120\u0120\u0120\u0120\u0120\u0120\u0120\u0120\u0120":4527,"havi":4528,"\u0120memory":4529,"\u0120keyword":4530,"gb":4531,"\u0120additional":4532,"support":4533,"uni":4534,"_%":4535,"liter":4536,"\u0120play":4537,"controller":4538,"sn":4539,"lots":4540,"cessed":4541,"umeric":4542,"INFO":4543,"\u0120])":4544,"\u0120Valid":4545,"CLUDING":4546,"expand":4547,"\u0120payload":4548,"\u012032":4549,"apps":4550,"xe":4551,"\u0120entries":4552,"\u0120expression":4553,"Callback":4554,"\u0120vol":4555,"extract":4556,">\"":4557,"96":4558,"metric":4559,"redirect":4560,"\u0120xrange":4561,"uting":4562,"+'":4563,"95":4564,"\u0120win":4565,"note":4566,"ategy":4567,"\u0109\u010d\u010a":4568,"suffix":4569,"ached":4570,"bal":4571,"Cache":4572,"library":4573,"/{":4574,")],":4575,"[^":4576,"GE":4577,"\u0120tab":4578,"sid":4579,"\u0120fetch":4580,"iso":4581,"\u0120implementation":4582,"atrix":4583,"INTER":4584,"eq":4585,"\u0120issue":4586,"\u0120sent":4587,"Close":4588,"\u0120needs":4589,"fname":4590,"fies":4591,"\u0120Error":4592,"\u0120My":4593,"arr":4594,"\u0120collections":4595,"\"'":4596,"IX":4597,"/>.":4598,"\u0120hass":4599,"\u0120download":4600,"\u0120ep":4601,"ence":4602,"\u0120Mo":4603,"\u0120activ":4604,"GER":4605,"undle":4606,"\u01201000":4607,"128":4608,"kernel":4609,"New":4610,")\\":4611,"ECT":4612,"\u0120Request":4613,"\u0120proto":4614,"Host":4615,"gether":4616,"rot":4617,"\u0120bar":4618,"facts":4619,"Exp":4620,"\u0120person":4621,"getLogger":4622,"\u0120CONTR":4623,"ferred":4624,"super":4625,"\u0120pipe":4626,"dims":4627,"\u0120button":4628,"crement":4629,"\u0120home":4630,"\u0120reserved":4631,"currency":4632,"\u0120shutil":4633,"\u0120manager":4634,"Def":4635,"reshape":4636,"UID":4637,"gments":4638,"wisted":4639,"asure":4640,"browse":4641,"dius":4642,"roy":4643,"\u0120[{":4644,"\u0120selected":4645,"\u0120characters":4646,"\u0120virt":4647,"trace":4648,"schedule":4649,"']))":4650,"detail":4651,"\u0120zero":4652,"\u0120subject":4653,"expect":4654,"az":4655,"\u0120wrap":4656,"mbols":4657,"issue":4658,"127":4659,"\u0120installed":4660,"sock":4661,"sertion":4662,"\u0120bad":4663,"cos":4664,"lack":4665,"\u0120exceptions":4666,"DATE":4667,"XML":4668,"bus":4669,"mc":4670,"ook":4671,"\u0120too":4672,"conv":4673,"MAIN":4674,"\"}),":4675,"\u0120prob":4676,"\u0120head":4677,"ssh":4678,"\u0120ensure":4679,"translate":4680,"configuration":4681,"\u0120inte":4682,"sheet":4683,"byte":4684,"grad":4685,"\u0120enabled":4686,"basename":4687,"lite":4688,"\u0120tool":4689,"MB":4690,"\u0120permission":4691,"\u0120Log":4692,"browser":4693,"tasks":4694,"\u0120outputs":4695,"cription":4696,"Ref":4697,"\u0120PO":4698,"tokens":4699,"\u0120got":4700,"services":4701,"draw":4702,"uest":4703,"RECT":4704,"tty":4705,"\u0120removed":4706,"Fail":4707,"\u0120loss":4708,"gent":4709,"Types":4710,"ural":4711,"SL":4712,"internal":4713,"\u0120cop":4714,".%":4715,"dom":4716,"cut":4717,"akes":4718,"requen":4719,"\u0120space":4720,"edge":4721,"ARY":4722,"steps":4723,"cached":4724,"urnal":4725,"70":4726,"(\"\"\"":4727,"\u0120OTH":4728,"sim":4729,"\u0120short":4730,"DEBUG":4731,"Met":4732,"Fla":4733,"ialog":4734,"\u0120repr":4735,"\u0120primary":4736,"ava":4737,"titem":4738,"\u0120complete":4739,"\u0120{})":4740,".)":4741,"sur":4742,"\u0120weight":4743,"MIN":4744,"Length":4745,"orary":4746,"\u0120DO":4747,"Range":4748,"\u0120fit":4749,".\",":4750,"\u0120IO":4751,"calls":4752,"chemy":4753,"inf":4754,"\u0120execute":4755,"Exec":4756,"lon":4757,"tected":4758,"park":4759,"wik":4760,"\u0120Sub":4761,"VICE":4762,"just":4763,"yes":4764,"assifier":4765,"fmt":4766,"\u012014":4767,"before":4768,"assertNot":4769,"()):":4770,"wards":4771,"oriz":4772,"herit":4773,"updated":4774,"\u0120TH":4775,"\u0120MA":4776,"':'":4777,"ONE":4778,"\u0120sparse":4779,"period":4780,"123":4781,"crypt":4782,"isode":4783,"AUTH":4784,"\u0120-=":4785,"ffic":4786,"\u0120Man":4787,"student":4788,"rm":4789,"RIGHT":4790,"symbol":4791,"ulate":4792,",))":4793,"packages":4794,"\u0120problem":4795,"\u0120Text":4796,"~~~~~~~~":4797,"\u0120calls":4798,"iod":4799,"\u0120kernel":4800,"1000":4801,"\u0120\u0120\u0120\u0120\u0120\u0120\u0120\u0120\u0120\u0120\u0120\u0120\u0120\u0120\u0120\u0120\u0120\u0120\u0120\u0120\u0120\u0120\u0120\u0120\u0120\u0120\u0120\u0120\u0120\u0120\u0120\u0120\u0120\u0120\u0120\u0120\u0120\u0120\u0120\u0120\u0120\u0120":4802,"topic":4803,"anization":4804,"rectories":4805,"Exten":4806,"serve":4807,"\u0120//":4808,"gui":4809,"timeError":4810,"\u0120uri":4811,"xf":4812,"\u0120tokens":4813,"FLAGS":4814,"\u0120dst":4815,"\u0120itera":4816,"\u0120testing":4817,"scribe":4818,"ationError":4819,"enu":4820,"\u0120img":4821,"FC":4822,"\u0120ig":4823,"hello":4824,"kind":4825,"('.":4826,"********************************":4827,"\u0120cv":4828,"fiers":4829,"\u0120branch":4830,"mem":4831,"\u0120kw":4832,"\u0120kind":4833,"sqrt":4834,"\u0120By":4835,"using":4836,"vec":4837,"\u0120WITH":4838,"\u0120sig":4839,"history":4840,"\u0120\u0120\u010d\u010a":4841,"absent":4842,"Level":4843,"\u0120most":4844,",\"":4845,"unct":4846,"running":4847,"([\"":4848,"counter":4849,"rowser":4850,"ied":4851,"\u0120QtGui":4852,"kip":4853,"sgi":4854,"iteritems":4855,"wrapper":4856,"drop":4857,"ites":4858,"SELECT":4859,"returns":4860,"HOST":4861,"\u0120bot":4862,"Pass":4863,"\u0120XML":4864,"\u0120signature":4865,"\u0120edit":4866,"gits":4867,"98":4868,"\u0120Optional":4869,"fixture":4870,"uint":4871,"\u0120assign":4872,"67":4873,"reduce":4874,"\u0120requires":4875,"dst":4876,"Min":4877,"ia":4878,"\u0120perform":4879,"\u0120OTHER":4880,"\u0120Field":4881,"()]":4882,"generator":4883,"\u0120box":4884,"\u0120Dis":4885,"iti":4886,"ACT":4887,"udio":4888,"\u0120means":4889,"\u0120wrapper":4890,"CTION":4891,"xa":4892,"\u0120AS":4893,"\u0120_,":4894,"Sign":4895,"final":4896,"Vector":4897,"flush":4898,"duction":4899,"\u0120supports":4900,"\u0120USE":4901,"ium":4902,"ough":4903,"Match":4904,"\u0120were":4905,"\u0120many":4906,"\u0120accept":4907,"sumer":4908,"Proxy":4909,"flat":4910,"distance":4911,"\u0120suffix":4912,"Cre":4913,"duration":4914,"Script":4915,"atible":4916,"Multi":4917,"\u0120internal":4918,"\u0120score":4919,"free":4920,"dr":4921,"\u0120Ac":4922,"\u0120nova":4923,"\u0120images":4924,"Store":4925,"expi":4926,"Pri":4927,"\u0120traceback":4928,"Write":4929,"\u0120alias":4930,"registry":4931,"\u0120pr":4932,"ipv":4933,"Dialog":4934,"pn":4935,"lert":4936,"\u0120special":4937,"sired":4938,"term":4939,"\u0120bucket":4940,"\u0120generator":4941,"wall":4942,"ressed":4943,"\u0120-------":4944,"\u0120reset":4945,"tables":4946,"Argument":4947,"\u0120put":4948,"choice":4949,"vol":4950,"\u0120shell":4951,":'":4952,"hour":4953,"54":4954,"\u0120supp":4955,"\u0120))":4956,"ptr":4957,"inc":4958,"\u0120den":4959,"shift":4960,"double":4961,"Be":4962,"\u0120comb":4963,"complex":4964,"}.":4965,"\u0120until":4966,"\u0120Image":4967,"invoice":4968,"Stack":4969,"Project":4970,"\u0120tempfile":4971,"\u0120attemp":4972,"\u0120boolean":4973,"arange":4974,"locale":4975,"external":4976,"\u0120Ver":4977,"\u0120uuid":4978,"ony":4979,"transaction":4980,"pu":4981,"\u0120Google":4982,"servers":4983,"tities":4984,"\u0120times":4985,"subject":4986,"\u0120zone":4987,"\u0120SMALL":4988,"original":4989,"\u0120commit":4990,"__\":":4991,"enerp":4992,"anner":4993,"')]":4994,"\u0120Window":4995,"Sec":4996,"big":4997,"\u0120std":4998,"\u0120master":4999,"Queue":5000,"elements":5001,"assign":5002,"\u0120[-":5003,"\u0120pkg":5004,"partition":5005,"\u0120StringIO":5006,"ffff":5007,"distribution":5008,"astype":5009,"']\"}),":5010,"\u0120still":5011,"dc":5012,"\u0120Reg":5013,"mu":5014,"\u0120regex":5015,"\u0120pl":5016,"Target":5017,"pendency":5018,"{%":5019,"\u0120let":5020,"(_(\"":5021,"selected":5022,"\\\"":5023,"pdf":5024,"Unless":5025,"\u0120note":5026,"cel":5027,"extensions":5028,"ocker":5029,"\u0120scal":5030,"ROOT":5031,"\u0120IMP":5032,"spect":5033,"\u0120side":5034,"\u0120{},":5035,"\u0120snapshot":5036,"ART":5037,"Float":5038,"utc":5039,"\u0120CONF":5040,"================================================================":5041,"\u0120owner":5042,"suite":5043,"parameter":5044,"\u0109\u0109\u010d\u010a":5045,"\u012050":5046,"Dec":5047,"\u0120merge":5048,"effect":5049,"merge":5050,"siz":5051,"Ren":5052,"\u0120Number":5053,"Parse":5054,"\u0120fig":5055,"\u0120dev":5056,"\u0120automatic":5057,"\u0120Tensor":5058,"push":5059,"ftime":5060,"\u0120Group":5061,"ATTR":5062,"targets":5063,"\u0120\"\",":5064,"\u0120children":5065,"gpu":5066,"GI":5067,"tar":5068,"irc":5069,"\u0120rules":5070,"\u0120training":5071,"eries":5072,"rup":5073,"revision":5074,"exclude":5075,"\u0120least":5076,"periment":5077,"oly":5078,"ability":5079,"disable":5080,"prob":5081,"84":5082,"\u0120matching":5083,"ird":5084,"progress":5085,"74":5086,"lations":5087,"modified":5088,"ulation":5089,"capa":5090,"identity":5091,"\u0120during":5092,"\u0120predi":5093,"bits":5094,"Ne":5095,"\u0120chain":5096,"ris":5097,"linux":5098,"\u0120ans":5099,"\u0120sym":5100,"IBUT":5101,"\u0120rv":5102,"derer":5103,"begin":5104,"unknown":5105,"\u0120mp":5106,"\u0120distance":5107,"power":5108,"rees":5109,"\u0120structure":5110,"transport":5111,"RA":5112,"dns":5113,"SSL":5114,"switch":5115,"\u0120decode":5116,"should":5117,"\"\",":5118,"cks":5119,"ISE":5120,"\u0120escape":5121,"gregate":5122,"Comm":5123,"MODE":5124,"('<":5125,"\u0120bind":5126,"\u0120HttpResponse":5127,"You":5128,"CONFIG":5129,"\u0120included":5130,"APIT":5131,"condition":5132,"signature":5133,"Application":5134,"strict":5135,"Search":5136,"FIL":5137,"\u0120rel":5138,"localhost":5139,"\u012060":5140,"ffero":5141,"\u0120clear":5142,"\u0120Affero":5143,"\u0120year":5144,"\u0120dump":5145,"shell":5146,"logy":5147,"\u0120below":5148,"\u0120SH":5149,"yaml":5150,"\u0120Node":5151,"\u0120constants":5152,"Rule":5153,"align":5154,"cessary":5155,"dtypes":5156,"\u0120tr":5157,"\u0120operations":5158,"Lib":5159,"quot":5160,"dl":5161,"inv":5162,"cording":5163,"ords":5164,"hidden":5165,"card":5166,"delay":5167,"\u0120raised":5168,"\u0120sq":5169,"selection":5170,"\u0120Index":5171,"\u0120subnet":5172,"\u0120core":5173,"blocks":5174,"\u0120take":5175,"\u0120corresponding":5176,"wn":5177,"\u0120flat":5178,"\\'":5179,"Protocol":5180,"+\"":5181,"road":5182,"listen":5183,">>>":5184,"HERE":5185,"404":5186,"allback":5187,"Header":5188,"\u0120grid":5189,"tect":5190,"player":5191,"Num":5192,"pages":5193,"lier":5194,"istered":5195,"methods":5196,"Http":5197,"....":5198,"\u0120')":5199,"\u0120sympy":5200,"\u0120SQL":5201,"\u0120mail":5202,"Load":5203,"AGES":5204,"team":5205,"rive":5206,"pub":5207,"rome":5208,"__()":5209,"\u0120credentials":5210,"arDown":5211,"Profile":5212,"\u0120router":5213,"\u0120character":5214,"\u0120----------------------------------------------------------------":5215,"constraint":5216,"IMIT":5217,"instances":5218,"\u0120vals":5219,"reason":5220,"permissions":5221,"requency":5222,":-":5223,"Regex":5224,"cover":5225,"LS":5226,"\u0120occur":5227,"Bar":5228,"ier":5229,"runner":5230,"\u0120samples":5231,"CA":5232,"inder":5233,"cookie":5234,"itle":5235,"appen":5236,"Flow":5237,"REQU":5238,"ustome":5239,"INGS":5240,"poly":5241,"_.":5242,"\u0120\u0120\u0120\u0120\u0120\u0120\u0120\u0120\u0120\u0120\u0120\u0120\u0120\u0120\u0120\u0120\u0120\u0120\u0120\u0120\u0120\u0120\u0120\u0120\u0120\u0120\u0120\u0120\u0120\u0120\u0120\u0120\u0120\u0120\u0120\u0120\u0120\u0120\u0120\u0120\u0120\u0120\u0120\u0120":5243,"\u0120etc":5244,"dimen":5245,"virtual":5246,"warnings":5247,"ridge":5248,"person":5249,"ongo":5250,"\u0120EN":5251,"\u0120aliases":5252,"je":5253,"notes":5254,"\u0120const":5255,"zen":5256,"nail":5257,"irt":5258,"ilt":5259,"ks":5260,"accept":5261,"constants":5262,"CONT":5263,"gettext":5264,"72":5265,"\u012013":5266,"\u0120Spec":5267,"NOT":5268,"teration":5269,"vide":5270,"}/":5271,"journal":5272,"fully":5273,":\"":5274,"unic":5275,"\u0120seq":5276,"setUp":5277,"000000":5278,"unpack":5279,"\u0120LIC":5280,"\u0120mac":5281,"\u0120threading":5282,"\u0120href":5283,"\u0120safe":5284,"\u0120blocks":5285,"\u0120once":5286,"visit":5287,"TextField":5288,"LIED":5289,"\u0120resources":5290,"boolean":5291,"ullable":5292,"\u0120those":5293,"WORD":5294,"\u0120expi":5295,"\u0120best":5296,"\u0120delta":5297,"\u0120algorithm":5298,"``,":5299,"\u0120LIMIT":5300,"strings":5301,"Menu":5302,"builder":5303,"\u012019":5304,"\u0120decor":5305,"tod":5306,"screen":5307,"two":5308,"uses":5309,"stub":5310,"ug":5311,"inte":5312,"mag":5313,"ffect":5314,"\u0120upload":5315,"atom":5316,"lendar":5317,"\u0120stored":5318,"validation":5319,"\u0120factor":5320,"moves":5321,"\u0120sw":5322,"beta":5323,"VID":5324,"placeholder":5325,"\u0120setattr":5326,"BASE":5327,"\u0120behavi":5328,"Obj":5329,"============":5330,"')[":5331,"permission":5332,"reader":5333,"\u0120pur":5334,"ategories":5335,"tn":5336,"shared":5337,"\u0120identifier":5338,"\u0120begin":5339,"firm":5340,"umbnail":5341,"ixel":5342,"\u0120avoid":5343,"\u0120transform":5344,"\u0120maximum":5345,"\u0120explicit":5346,"backup":5347,"writer":5348,"\u0120works":5349,"\u0120endpoint":5350,"alth":5351,"\u0120exclude":5352,"\u0120extract":5353,"\u0120assume":5354,"##############################################################################":5355,".\\":5356,"\u0120Qu":5357,"uplicate":5358,"elem":5359,"\u0120locale":5360,"\u0120Model":5361,"\u0120fix":5362,"58":5363,"icro":5364,"ail":5365,"\u0120hook":5366,"\u0120written":5367,"__.__":5368,"reater":5369,"FE":5370,"qty":5371,"pad":5372,"rev":5373,"\u0120units":5374,"8859":5375,"\u0120fi":5376,"\u0120LICENSE":5377,"\u0120versions":5378,"freq":5379,"\u0120addr":5380,"cf":5381,"MD":5382,"\u0120expr":5383,"MAP":5384,"Uti":5385,"seek":5386,"relation":5387,"\u0120?":5388,"SIB":5389,"\u0120termin":5390,",),":5391,"\u0120directly":5392,"\u0120destination":5393,"ips":5394,"break":5395,"identifier":5396,"endpoint":5397,"\u0120aut":5398,"izers":5399,"Pool":5400,"EMA":5401,"\u0120Clo":5402,"rr":5403,"\u0120Django":5404,"APITAL":5405,"\u0120\u0120\u0120\u0120\u0120\u0120\u0120\u0120\u0120\u0120\u0120\u0120\u0120\u0120\u0120\u0120\u0120\u0120\u0120\u0120\u0120\u0120\u0120\u0120\u0120\u0120\u0120\u0120\u0120\u0120\u0120\u0120\u0120\u0120\u0120\u0120\u0120\u0120\u0120\u0120\u0120\u0120\u0120\u0120\u0120":5406,"DES":5407,"\u0120org":5408,"\u0120media":5409,"\u0120<<":5410,"\u0120DAM":5411,"existing":5412,"operator":5413,"\"][\"":5414,"\u0120Any":5415,"\u0120transaction":5416,"69":5417,"sorted":5418,"gy":5419,"repe":5420,"\u0120Pre":5421,"\u0120fill":5422,"ral":5423,"\u0120day":5424,"dispatch":5425,"templates":5426,"\u0120\u0120\u0120\u0120\u0120\u0120\u0120\u0120\u0120\u0120\u0120\u0120\u0120\u0120\u0120\u0120\u0120\u0120\u0120\u0120\u0120\u0120\u0120\u0120\u0120\u0120\u0120\u0120\u0120\u0120\u0120\u0120\u0120\u0120\u0120\u0120\u0120\u0120\u0120\u0120\u0120\u0120\u0120\u0120\u0120\u0120\u0120":5427,"\u0120deleted":5428,"READ":5429,"\u0120Be":5430,"LETE":5431,"subprocess":5432,"LOCK":5433,"\u01202013":5434,"\u0120dat":5435,"\u0120depth":5436,"\u0120Te":5437,"\u0120warning":5438,"absolute":5439,"\u0120helper":5440,"']\",":5441,"Web":5442,"\u0120cy":5443,":``":5444,"\u0120Reserved":5445,"\u0120pd":5446,"\u0120git":5447,"\u0120IMPLIED":5448,"\u0120virtual":5449,"\u0120coordin":5450,"\u0120cases":5451,"\u0120recur":5452,"xd":5453,"NE":5454,"\u0120proper":5455,"\u0120stat":5456,"\u0120condition":5457,"FG":5458,"\u0120CAPITAL":5459,"]+)":5460,"middleware":5461,"ace":5462,"001":5463,"\u0120boto":5464,"\u0120io":5465,"57":5466,"\u0120frappe":5467,"\u0120basic":5468,"ilar":5469,"Wrapper":5470,"\u0120CO":5471,"\u0120lower":5472,"Settings":5473,"Simple":5474,"Ab":5475,"teps":5476,"\u0120private":5477,"assistant":5478,"\u0120migrations":5479,":])":5480,"optim":5481,"JSON":5482,"cesses":5483,"devices":5484,"sage":5485,"Delete":5486,"68":5487,"posed":5488,"fire":5489,"Wri":5490,"\u0120draw":5491,")(":5492,"\u0120Command":5493,"sin":5494,"\u0120nd":5495,"ools":5496,"eg":5497,"\u0120sci":5498,"\u0120analy":5499,"Unit":5500,"\u0120numbers":5501,"ane":5502,"RI":5503,"cture":5504,"Row":5505,"\u0120records":5506,"tives":5507,"deg":5508,"tit":5509,"channels":5510,"\u0120ignored":5511,"(\"-":5512,"\u0120Doc":5513,"WE":5514,"43":5515,"Interface":5516,"share":5517,"environment":5518,"\u0120pickle":5519,"\u0120prev":5520,"Document":5521,"\u0120Read":5522,"\u0120Date":5523,"mediate":5524,"HEAD":5525,"////////":5526,"\u0120menu":5527,"\u0120amount":5528,"ORY":5529,"hn":5530,"setting":5531,"failure":5532,"sitions":5533,"SV":5534,"\u0120Update":5535,"enchmark":5536,"DU":5537,"LED":5538,"NING":5539,"\u0120google":5540,"vely":5541,"amp":5542,"lent":5543,"\u0120BUT":5544,"\u0120constraint":5545,"\u01202012":5546,"istri":5547,"compare":5548,"sources":5549,"criptor":5550,"digest":5551,"\u0120Sy":5552,"Sup":5553,"400":5554,"\u0120Trans":5555,"slice":5556,"\u0120partner":5557,"\u0120contrib":5558,"Tool":5559,"high":5560,"VALID":5561,"*.":5562,"osv":5563,"\u0120might":5564,"Parameters":5565,"\u0120visit":5566,"\u0120summary":5567,"\u0120tar":5568,"\u0120links":5569,"named":5570,"tence":5571,"laces":5572,"Can":5573,",-":5574,"\u0120Rights":5575,"dummy":5576,"alg":5577,"exe":5578,"\u0120know":5579,"cancel":5580,"\u0120external":5581,"\u0120well":5582,"pay":5583,"\"]:":5584,"\u0120requested":5585,"\u0120Template":5586,"ocab":5587,"\u0120'\"":5588,"\u0120Sh":5589,"scheme":5590,"\u0120ssl":5591,"cost":5592,"compat":5593,"Jo":5594,"\u0120edge":5595,"LIB":5596,"ysql":5597,"emon":5598,"setdefault":5599,"operation":5600,"utation":5601,"\u0120DB":5602,"deleted":5603,"\u0120(-":5604,"\u0120seed":5605,"specific":5606,"versions":5607,"\u0120checks":5608,"bosity":5609,"\u0120pages":5610,"ynch":5611,"ustomer":5612,"My":5613,"\u0120RuntimeError":5614,"contains":5615,"descriptor":5616,"Files":5617,"\u0120packages":5618,"Bad":5619,"axes":5620,"\u0120currently":5621,"sian":5622,"\u0120Ne":5623,"\u0120cookie":5624,"urllib":5625,"FORMAT":5626,"IF":5627,"clar":5628,"\u0120deri":5629,"\u0120switch":5630,"\u0120dele":5631,"->":5632,"Over":5633,"\u0120Windows":5634,"\u0120targets":5635,"tax":5636,"\u0120metric":5637,"\u0120fra":5638,"dp":5639,"decor":5640,"sess":5641,"='',":5642,"inner":5643,"\u0120glob":5644,"\u0120LIMITED":5645,"worker":5646,"\u0120Web":5647,"Feature":5648,"IME":5649,"maining":5650,"\u0120gradient":5651,"vance":5652,"\u0120packet":5653,"JECT":5654,"\u0120partition":5655,"\u0120provide":5656,"disc":5657,"\u0120elem":5658,"\u0120Tra":5659,"pred":5660,"\u0120pid":5661,"\u0120own":5662,"STATUS":5663,"Record":5664,"\u0120definition":5665,"\u0120typ":5666,"literals":5667,"\u0120shared":5668,"native":5669,"\u0120suite":5670,"subscription":5671,"oid":5672,"\u0120He":5673,"Current":5674,"squ":5675,"\u0120dtypes":5676,"credentials":5677,"Description":5678,"Url":5679,"jor":5680,"\u0120words":5681,"Initial":5682,"\u0120hostname":5683,"\u0120series":5684,"9999":5685,"\u0120append":5686,"\u0120loader":5687,"rollment":5688,"\u0120Module":5689,"\u0120automatically":5690,"Select":5691,"\u0120And":5692,"Loader":5693,"processing":5694,"\u0120Ge":5695,"\u0120prop":5696,"\u0120export":5697,"GB":5698,"\u0120proc":5699,"rece":5700,"\u0120insert":5701,"aged":5702,"\u012025":5703,"Storage":5704,"\u0120states":5705,"LINE":5706,"\u0120relation":5707,"\u0120DEFAULT":5708,"ene":5709,"xxxx":5710,"CU":5711,"\u0120yet":5712,"87":5713,"figs":5714,"(',":5715,"oauth":5716,"\u0120agent":5717,"\u0120()":5718,"\u0120failure":5719,"alchemy":5720,"\u0120IOError":5721,"\u0120Other":5722,"vlan":5723,"\u0120padding":5724,"\u0120Out":5725,"LOW":5726,"\u0120interval":5727,"SU":5728,"sistent":5729,"chase":5730,"ulk":5731,"pix":5732,"priate":5733,"predict":5734,"PIPE":5735,"\u0120Argument":5736,"sel":5737,"utdown":5738,"\u0120Only":5739,"\u0120period":5740,"\u0120Remove":5741,"\u0120symbol":5742,"\u0120bits":5743,"\u0120including":5744,"sr":5745,"plotlib":5746,"getattr":5747,"\u0120Meta":5748,"(?:":5749,"\u0120deprecated":5750,"\u0120fd":5751,"\u0120openerp":5752,"\u0120tasks":5753,"\u0120ast":5754,"\u0120Example":5755,"MT":5756,"embed":5757,"\u0120dimension":5758,"Author":5759,"asy":5760,"Could":5761,"###":5762,"\u0120student":5763,"\u0120validation":5764,"Te":5765,"ario":5766,"plt":5767,"\u0120necessary":5768,"pto":5769,"Descriptor":5770,"SY":5771,"vg":5772,"\u0120flow":5773,"requests":5774,"codes":5775,"ring":5776,"41":5777,"\u0120lang":5778,"orn":5779,"tyle":5780,"\u0120md":5781,"Local":5782,"Off":5783,"istribu":5784,"Rel":5785,"gi":5786,"tv":5787,"isinstance":5788,"\u0120rate":5789,"country":5790,"ipient":5791,"Cons":5792,"\u0120actions":5793,"\u0120extensions":5794,"\u0120Raises":5795,"SP":5796,"\u0120LIABILITY":5797,"\u0120Gra":5798,"Top":5799,"tile":5800,"tries":5801,"inja":5802,"Names":5803,"Params":5804,"Keys":5805,"ashboard":5806,"bed":5807,"eded":5808,"cate":5809,"okies":5810,"\u0120saved":5811,"answer":5812,"aris":5813,"mg":5814,"records":5815,"distributions":5816,"Extra":5817,"scan":5818,"\u0120isn":5819,"\u0120regular":5820,"\u0120ok":5821,"omial":5822,"\u0120ds":5823,"\u0120security":5824,"\u0120representation":5825,"\u0120255":5826,"gu":5827,"/\"":5828,"fr":5829,"mes":5830,"\u0120norm":5831,"lies":5832,"Width":5833,"\u0120ctypes":5834,"together":5835,"\u0120These":5836,"epoch":5837,"cla":5838,"HTML":5839,"isfile":5840,"handlers":5841,"===":5842,"53":5843,"EM":5844,"comb":5845,"closed":5846,"refresh":5847,"UI":5848,"dk":5849,"builtin":5850,"\u012017":5851,"\u01202015":5852,"\u0120lists":5853,"PT":5854,"\u0120lon":5855,"Job":5856,"impl":5857,"\u0120unknown":5858,"\u0120cat":5859,"\u0120round":5860,"actual":5861,"acc":5862,"\u0120Examples":5863,"Handle":5864,"Driver":5865,"atibility":5866,"[:]":5867,"\u0120tz":5868,"FR":5869,"wx":5870,"xtures":5871,"\u0120known":5872,"\u0120Loc":5873,"strftime":5874,"Order":5875,"\u0120fname":5876,"visible":5877,"\":\"":5878,"gateway":5879,"\u0120define":5880,"archive":5881,"java":5882,"LIST":5883,"counts":5884,"changes":5885,"asset":5886,"\u012064":5887,"etc":5888,"COMP":5889,"Var":5890,"\u0120OUT":5891,"\u0120modified":5892,"\u0120attach":5893,"allowed":5894,"isdir":5895,"prev":5896,"\u0120appropriate":5897,"vie":5898,"\u0120desired":5899,"'%":5900,"compiler":5901,"Enum":5902,"DOMAIN":5903,"monitor":5904,":`.":5905,"Provider":5906,"quality":5907,"!!":5908,"pur":5909,"\u01202014":5910,"metrics":5911,"\u0120embed":5912,"wsgi":5913,"meth":5914,"\u0120happen":5915,"VM":5916,"Access":5917,"OB":5918,"Temp":5919,"variance":5920,"\u0120complex":5921,"cwd":5922,"\u0120encoded":5923,"\u0120\"{":5924,"notify":5925,"pipeline":5926,"gis":5927,"\u0120against":5928,"\u0120month":5929,"\u0120csv":5930,"\u0120representing":5931,"predi":5932,"ev":5933,"perm":5934,"\u0120Authors":5935,"pendent":5936,"\u0120gl":5937,"previous":5938,"outer":5939,"aller":5940,"lev":5941,"CODE":5942,"/')":5943,"\u0120cert":5944,"antity":5945,"ected":5946,"\u0120hosts":5947,"live":5948,"enum":5949,"tb":5950,"ynchron":5951,"\u0120Inter":5952,"href":5953,":\",":5954,"findall":5955,"members":5956,"deprecated":5957,"\u0120schedule":5958,"fixed":5959,"\u0120sources":5960,"\u0120actually":5961,"px":5962,")')":5963,"need":5964,"unity":5965,"tol":5966,"\u0120origin":5967,"\u0120something":5968,"urity":5969,"aaaa":5970,"translation":5971,"inline":5972,"\u0120\")":5973,"irtual":5974,"63":5975,"5678":5976,"initializer":5977,"ational":5978,"AV":5979,"DD":5980,"area":5981,"ited":5982,"\u00c3\u00a9":5983,"\u012042":5984,"*(":5985,"Middleware":5986,"ni":5987,":`~":5988,"roadcast":5989,"iling":5990,"\u0120BE":5991,"plan":5992,"gon":5993,"linear":5994,"\u0120~":5995,"Sequence":5996,"=\"%":5997,"(\"--":5998,"LOC":5999,"forward":6000,"\u0120identi":6001,"gle":6002,"\u0120There":6003,"amera":6004,"comments":6005,"\u0120exact":6006,"\u0120sur":6007,"hand":6008,"\u0120sets":6009,"\u0120OSError":6010,"multiple":6011,"\u012024":6012,"52":6013,"\u0120\u0120\u0120\u0120\u0120\u0120\u0120\u0120\u0120\u0120\u0120\u0120\u0120\u0120\u0120\u0120\u0120\u0120\u0120\u0120\u0120\u0120\u0120\u0120\u0120\u0120\u0120\u0120\u0120\u0120\u0120\u0120\u0120\u0120\u0120\u0120\u0120\u0120\u0120\u0120\u0120\u0120\u0120\u0120\u0120\u0120":6014,"kit":6015,"nsure":6016,"\u0120tuples":6017,"problem":6018,"ater":6019,"relative":6020,"abstract":6021,"lazy":6022,"\u0120fixed":6023,"\u0120engine":6024,"\u0120appe":6025,"_{":6026,"origin":6027,"Exist":6028,"assertAllEqual":6029,"\u0120icon":6030,"Cho":6031,"uess":6032,"\u0120certificate":6033,"lso":6034,"functions":6035,"]).":6036,"tid":6037,"SERVER":6038,"tend":6039,"\u0120builder":6040,"\u0120WH":6041,"raries":6042,"\u0120pad":6043,"rozen":6044,"\u0120strip":6045,"\u0120System":6046,"\u0120subclass":6047,"\u0120Tests":6048,"Position":6049,"\u0120cap":6050,"\u0120Invalid":6051,"SR":6052,"nx":6053,"aws":6054,"console":6055,"divid":6056,"LD":6057,"packet":6058,"\u0120ec":6059,"\u0120).":6060,"\u0120Client":6061,"tivity":6062,"DIS":6063,"ipher":6064,"stock":6065,"\u0120loaded":6066,"izes":6067,"Values":6068,"We":6069,"\u0120COPYRIGHT":6070,"\u0120listen":6071,"Args":6072,"\u0120Vi":6073,"][\"":6074,"\u0120creating":6075,"\u0120--------------------------------":6076,"\u0120slice":6077,"PU":6078,"sensor":6079,"\u0120scheme":6080,"\u0120partic":6081,"formed":6082,"LA":6083,"500":6084,"\u0120execution":6085,"\u0120scipy":6086,"agic":6087,"\u0120THIS":6088,"\u0120dependencies":6089,"97":6090,"allel":6091,"\u0120statement":6092,"\u0120dot":6093,"ctive":6094,"\u0120allows":6095,"separ":6096,"nc":6097,"struction":6098,")+":6099,"\u0120takes":6100,"blue":6101,"usters":6102,"hat":6103,"covery":6104,"Unknown":6105,"('_":6106,":',":6107,"edi":6108,"\u0120layout":6109,"aut":6110,"ffe":6111,"Schema":6112,"\u0120\"#":6113,"Password":6114,"interfaces":6115,")\")":6116,"bilities":6117,"Mon":6118,"\u0120AnsibleModule":6119,"Matrix":6120,"formats":6121,"selector":6122,"Only":6123,"\u0120low":6124,"quences":6125,"\"},":6126,"AAAA":6127,"-+":6128,"Configuration":6129,"PRESS":6130,"TC":6131,"\u0120ON":6132,"Reference":6133,"82":6134,"ever":6135,"\u0120progress":6136,"configure":6137,"lb":6138,"matches":6139,"ification":6140,"ras":6141,"direction":6142,"wiki":6143,"Shape":6144,"tract":6145,"Title":6146,"\u0120WHERE":6147,"priority":6148,"FS":6149,"bc":6150,"\u0120Dec":6151,"Inst":6152,"allclose":6153,"staff":6154,"sph":6155,"gz":6156,"\u0120argparse":6157,"Unable":6158,"geo":6159,"\u0120cm":6160,"Course":6161,"Main":6162,"latest":6163,"\u0120mar":6164,"\u0120archive":6165,"scripts":6166,"\u0120cached":6167,"Bytes":6168,"PASS":6169,"threshold":6170,"mble":6171,"conver":6172,"Make":6173,"timer":6174,"\u0120Path":6175,"\u0120future":6176,"\u0120Bo":6177,"ateway":6178,"\u0120nullable":6179,"structure":6180,"\u0120steps":6181,"prepare":6182,"\u0120arrays":6183,"\u0120atom":6184,"\u0120pairs":6185,"\u0120Message":6186,"mas":6187,"=[\"":6188,"requires":6189,"bd":6190,"(':":6191,"StringIO":6192,"define":6193,"Struct":6194,")**":6195,"partial":6196,"\u0120pi":6197,"\u0120Wor":6198,"teri":6199,"Builder":6200,"avi":6201,"veloper":6202,"\u0120rank":6203,"LEN":6204,"qa":6205,"CLASS":6206,"\u0120repe":6207,"utors":6208,"NN":6209,"\u0120answer":6210,"quiva":6211,"gration":6212,"evaluate":6213,"\u0120tearDown":6214,"helpers":6215,"Work":6216,"Serializer":6217,"_)":6218,"}'":6219,"\u0120Event":6220,"\u0120retry":6221,"\u0120world":6222,"baz":6223,"fact":6224,"Directory":6225,"\u0120rece":6226,"\u0120term":6227,"\u0120Build":6228,"Email":6229,"\u0120VM":6230,"51":6231,"sca":6232,"ERS":6233,"\u0120screen":6234,"logs":6235,"\u0120Com":6236,"\u0120trigger":6237,"clone":6238,"connected":6239,"watch":6240,"\u0120tables":6241,"ouse":6242,"\u0120XXX":6243,"\u0120authentication":6244,"Comple":6245,"\u0120backup":6246,"Does":6247,"Import":6248,"\u0120leg":6249,"\u0120updates":6250,"when":6251,"SUB":6252,"diag":6253,"\u0120bug":6254,"Reader":6255,"paces":6256,"1111":6257,"ToMany":6258,"\u0120'=',":6259,"\u0120environ":6260,"Cannot":6261,"0001":6262,"bum":6263,"ORE":6264,"blob":6265,"\u0120implemented":6266,"projects":6267,"threads":6268,"\u0120iterator":6269,"vc":6270,"\u0120compare":6271,"Pos":6272,"\u0120views":6273,"\u0120machine":6274,"readline":6275,"\u0120acc":6276,"\u0120'$":6277,"family":6278,"hort":6279,"flavor":6280,"\u0120sock":6281,"73":6282,"andas":6283,"\u0120correctly":6284,"\u0120behavior":6285,"gf":6286,"sal":6287,"illa":6288,"'+":6289,"Style":6290,"loor":6291,"Enabled":6292,"Show":6293,"TEMPL":6294,"\u0120decimal":6295,"Sum":6296,"\u01201024":6297,"\u0120inside":6298,"submit":6299,"\u0120Author":6300,"LANG":6301,"\u0120NOTE":6302,"STRING":6303,"TIONS":6304,"\u0120filenames":6305,"ading":6306,"\u0120Input":6307,"strument":6308,"Font":6309,"diffe":6310,"plain":6311,"cnt":6312,"aterial":6313,"\u0120mis":6314,"ather":6315,">')":6316,"training":6317,"ratio":6318,"uffle":6319,"\u0120\"+":6320,"ROUP":6321,"destination":6322,"\u0120player":6323,"imate":6324,"(_('":6325,"UTE":6326,"Msg":6327,"\u0120ev":6328,"\u0120timedelta":6329,"\u0120directories":6330,"VAR":6331,"Post":6332,"metaclass":6333,"igration":6334,"\u0120topic":6335,"\u0120So":6336,"erature":6337,"\u0120Source":6338,"BE":6339,"nova":6340,"']]":6341,"\u0120lin":6342,"stit":6343,"gradient":6344,"scores":6345,"venio":6346,"dense":6347,")}":6348,"gamma":6349,"dependencies":6350,"\u0120sn":6351,"\u0120factory":6352,"STATE":6353,"etail":6354,"\"})":6355,"\u0120drop":6356,"disabled":6357,"UTF":6358,"best":6359,"manifest":6360,"\u0120expand":6361,"\u0120DI":6362,"\u0120qs":6363,"\u0120Code":6364,"dividual":6365,"\u0120controller":6366,"kt":6367,"program":6368,"ceed":6369,"week":6370,"\u00e4\u00b8":6371,"\u0120sklearn":6372,"\u0120due":6373,"\u0120Simple":6374,"executable":6375,"\u0120Sta":6376,"\u0120Object":6377,"Volume":6378,"\u0120Also":6379,"ru":6380,"\u0120descriptor":6381,"\u0120cs":6382,"orizont":6383,"culate":6384,"epcopy":6385,"OLDER":6386,"\u0120Network":6387,"Hash":6388,"\u0120Can":6389,"contact":6390,"\u0120nothing":6391,"\u0120align":6392,"speed":6393,"DEF":6394,"edges":6395,"\u0120devices":6396,"ints":6397,"lists":6398,"ka":6399,"}\\":6400,"\u0120twisted":6401,"\u0120tenant":6402,"TEXT":6403,"processor":6404,"\u0120browser":6405,"\u0120simp":6406,"band":6407,"laime":6408,"xis":6409,"\u0120calling":6410,"mox":6411,"61":6412,"sphinx":6413,"cv":6414,"\u0120processing":6415,"wb":6416,"voke":6417,"expression":6418,"zed":6419,"\u0120connections":6420,"loyment":6421,"keyword":6422,"phinx":6423,"cluded":6424,"TS":6425,"OM":6426,"glob":6427,"ordering":6428,"#----------------------------------------------------------------":6429,"generic":6430,"LIN":6431,"dian":6432,"isto":6433,"________":6434,"CHAR":6435,"\u0120registry":6436,"\u0120BSD":6437,"rd":6438,"\u0120Initial":6439,"}\"":6440,"\u0120conv":6441,"\u0120Item":6442,"updates":6443,"COMM":6444,"percent":6445,"doctype":6446,"REG":6447,"inary":6448,"\u0120iterable":6449,"Changed":6450,"gres":6451,"'d":6452,"\u0120reader":6453,"chan":6454,"\u0120annot":6455,"Use":6456,"itespace":6457,"\u0120EVENT":6458,"')))":6459,"proj":6460,"\u0120Project":6461,"\u0120''.":6462,"Ret":6463,"\u0120less":6464,"2013":6465,"192":6466,"ln":6467,"\u0120working":6468,"effic":6469,"\u0120Content":6470,"pending":6471,"\u012018":6472,"\u0120writer":6473,"qs":6474,"\u0120pipeline":6475,"\u0120sensor":6476,"izard":6477,"\u0120trace":6478,"\u0120hy":6479,"\u0120counter":6480,"retry":6481,"94":6482,"Foo":6483,"getitem":6484,"scalar":6485,"\u0120pixel":6486,"\u0120neutron":6487,"ective":6488,"PREFIX":6489,"DIRECT":6490,"\u0120transport":6491,"ality":6492,"\u0120inspect":6493,"mous":6494,"\u0120parsing":6495,"\u0120double":6496,"Helper":6497,"\u0109\u0109\u0109\u0109\u0109\u0109":6498,"cmp":6499,"stone":6500,"FN":6501,"latex":6502,"\u0120book":6503,"Channel":6504,"\u0120Dict":6505,"Failure":6506,"\u0120vars":6507,"IZ":6508,"ells":6509,"bra":6510,"sibility":6511,"timezone":6512,"\u0120\u0120\u0120\u0120\u0120\u0120\u0120\u0120\u0120\u0120\u0120\u0120\u0120\u0120\u0120\u0120\u010d\u010a":6513,"Utils":6514,"\u0120revision":6515,"house":6516,"stdin":6517,"\u0120dns":6518,"traceback":6519,"loyee":6520,"orizontal":6521,"\u0120Integer":6522,"agicMock":6523,"\u0120TEST":6524,"\"%":6525,"\u0120itself":6526,"\u0120poly":6527,"oted":6528,"alloc":6529,"')(":6530,"\u0120worker":6531,"\u0120dimensions":6532,"Operation":6533,"ToManyField":6534,"cher":6535,"ancer":6536,"gmail":6537,"PES":6538,"\u0120made":6539,"ISO":6540,"inux":6541,"\u0120Line":6542,"dimension":6543,"\u0120sync":6544,"\u0120'[":6545,"\u0120\"\")":6546,"\u0120partial":6547,"patterns":6548,"addon":6549,"theme":6550,"UU":6551,"ko":6552,"assertAllClose":6553,"URCE":6554,"\u0120mem":6555,"ropy":6556,"\u0120Value":6557,"\u0120Unicode":6558,"statement":6559,"zure":6560,"\u0120bl":6561,"\u0120(_":6562,"\u0120determine":6563,"colors":6564,"\u0120templates":6565,"\u0120\"{{":6566,"\u0120metrics":6567,"based":6568,"\u0120creation":6569,"\u0120grad":6570,"\u0120stride":6571,"Selection":6572,"\u0120addresses":6573,"specs":6574,"\u0120fails":6575,"tection":6576,"\u0120hex":6577,"sizes":6578,"\u0120Cal":6579,"cepted":6580,"\u0120Server":6581,"machine":6582,"trigger":6583,"gramm":6584,"\u0120cla":6585,"Location":6586,"\u0120raises":6587,"riteri":6588,"\u0120closed":6589,"Step":6590,"pairs":6591,"assertIsInstance":6592,"Extension":6593,"\u01202016":6594,"Exit":6595,"83":6596,"\u0120threads":6597,"bob":6598,"\u0120ord":6599,"WR":6600,"Controller":6601,"ENCE":6602,"ICT":6603,"\u0120Response":6604,"\u0120Function":6605,"dence":6606,"\u0120Multi":6607,"precation":6608,"ato":6609,"Rep":6610,"\"\")":6611,"\u0120enum":6612,"Writer":6613,"xpath":6614,"\u0120formats":6615,"ighbors":6616,"\u0120Find":6617,"cid":6618,"chor":6619,"nor":6620,"resolve":6621,"REQUEST":6622,"att":6623,"pm":6624,"\u0120#:":6625,"want":6626,"\u0120provides":6627,"62":6628,"dialog":6629,"\u0120starting":6630,"dele":6631,"otes":6632,"\u0120fmt":6633,"Almost":6634,"onymous":6635,"recur":6636,"quivalent":6637,"which":6638,"NET":6639,"Role":6640,"Hello":6641,"\u0120selection":6642,"Operator":6643,"oring":6644,"editor":6645,"titions":6646,"\u0120timezone":6647,"efficient":6648,"Metadata":6649,"AF":6650,"\u0120sec":6651,"parsed":6652,"\u0120segment":6653,"\u0120duration":6654,"\u0120ur":6655,"\u0120'+":6656,"\u0120constructor":6657,"Expected":6658,"itude":6659,"Positive":6660,"2015":6661,"Tran":6662,"\u0120defer":6663,"acl":6664,"timedelta":6665,"emit":6666,"BACK":6667,"BC":6668,"\u0120components":6669,"\u0120inner":6670,"jection":6671,"\u0120configured":6672,"\u0120rot":6673,"\u0120push":6674,"draft":6675,"\u0120gr":6676,"AlmostEqual":6677,"Redirect":6678,"ITS":6679,"Agent":6680,"Sa":6681,"\u0120NULL":6682,"em":6683,"\u0120hour":6684,"\u0120'*":6685,"\u0120compiler":6686,"\u0120Output":6687,"\u0120Service":6688,"roles":6689,"walk":6690,"compress":6691,"\u0120SE":6692,"bias":6693,"93":6694,"\u0120scalar":6695,"\u0120ts":6696,"lst":6697,"NotExist":6698,"\u0120homeassistant":6699,"cogn":6700,"fun":6701,"\u0120direction":6702,"nested":6703,"Account":6704,"\u0120repository":6705,"\u0120intera":6706,"Api":6707,"Socket":6708,"without":6709,"ysi":6710,"\u0120capa":6711,"lica":6712,"\u0120wrong":6713,"FIEL":6714,"\u0120matplotlib":6715,"\u0120none":6716,"aving":6717,"deps":6718,";\":":6719,"spe":6720,"olds":6721,"\u0120prior":6722,"velop":6723,"vey":6724,"Results":6725,"inventory":6726,"\u0120good":6727,"\u0120applied":6728,"\u0120Document":6729,"same":6730,"canvas":6731,"\u0120seen":6732,"laimer":6733,"cpp":6734,"reet":6735,"dx":6736,"world":6737,"mapper":6738,"\u0120interpre":6739,"getvalue":6740,"\u0120nor":6741,"\u0120SER":6742,"rstrip":6743,"\u0120urlparse":6744,"Ali":6745,"props":6746,"TEMPLATE":6747,"tached":6748,"exer":6749,"\u0120Les":6750,"=='":6751,"KEN":6752,"\u0120builtin":6753,"lability":6754,"\u0120built":6755,"lave":6756,"\u0120Fake":6757,"234":6758,"APP":6759,"\u0120qui":6760,"ensure":6761,"Product":6762,"aging":6763,"filepath":6764,"\u0120dummy":6765,"deredDict":6766,"\u0120copies":6767,"\u0120nested":6768,"Remove":6769,"\u0120monitor":6770,"Stop":6771,"DV":6772,"more":6773,"car":6774,"preview":6775,"negative":6776,"Optional":6777,"\u0120power":6778,"ua":6779,"rupt":6780,"Package":6781,"pet":6782,"\u0120HAS":6783,"81":6784,"(\"<":6785,"follow":6786,"\u0120BY":6787,"({\"":6788,"pus":6789,"\u0120\u0120\u0120\u0120\u0120\u0120\u0120\u0120\u0120\u0120\u0120\u0120\u0120\u0120\u0120\u0120\u0120\u0120\u0120\u0120\u0120\u0120\u0120\u0120\u0120\u0120\u0120\u0120\u0120\u0120\u0120\u0120\u0120\u0120\u0120\u0120\u0120\u0120\u0120\u0120\u0120\u0120\u0120\u0120\u0120\u0120\u0120\u0120":6790,"registration":6791,"999":6792,"\u0120big":6793,"Go":6794,"\u0120secret":6795,"\u0120{}\".":6796,"failUnless":6797,"xff":6798,"\u0120candidate":6799,"openstack":6800,"DELETE":6801,"\u0120particular":6802,"coord":6803,"LY":6804,"istic":6805,"ining":6806,"umul":6807,"hr":6808,"vailability":6809,"Conn":6810,"\u0120disabled":6811,"\u0120Le":6812,"ible":6813,"\u0120disclaimer":6814,"Geometry":6815,"article":6816,"destroy":6817,"300":6818,"[(":6819,"orph":6820,"Generator":6821,"\u0120turn":6822,"\u0120FIX":6823,"collect":6824,"decimal":6825,"\u0120fs":6826,"\u012040":6827,"titude":6828,"ula":6829,"icros":6830,"\u0120route":6831,"\u0120Whether":6832,"iterator":6833,"UND":6834,"\u0120SCons":6835,"\u0120reduce":6836,"\u0120Resource":6837,"rv":6838,"white":6839,"INCLUDING":6840,"iler":6841,"under":6842,"addresses":6843,"agraph":6844,"Database":6845,")?":6846,"Component":6847,"LC":6848,"\u0120large":6849,"Timeout":6850,"\u0120queryset":6851,"\u0120clf":6852,"DoesNotExist":6853,"ManyToManyField":6854,"plus":6855,"audio":6856,"catalog":6857,"IBUTORS":6858,"allen":6859,"listdir":6860,"ital":6861,"\u0120Over":6862,"ably":6863,"\u0120IPv":6864,"\u0120Now":6865,"stage":6866,"Buffer":6867,"\"\"\")":6868,"compatible":6869,"\u0120mime":6870,"edx":6871,"{'":6872,"\u0120delay":6873,"precision":6874,"\u0120ask":6875,"tm":6876,"\u0120\"[":6877,"alf":6878,"\u0120Some":6879,"\u0120ndarray":6880,"\u0120charset":6881,"\u0120axes":6882,"licies":6883,"\u0120Lesser":6884,"@@":6885,"Contains":6886,"mq":6887,"\u0120converted":6888,"URN":6889,"2012":6890,"\u0120question":6891,"ressions":6892,"\u0120around":6893,"\u0120PROVID":6894,"clip":6895,"\u0120positive":6896,"Net":6897,"\u0120=================================================================":6898,"attrib":6899,"poll":6900,"segment":6901,"TF":6902,"\u0120ps":6903,"rable":6904,"Tab":6905,"\u0120mx":6906,"\u0120Element":6907,"sertionError":6908,"recv":6909,"initions":6910,"Container":6911,"\u0120DAMAGES":6912,"green":6913,"START":6914,"peer":6915,"\u0120cc":6916,"EP":6917,"')])":6918,"ai":6919,"Find":6920,"cene":6921,"atter":6922,"\u0120tm":6923,"assification":6924,"backends":6925,"\u0120center":6926,"Cell":6927,"inity":6928,"\u0120restri":6929,"ket":6930,"geom":6931,"2014":6932,"Print":6933,"\u0120lineno":6934,".*?":6935,"\u0120minimum":6936,"\u0120Load":6937,"\u0120La":6938,"parame":6939,"prog":6940,"Member":6941,"onical":6942,"frappe":6943,"setText":6944,"\u0120Otherwise":6945,"hd":6946,"copyright":6947,"\u0120Table":6948,"tices":6949,"strap":6950,"lying":6951,"\u0120CONTRIBUTORS":6952,"urses":6953,")-":6954,"Normal":6955,"standard":6956,"olved":6957,"\u0120arr":6958,"tor":6959,"serializer":6960,"hcp":6961,"\u0120tb":6962,"TP":6963,"LOAD":6964,"romium":6965,"authentic":6966,"\u0120cloud":6967,"Entity":6968,"\u0120ms":6969,"\u0120priority":6970,"requirements":6971,"VALUE":6972,"floating":6973,"\u0120vim":6974,"\u0120Jo":6975,"trip":6976,"]',":6977,"\u0120sqlalchemy":6978,"Suite":6979,"ETHER":6980,"Imp":6981,"\u0120Please":6982,"\u0120quote":6983,"vid":6984,"sli":6985,"have":6986,"cleanup":6987,"SIBLE":6988,"aggregate":6989,"refs":6990,"aterials":6991,"\u0120gtk":6992,"sender":6993,"\"',":6994,"\")),":6995,"coords":6996,"\u0120Ro":6997,"92":6998,"\u0120deg":6999,"pin":7000,"servation":7001,"Grid":7002,"digits":7003,"\u0120INCLUDING":7004,"Cal":7005,"\u0120company":7006,"\u0120anything":7007,"randint":7008,"ATED":7009,"\u0120Cur":7010,"\u0120readonly":7011,"\u0120}}\"":7012,"\u0120game":7013,"clusive":7014,"\u0120cross":7015,"\u0120AUTH":7016,"lyph":7017,"Iter":7018,"\u0120supplied":7019,"unlink":7020,"CLI":7021,"\u0120forward":7022,"GG":7023,"certificate":7024,"\u0120noqa":7025,"tl":7026,"\u0120dispatch":7027,"II":7028,"exact":7029,"\u0120tools":7030,"\u0120Sup":7031,"visor":7032,"\u0120Start":7033,"lict":7034,"ced":7035,"until":7036,"prompt":7037,"\u0120\u0120\u0120\u0120\u0120\u0120\u0120\u0120\u0120\u0120\u0120\u0120\u0120\u0120\u0120\u0120\u0120\u0120\u0120\u0120\u0120\u0120\u0120\u0120\u0120\u0120\u0120\u0120\u0120\u0120\u0120\u0120\u0120\u0120\u0120\u0120\u0120\u0120\u0120\u0120\u0120\u0120\u0120\u0120\u0120\u0120\u0120\u0120\u0120":7038,"Basic":7039,"endor":7040,"\u0120Each":7041,"NUM":7042,"([^":7043,"cross":7044,"ram":7045,"\u0120background":7046,"\u0120descri":7047,"Items":7048,"repository":7049,"inherit":7050,"defer":7051,"geometry":7052,">%":7053,"unctools":7054,"special":7055,"balance":7056,"pts":7057,"\u0120SU":7058,"limiter":7059,"CESS":7060,"[\\":7061,"\u0120Verify":7062,"\u012080":7063,"egg":7064,"Attr":7065,"ano":7066,"\u0120examples":7067,"Custom":7068,"estimator":7069,"Lock":7070,"\u0120according":7071,"\u0109\u0120\u0120\u0120":7072,"\u0120ssh":7073,"INST":7074,"serialized":7075,"\u0120clone":7076,"while":7077,"tention":7078,"reply":7079,"ISING":7080,"\u0120nx":7081,"CUMENT":7082,"\u0120###":7083,"sist":7084,"Tri":7085,"TYPES":7086,"cn":7087,"mesh":7088,"vn":7089,"\u0120linear":7090,"AIL":7091,"regular":7092,"\u0120SHALL":7093,"moving":7094,"cipe":7095,"Collection":7096,"Formatter":7097,"\u0120perm":7098,"\u0120NE":7099,"ctxt":7100,"ILD":7101,"arison":7102,"\u0120PROVIDED":7103,"ENTI":7104,"xs":7105,"\u0120One":7106,"\u0120upper":7107,"deli":7108,"\u0120FIXME":7109,"\u0120sha":7110,"\u0120LIABLE":7111,"101":7112,"radius":7113,"Runner":7114,"\u00e2\u0122":7115,"ctl":7116,"Last":7117,"Random":7118,"foreign":7119,"Permission":7120,"SCH":7121,"management":7122,"definition":7123,"Func":7124,"tifications":7125,"caten":7126,"\u0120price":7127,"hooks":7128,"Root":7129,"Track":7130,"connections":7131,"\u0120Is":7132,"curacy":7133,"\u0120Process":7134,"\u0120ARISING":7135,"\u0120negative":7136,"\u0120Task":7137,"\u0120registered":7138,"\u0120flask":7139,"\u0120separate":7140,"\u0120mi":7141,"\u0120WHETHER":7142,"\u0120UN":7143,"\u0120history":7144,"chars":7145,"\u0120average":7146,"\u0120handling":7147,"Skip":7148,"\u0120attempt":7149,"\u0120CONTRACT":7150,"queryset":7151,"\"]=":7152,"networks":7153,"assertAlmostEqual":7154,"WIT":7155,"\u0120'/'":7156,"\u0120team":7157,"installed":7158,"IST":7159,"\u0120Parse":7160,"\u0120precision":7161,"Fields":7162,"\u0120Cloud":7163,"subclass":7164,"'ll":7165,"Domain":7166,"panel":7167,"asis":7168,"ANCE":7169,"\u0120Ensure":7170,"getter":7171,"ders":7172,"00000":7173,"COUN":7174,"\u0120Point":7175,"Empty":7176,"eps":7177,"Sc":7178,"resolver":7179,"\u0120New":7180,"Unicode":7181,"activate":7182,"activity":7183,"migrations":7184,"realm":7185,"assertIsNone":7186,"WISE":7187,"stand":7188,"\u0120TestCase":7189,"vertical":7190,"setter":7191,"\u0120Try":7192,"\u0120Language":7193,"\u0120translation":7194,"rected":7195,"]'":7196,"oston":7197,"\u0120\u0120\u0120\u0120\u0120\u0120\u0120\u0120\u0120\u0120\u0120\u0120\u0120\u0120\u0120\u0120\u0120\u0120\u0120\u0120\u0120\u0120\u0120\u0120\u0120\u0120\u0120\u0120\u0120\u0120\u0120\u0120\u0120\u0120\u0120\u0120\u0120\u0120\u0120\u0120\u0120\u0120\u0120\u0120\u0120\u0120\u0120\u0120\u0120\u0120\u0120":7198,"tics":7199,"blems":7200,"ndarray":7201,"Tuple":7202,"\u0120OP":7203,"UPPORT":7204,"\u0120squ":7205,"\u0120basestring":7206,"oration":7207,"\u0120Extra":7208,"\u0120EXPRESS":7209,"\u0120bal":7210,"\u0120normalize":7211,"fri":7212,"Copy":7213,"CAC":7214,"rea":7215,"rol":7216,"icrosoft":7217,"\u0120servers":7218,"small":7219,"atar":7220,"IPT":7221,"\u0120DATA":7222,"saved":7223,"nl":7224,"\u0120documents":7225,"coming":7226,"\u0120retrieve":7227,"\u0120comments":7228,"\u0120bro":7229,"ii":7230,"\u0120hard":7231,"multip":7232,"ond":7233,"inger":7234,"MIT":7235,"secure":7236,"\u0120never":7237,"tire":7238,"cart":7239,"\u0120Post":7240,"ifies":7241,"star":7242,"YY":7243,"\u0120itertools":7244,"\u0120etree":7245,"witter":7246,"fragment":7247,"Backend":7248,"ascript":7249,"lour":7250,"RET":7251,"\u0120services":7252,"velopment":7253,"OFF":7254,"uom":7255,"EXA":7256,"dicate":7257,"Detail":7258,"\u0120404":7259,"\u0120zer":7260,"\u0120choice":7261,"\u0120boot":7262,"Ph":7263,"\u0120ind":7264,"\u0120beta":7265,"Wait":7266,"\u0120compatibility":7267,"today":7268,"fast":7269,"\u0120construct":7270,"appro":7271,"keywords":7272,"joint":7273,"Mark":7274,"71":7275,"Clean":7276,"bottom":7277,"ighbor":7278,"\u0120executable":7279,"Modi":7280,"ned":7281,"BB":7282,"review":7283,"('.')":7284,"Hook":7285,"pickle":7286,"avg":7287,"();":7288,"Nodes":7289,"\u0120initialize":7290,"air":7291,"1024":7292,"RPC":7293,"runtime":7294,"notification":7295,"|'":7296,"tick":7297,"\u0120Options":7298,"dag":7299,"fixtures":7300,"=('":7301,"111":7302,"\u012023":7303,"\u0120'\\\\":7304,"dependent":7305,"GROUP":7306,"Conver":7307,"\u0120Redistributions":7308,"crypted":7309,"ashes":7310,"Sample":7311,"\u0120fire":7312,"mtree":7313,"normalize":7314,"restore":7315,"|\\":7316,"\u0120How":7317,"\u0120SSL":7318,"sensitive":7319,"Person":7320,"soft":7321,"background":7322,"\u0120generic":7323,"\u0120400":7324,"\u0120decorator":7325,"uman":7326,"cryption":7327,"\u0120quot":7328,"\u0120dim":7329,"Save":7330,"\u0120{}'.":7331,"\u0120OTHERWISE":7332,"dynamic":7333,"bundle":7334,"ele":7335,"\u0120Change":7336,"uniform":7337,"ntaxError":7338,"\u0120capt":7339,"REE":7340,"\u0120resolve":7341,"([(":7342,"91":7343,"uous":7344,"cio":7345,"ADATA":7346,"avascript":7347,"ussion":7348,"GS":7349,"\u0120TORT":7350,"/.":7351,"Popen":7352,"payment":7353,"Common":7354,"Next":7355,"\u0120First":7356,"makedirs":7357,"Loop":7358,"Icon":7359,"\u0120symbols":7360,"\u0120adding":7361,"\u0120produce":7362,"aves":7363,"\u0120click":7364,"ives":7365,"\u0120started":7366,"\u0120cause":7367,"MPLES":7368,"must":7369,"padding":7370,"hide":7371,"',),":7372,"\u0120'(":7373,"mkdir":7374,"\u012022":7375,"AMES":7376,"ology":7377,"Missing":7378,"\u0120very":7379,"rst":7380,"\u0120Connection":7381,"\u0120members":7382,"vl":7383,"\u0120days":7384,"\u0120\u010d\u010d\u010a":7385,"\u0120things":7386,">\",":7387,"\u0120configure":7388,"Val":7389,"2011":7390,"\u01202010":7391,"\u0120Should":7392,"=[],":7393,"Please":7394,"\u0120dirs":7395,"aps":7396,"jar":7397,"frames":7398,"\u0120small":7399,"ike":7400,"mited":7401,"oked":7402,"thumbnail":7403,"\u0120properly":7404,"usted":7405,"\u0120{}),":7406,"symbols":7407,"compo":7408,"SIG":7409,"imation":7410,"lid":7411,"\u0120yaml":7412,"Poly":7413,"Usage":7414,"\u0120Fe":7415,"DOCUMENT":7416,"initialize":7417,"\u0120'':":7418,"Folder":7419,"jpg":7420,"bounded":7421,"\u0120500":7422,"\u0120derived":7423,"keras":7424,"\u0120':":7425,"atory":7426,"\u0120Ca":7427,"splitlines":7428,"Raw":7429,"achine":7430,"SITE":7431,"mgr":7432,"Parent":7433,"calc":7434,"\u0120Delete":7435,"Display":7436,"onal":7437,"600":7438,"\u0120effect":7439,"atype":7440,"ASK":7441,"\u0120ones":7442,"ically":7443,"Cer":7444,"\u0120syntax":7445,"finished":7446,"\u0120references":7447,"reds":7448,"checks":7449,"\u0120edi":7450,"lag":7451,"ornado":7452,"CD":7453,"stics":7454,"episode":7455,"\u01202011":7456,"\u0120threshold":7457,"\u0120'{}":7458,"\u0120ser":7459,"edu":7460,"\u0120reading":7461,"syn":7462,"bf":7463,"\u0120temporary":7464,"\u0120([":7465,"ae":7466,"organization":7467,"party":7468,"\u0120able":7469,"\u0120State":7470,"strategy":7471,"Encoder":7472,"istribution":7473,"ANSIBLE":7474,"war":7475,"\u0120cost":7476,"\u0120HOLDER":7477,"ValidationError":7478,"ana":7479,"168":7480,"average":7481,"\u0120rev":7482,"\u0120patterns":7483,"too":7484,"URI":7485,"COM":7486,"ARK":7487,"zilla":7488,"UNK":7489,"website":7490,"\u0120distutils":7491,"echo":7492,"Debug":7493,"\u0120various":7494,"\u0120Convert":7495,"\u0120gets":7496,"2010":7497,"tios":7498,"\u0120checking":7499,"\u0120interfaces":7500,"\u0120speed":7501,"operations":7502,"PACK":7503,"\u0120cpu":7504,"\u0120lex":7505,"\u0120mapper":7506,"ONG":7507,"sib":7508,"ADDR":7509,"allenge":7510,"\u0120errno":7511,"jax":7512,"king":7513,"\u0120calculate":7514,"\u0120connected":7515,"figure":7516,"XXXX":7517,"Feed":7518,"igen":7519,"rase":7520,"presen":7521,"may":7522,"\u0120shift":7523,"\u0120theme":7524,"-+-+":7525,"anded":7526,"\u0120ports":7527,"/<":7528,"\u0120Defaults":7529,"\u0120estimator":7530,"lick":7531,"PositiveIntegerField":7532,"tracker":7533,"ront":7534,"Required":7535,"\u0120ordering":7536,"METADATA":7537,"Arg":7538,"\u0120Max":7539,"tice":7540,"\u0120caller":7541,"leaf":7542,"\u0120USA":7543,"\u0120Custom":7544,"\u0120keywords":7545,"\u0120manifest":7546,"\u0120cb":7547,"AIN":7548,"CUR":7549,"Constraint":7550,"\u0120strict":7551,"\u0120(@":7552,"Height":7553,"resize":7554,"assertNotEqual":7555,"509":7556,"\u0120latest":7557,"Named":7558,"\u0120^":7559,"Engine":7560,"outube":7561,"TERN":7562,"atal":7563,"imen":7564,"heel":7565,"titles":7566,";\\":7567,"ceeded":7568,"\"+":7569,",\\":7570,"\u0120Keyword":7571,"\u0120manual":7572,"mysql":7573,"\u0120Construct":7574,"\u0120Stop":7575,"POINT":7576,"],[":7577,"\u0120\u0120\u0120\u0120\u010d\u010d\u010a":7578,"addWidget":7579,"ircle":7580,"rename":7581,"\u0120Query":7582,"ely":7583,"So":7584,"\u0120deal":7585,"PECI":7586,"}:":7587,"\u0120Arguments":7588,".+":7589,"tot":7590,"Global":7591,"('/')":7592,"\u0120metavar":7593,"cov":7594,"Qgs":7595,"COLOR":7596,"\u0120pay":7597,"ags":7598,"\u0120inventory":7599,"CONN":7600,"manage":7601,"\u0120did":7602,"zon":7603,"('#":7604,"={\"":7605,"\u0120Pri":7606,"LOGGER":7607,"\u0120\"(":7608,"=_(\"":7609,"\u0120cover":7610,"tended":7611,"volumes":7612,"cycle":7613,"gri":7614,"ducer":7615,"ndim":7616,"\u0120ri":7617,"\u0120scan":7618,"\u0120runs":7619,"\u0120channels":7620,".\"),":7621,"\u0120pretty":7622,"EVENT":7623,"fft":7624,"\u0120similar":7625,"acter":7626,"\u0120met":7627,"Rect":7628,"\u0120Str":7629,"\u0120vs":7630,"\u0120SUB":7631,"assertRaisesRegex":7632,"\u0120authentic":7633,"\u0120includes":7634,"Fake":7635,"examples":7636,"Offset":7637,"bre":7638,"ople":7639,"\u0120Oper":7640,"WORK":7641,"\u0120individual":7642,"\u0120Su":7643,"\u0120overwrite":7644,"Symbol":7645,"\u0120urls":7646,"Setting":7647,"\u0120stuff":7648,"candidate":7649,"Big":7650,"authors":7651,"mitive":7652,"IES":7653,"\u0120Boston":7654,"PP":7655,"Cmd":7656,"\u0120wrapped":7657,"2000":7658,"Sparse":7659,"certs":7660,"\u0120makes":7661,"\u0120facts":7662,"\u0120/>":7663,"/(":7664,"\"][":7665,"ident":7666,"grams":7667,"\u0120hidden":7668,"gramming":7669,"Transform":7670,"cleaned":7671,"black":7672,"moo":7673,"\u0120ordered":7674,"\u0120Lib":7675,"FFFF":7676,"tificates":7677,"qt":7678,"GIN":7679,"sections":7680,"\u0120curr":7681,"\u0120really":7682,"Send":7683,"\u0120recent":7684,"sites":7685,"\u0120codecs":7686,"\u0120three":7687,"asarray":7688,"yy":7689,"shapes":7690,".],":7691,"\u0120plan":7692,"pixel":7693,"\u0120am":7694,"Single":7695,"\u0120(?":7696,"\u0120Cl":7697,"\u0120edges":7698,"oom":7699,"\u0120Comm":7700,"started":7701,"\u0120\u0120\u0120\u0120\u0120\u0120\u0120\u0120\u0120\u0120\u0120\u0120\u0120\u0120\u0120\u0120\u0120\u0120\u0120\u0120\u0120\u0120\u0120\u0120\u0120\u0120\u0120\u0120\u0120\u0120\u0120\u0120\u0120\u0120\u0120\u0120\u0120\u0120\u0120\u0120\u0120\u0120\u0120\u0120\u0120\u0120\u0120\u0120\u0120\u0120":7702,"Active":7703,"\u0120nb":7704,"errno":7705,"Comment":7706,"Mapping":7707,"\u0120Write":7708,"\u0120dependency":7709,"\u0120sender":7710,"Dataset":7711,"\u0120hashlib":7712,"\u0120STR":7713,"\u0120IndexError":7714,"lopen":7715,"illi":7716,"]}":7717,"pout":7718,"lexible":7719,"libs":7720,"configs":7721,"\u0120rather":7722,"former":7723,"\u0120checked":7724,"cells":7725,"\u0120{%":7726,"\u0120better":7727,"\u0120processed":7728,"ATOR":7729,"ECTION":7730,"\u0120serialize":7731,"versed":7732,"\u0120learning":7733,"android":7734,"lencode":7735,"\u0120notification":7736,"\u0120mu":7737,"\u0120mm":7738,"Lexer":7739,"yncio":7740,"!\")":7741,"ism":7742,"\u0120[{'":7743,"\u0120dynamic":7744,"vr":7745,"ighted":7746,"bg":7747,"ENABLE":7748,"unter":7749,"dm":7750,"\u0120prevent":7751,"finite":7752,"\u0120face":7753,"Article":7754,"php":7755,"slots":7756,"\u0120layers":7757,"\u0120console":7758,"\u0120remaining":7759,"vanced":7760,"\u0120gu":7761,"Flags":7762,"ocial":7763,"urations":7764,"%%":7765,"Cursor":7766,"charset":7767,"\u0120Notes":7768,"readonly":7769,"`:":7770,"RED":7771,"\u0120Generate":7772,"zA":7773,"\u0120Variable":7774,"aliases":7775,"\u0120whose":7776,"Validator":7777,"\u0120Class":7778,"workflow":7779,"\u0120Don":7780,"istogram":7781,"crete":7782,"\u0120invoice":7783,"ynomial":7784,"CREATE":7785,"\u0120epoch":7786,"\u0120POST":7787,"tmpdir":7788,"MESS":7789,"lify":7790,"\u0120appear":7791,"\u0120cwd":7792,"\u0120Ga":7793,"\u0120plugins":7794,"\u0120ui":7795,"Del":7796,"silon":7797,"\u0120docs":7798,"Flag":7799,":],":7800,"Attributes":7801,"\u0120finished":7802,"\u0120rendered":7803,"\u0120warn":7804,"major":7805,"ASH":7806,"dentical":7807,"\u0120identity":7808,"hours":7809,"Virtual":7810,"logical":7811,"consumer":7812,"sale":7813,"seen":7814,"\u0120compat":7815,"\u0120dialog":7816,"unused":7817,"ands":7818,"\u0120serializer":7819,"\u0120Pass":7820,"First":7821,"got":7822,"\u0120;":7823,"\u0120Tag":7824,"accounts":7825,"acquire":7826,"\u0120explicitly":7827,"reload":7828,"}),":7829,"\u0120DIS":7830,"\u0120products":7831,"isual":7832,"windows":7833,"peak":7834,"flatten":7835,"\u0120contact":7836,"sol":7837,"\u0120runner":7838,"\u01202017":7839,"ONT":7840,"\u0120\u0120\u0120\u0120\u0120\u0120\u0120\u0120\u010d\u010d\u010a":7841,"lr":7842,"entities":7843,"#####":7844,"FUN":7845,"PH":7846,"\u0120shown":7847,"deepcopy":7848,"LAN":7849,"TIMEOUT":7850,"/(?":7851,"utions":7852,"\u0120slug":7853,"Cookie":7854,"tun":7855,"NULL":7856,"categories":7857,"\u0120give":7858,"\u0120please":7859,"\u0120reply":7860,"\u0120Skip":7861,"\u0120asset":7862,"mtime":7863,"ian":7864,"------":7865,"\u0120digits":7866,"creation":7867,"kb":7868,"lerance":7869,"\u0120share":7870,"increment":7871,"Cor":7872,"ARD":7873,"associ":7874,"produce":7875,"Pick":7876,"UUID":7877,"\u0120Cor":7878,"\u012021":7879,"trunc":7880,"\u0120pub":7881,"GTH":7882,"\u0120floating":7883,"bile":7884,"attemp":7885,"PASSWORD":7886,"\u0120Call":7887,"ivar":7888,"}',":7889,"\u0120unpack":7890,"\u0120trun":7891,".'),":7892,"\u0120dom":7893,"\u0120Ab":7894,"\u0120prompt":7895,"\u0120jobs":7896,"Decimal":7897,"litext":7898,"positive":7899,"')],":7900,"\u0120Exp":7901,"NC":7902,"dy":7903,"tis":7904,"good":7905,"Some":7906,"bro":7907,"]\"":7908,"mime":7909,"\u0120TensorFlow":7910,"tcp":7911,"\u0120sleep":7912,"ysical":7913,"supp":7914,"providers":7915,"ordered":7916,"\u0120longer":7917,"\u0120OrderedDict":7918,"slot":7919,"Space":7920,"Batch":7921,"Non":7922,":\")":7923,"ussian":7924,"ARGET":7925,"\u0120coordinates":7926,"Part":7927,"Sm":7928,"\u0120Permission":7929,"########################":7930,"dashboard":7931,"\u0120apps":7932,"Category":7933,"sigma":7934,"\u0120successfully":7935,"\u0120pie":7936,"\u0120HO":7937,"coin":7938,"\u0120Used":7939,"dal":7940,"fb":7941,"\u0120Session":7942,"loading":7943,"\u0120inline":7944,">`":7945,"dif":7946,"\u0120256":7947,"pointer":7948,"objs":7949,"Pattern":7950,"\u0120Cho":7951,"chdir":7952,"coordin":7953,"\u0120manage":7954,"MAC":7955,"EY":7956,"wt":7957,"allet":7958,"Classifier":7959,"Bit":7960,"ATCH":7961,"ball":7962,"\u0120rpc":7963,"\u012000":7964,"theta":7965,"\"\"\",":7966,"\u0120equivalent":7967,"EXAMPLES":7968,"cu":7969,"pow":7970,"\u0120mag":7971,"Exists":7972,"raps":7973,"capt":7974,"\u0120cols":7975,"EMAIL":7976,"Generate":7977,"allation":7978,"\u0120CH":7979,"\u0120won":7980,"MPLE":7981,"')):":7982,"\u0120FI":7983,"received":7984,"\u0120suc":7985,"Setup":7986,"'<":7987,"\u0120CA":7988,"mongo":7989,"\u0120syn":7990,"Success":7991,"Note":7992,"\u0120returning":7993,"\u0120'?":7994,"\u0120\\\\":7995,"\u0120gs":7996,"DT":7997,"Report":7998,"\u0120creates":7999,"['_":8000,"Inte":8001,"\u0120es":8002,"gation":8003,"modify":8004,"\u0120counts":8005,"Arch":8006,"intera":8007,"Series":8008,"\u0120ValidationError":8009,"\u0120iteration":8010,"Processing":8011,"\u0120IF":8012,"variant":8013,">=":8014,"LOCAL":8015,"Dep":8016,"=============":8017,"512":8018,"tifact":8019,"\u0120geo":8020,"cookies":8021,"\u0120uni":8022,"It":8023,"\u0120runtime":8024,"\u0120por":8025,"__',":8026,"ners":8027,"\u0120Database":8028,"\u0120enough":8029,"\u0120peer":8030,"\u0120sep":8031,"\u0120percent":8032,"xyz":8033,"\u0120multip":8034,"***":8035,"TOKEN":8036,"rypto":8037,"\u0120matched":8038,"hot":8039,"community":8040,"manual":8041,"\u0120assigned":8042,"\u0120stati":8043,"\u0120everything":8044,"repeat":8045,"alert":8046,"binding":8047,"\u00e3\u0123":8048,"fu":8049,"tip":8050,"\"/>":8051,"}{":8052,"locations":8053,"\u0120reactor":8054,"ANY":8055,"DOCUMENTATION":8056,"tential":8057,"\u0120WS":8058,"hyper":8059,"micro":8060,"XY":8061,"\u0120unless":8062,"See":8063,"()).":8064,"DEX":8065,"\u0120BO":8066,"\u0120diag":8067,"\u0120throw":8068,"Ter":8069,"DAT":8070,"\u0120Block":8071,"Abstract":8072,"Allow":8073,"attachment":8074,"kill":8075,"\u0120stage":8076,"mazon":8077,"DataFrame":8078,"\u0120cycle":8079,"\u0120modification":8080,"\u0120'&":8081,"\u0120ir":8082,"\u0120Array":8083,"\u0120RFC":8084,"\u0120PY":8085,"published":8086,"\u0120testdir":8087,"Example":8088,"Book":8089,"\u0120Comment":8090,"\u0120responses":8091,"\u0120Ret":8092,"METHO":8093,"obs":8094,"\u0120checkpoint":8095,"protected":8096,"\u0120versionadded":8097,"checksum":8098,"\u0120handlers":8099,"encoded":8100,"Windows":8101,"\u0120128":8102,"cay":8103,"\u0120atol":8104,"\u0120bottom":8105,"\u0120pip":8106,"\u0120ls":8107,"jected":8108,"\u0120migration":8109,"defs":8110,"phase":8111,"\u0120VER":8112,"\u0120executed":8113,"ully":8114,"terms":8115,"cons":8116,"\u0120regard":8117,"\u0120HOLDERS":8118,"through":8119,"ENS":8120,"\u0120GET":8121,"[[":8122,"Fin":8123,"\u0120formatted":8124,"ECK":8125,"trl":8126,"__))":8127,"vocab":8128,"Est":8129,"\u0120Des":8130,"\u0120cancel":8131,"\u0120refresh":8132,"PACE":8133,"sf":8134,"\u0120QtCore":8135,"\u0120cut":8136,"callable":8137,"docker":8138,"\u0120represents":8139,"Total":8140,"\u0120translate":8141,"\u0120SIGN":8142,"\u0120outfile":8143,"Stats":8144,"\u0120*=":8145,"drive":8146,"ores":8147,"shutdown":8148,"latforms":8149,"Stub":8150,"\u0120cleanup":8151,"checkpoint":8152,"('')":8153,"tabs":8154,"\u0120liter":8155,"Filename":8156,"(\".":8157,"THON":8158,"uit":8159,"Register":8160,"Site":8161,"digit":8162,"metrical":8163,"\u0120\u00e5":8164,"clusters":8165,"\u0120entire":8166,"\u0120angle":8167,"trols":8168,"Environment":8169,"'m":8170,"border":8171,"weet":8172,"Cluster":8173,"\u0120fragment":8174,"mentation":8175,"HEADER":8176,"Security":8177,"azure":8178,"HOME":8179,"\u0120logs":8180,"Lim":8181,"2016":8182,"\u0120Compute":8183,"\u0120serialized":8184,"linalg":8185,"imators":8186,"ye":8187,"bounds":8188,"]{":8189,"does":8190,"iterable":8191,"Verify":8192,"\u0120ATT":8193,"\u0120pygame":8194,"\u0120functools":8195,"rices":8196,"xp":8197,"\u0120Red":8198,"\u0120entities":8199,"aff":8200,"measure":8201,"vile":8202,"calendar":8203,"\u0120solution":8204,"Convert":8205,"WARNING":8206,"\u0120depends":8207,"BY":8208,"WIN":8209,"ivy":8210,"limits":8211,"constructor":8212,"parametri":8213,"CHECK":8214,"\u0120Form":8215,"phone":8216,"finish":8217,"\u0120inf":8218,"Conf":8219,"Cloud":8220,"dates":8221,"locator":8222,"('',":8223,"\u0120\u0120\u0120\u0120\u0120\u0120\u0120\u0120\u0120\u0120\u0120\u0120\u0120\u0120\u0120\u0120\u0120\u0120\u0120\u0120\u0120\u0120\u0120\u0120\u0120\u0120\u0120\u0120\u0120\u0120\u0120\u0120\u0120\u0120\u0120\u0120\u0120\u0120\u0120\u0120\u0120\u0120\u0120\u0120\u0120\u0120\u0120\u0120\u0120\u0120\u0120\u0120":8224,"\u0120Given":8225,"inel":8226,"\u0120retain":8227,"since":8228,"\u0120imports":8229,"assertNotIn":8230,"\u0120red":8231,"IAL":8232,"UBLE":8233,"\u0120httplib":8234,"\u0120er":8235,"ij":8236,"anging":8237,"NAMES":8238,"chat":8239,"concat":8240,"\u0120Decimal":8241,"INPUT":8242,"\u0120respon":8243,"rmtree":8244,"rigin":8245,"\u0120collect":8246,"stubs":8247,"\u0120scores":8248,"bian":8249,"reat":8250,"splitext":8251,"fficient":8252,"lash":8253,"health":8254,"bulk":8255,"\u0120rect":8256,"gid":8257,"](":8258,"\u0120\"\\\\":8259,"\u0120chunks":8260,"\u0120prom":8261,"continue":8262,"\u0120colors":8263,"SCR":8264,"ARCH":8265,"\u0120\"$":8266,"Na":8267,"QtCore":8268,"aste":8269,"isten":8270,"']):":8271,"Gen":8272,"\u0120conside":8273,"execution":8274,"\u0120Inte":8275,"\u0120frozen":8276,"aper":8277,"\u0120measure":8278,"\u0120Sp":8279,"\u0120area":8280,"\u0120figure":8281,"\u0120Imp":8282,"\u0120prepare":8283,"Multiple":8284,"scheduler":8285,"\u0120visible":8286,"\u0120txt":8287,"\u0120Order":8288,"\u012031":8289,"PA":8290,"+',":8291,"-\\":8292,"\u0120copied":8293,"\u0120vlan":8294,"La":8295,"PROTO":8296,"\u0120ve":8297,"\u0120mut":8298,"Split":8299,"\u0120KEY":8300,"collections":8301,"\u0120COPYING":8302,"widgets":8303,"YPE":8304,"\u0120Auto":8305,"([])":8306,"QtGui":8307,"\u0120Sphinx":8308,"curr":8309,"Timer":8310,"purchase":8311,"\u0120evalu":8312,"='/":8313,"IV":8314,"but":8315,"Choice":8316,"\u00e7\u013c":8317,"ggle":8318,"Bounded":8319,"\u0120klass":8320,"Scale":8321,"\u00e7\u013c\u0126":8322,"MUL":8323,"Left":8324,"quota":8325,"ropout":8326,"\u0120instanti":8327,"\u0120gateway":8328,"Opt":8329,"Body":8330,"maps":8331,"construct":8332,"SEQU":8333,"Transport":8334,"Json":8335,"assertIsNot":8336,"pw":8337,"([],":8338,"/$',":8339,"mid":8340,"algorithm":8341,"encoder":8342,"aniti":8343,"polation":8344,"\u0120contributors":8345,"DC":8346,"\u0120general":8347,"\u0120fo":8348,"\u0120tw":8349,"REF":8350,"\u0120Matrix":8351,"\u012051":8352,"\u0120pandas":8353,"Enter":8354,"responses":8355,"inct":8356,"\u0120predictions":8357,"\u0120altern":8358,"\u0120absent":8359,"eu":8360,"Properties":8361,"Video":8362,"hard":8363,"\u0120ATTR":8364,"Bind":8365,"swap":8366,"-------------":8367,"\u0120Generic":8368,"confirm":8369,"\u0120=>":8370,"\u0120activation":8371,"\u0120Page":8372,"rective":8373,"\u0120sin":8374,"\u0120lat":8375,"additional":8376,"\u0120verbosity":8377,"\u0120argv":8378,"anity":8379,"ads":8380,"alive":8381,"\u0120\"\"\")":8382,"dating":8383,"_'":8384,"samp":8385,"RC":8386,"\u0120Sec":8387,"\u0120AssertionError":8388,"',)":8389,"FILES":8390,"vault":8391,"__(*":8392,"hood":8393,"letter":8394,"formatter":8395,"LENGTH":8396,"CACHE":8397,"CER":8398,"fw":8399,"\u0120spaces":8400,"\u0120imported":8401,"\u0120{{":8402,"readlines":8403,"sider":8404,"\u0120loading":8405,"\u0120'.'":8406,"tensors":8407,"\u0120sqrt":8408,"\u0120LE":8409,"ues":8410,"AndReturn":8411,"\u0120cp":8412,"Proto":8413,"hint":8414,"vt":8415,"\u0120Gtk":8416,"gc":8417,"Identifier":8418,"\u0120gc":8419,"\u0120editor":8420,"!\"":8421,"\u0120Search":8422,"/*":8423,"=\"\"":8424,"cade":8425,"\u0120emit":8426,"{\"":8427,"3333":8428,"\u0120Boolean":8429,"Fi":8430,"dictionary":8431,"analysis":8432,"alect":8433,"isco":8434,"REAM":8435,"Prefix":8436,"inations":8437,"Memory":8438,"migrate":8439,"Has":8440,"rum":8441,"ories":8442,"\u0120cf":8443,"deserialize":8444,"that":8445,"svn":8446,"spi":8447,"always":8448,"lette":8449,"za":8450,"cases":8451,"\u0120Action":8452,"\u0120gran":8453,"parents":8454,"\u0120Method":8455,">,":8456,"rieve":8457,"Pol":8458,"learning":8459,"SM":8460,"chrome":8461,"experiment":8462,"spam":8463,"\u0120stdin":8464,"\u0120Admin":8465,"ENTIAL":8466,"\u0120become":8467,"graphy":8468,"izing":8469,"\u0120URI":8470,"\u0120queries":8471,"\u012028":8472,"\u0120Pack":8473,"ERY":8474,"indexes":8475,"56789":8476,"books":8477,"\u00c2\u0142":8478,"\u0120restore":8479,"NOWN":8480,"\u0120retval":8481,"MBER":8482,"Iteration":8483,"bridge":8484,"rgb":8485,"\u0120border":8486,"ObjectName":8487,"tw":8488,"\u0120incorrect":8489,"UST":8490,"RETURN":8491,"domains":8492,"vv":8493,"mpo":8494,"lux":8495,"rx":8496,"\u0120Pa":8497,"\u0120Handle":8498,"svc":8499,"Binary":8500,"issues":8501,"launch":8502,"lah":8503,"\u0120Mark":8504,"\u0120\"(('":8505,"\u0120rtol":8506,"Testing":8507,"Queryset":8508,"SHA":8509,"upgrade":8510,"MSG":8511,"mgmt":8512,"\u0120greater":8513,"\u0120orm":8514,"tenv":8515,"lg":8516,"={}":8517,"\u0120coefficient":8518,"urther":8519,"roke":8520,"\u0120|=":8521,"jac":8522,"sdk":8523,"()])":8524,"\u0120MO":8525,"\u0120computed":8526,"PK":8527,"mx":8528,"coef":8529,"ridden":8530,"TCP":8531,"\u0120cos":8532,"Lookup":8533,"\u0120successful":8534,"\u0120immediate":8535,"Expression":8536,"creator":8537,",%":8538,"TAG":8539,"\u00ef\u00bc":8540,"\u0120ear":8541,"tector":8542,"rain":8543,"\u0120optparse":8544,"\u0120[%":8545,"communic":8546,"nick":8547,"mpath":8548,"\")[":8549,"([('":8550,"RUN":8551,"\u0120Book":8552,"OPTIONS":8553,"Errors":8554,"matching":8555,"\u0120catch":8556,"\u0120Then":8557,"\u0120much":8558,"Library":8559,"\u0120whole":8560,"Section":8561,"\u0120probably":8562,"CURE":8563,"neg":8564,"Elements":8565,"Flexible":8566,"VICES":8567,"\u0120sever":8568,"\u0120radius":8569,"firewall":8570,"claration":8571,"\u0120doctest":8572,"clock":8573,"Received":8574,"\u0120maps":8575,"\u0120Inst":8576,"\u0120sequences":8577,"\u0120xb":8578,"<<":8579,"\u0120tes":8580,"prep":8581,"Panel":8582,"\u0120optimizer":8583,"SK":8584,"\u0120permitted":8585,"\u0120filtered":8586,"\u0120yes":8587,"difference":8588,"checker":8589,"Gradient":8590,"oucher":8591,"PECIAL":8592,"pd":8593,"credit":8594,"\u0120handled":8595,"\u0120freq":8596,"Authentication":8597,"[]":8598,"\u0120selector":8599,"\u0120\"*":8600,"\u0120=====":8601,"\u0120placeholder":8602,"pretty":8603,"\u0120scra":8604,"\u0120across":8605,"\u0120------------------------------------------------":8606,"csrf":8607,"=\"/":8608,"neutron":8609,"subset":8610,"misc":8611,"NONE":8612,"\u00c3\u00a1":8613,"\u0120blob":8614,"__),":8615,"))))":8616,"ended":8617,"\u012037":8618,"tistics":8619,"\u0120tensors":8620,"Play":8621,"prod":8622,"]\\":8623,"{}'.":8624,"nr":8625,"\u0120backwards":8626,"=\"\",":8627,"Render":8628,"LINK":8629,"\u0120flavor":8630,"\u0120country":8631,"\u0120constraints":8632,"getcwd":8633,"subscribe":8634,"\u0120underlying":8635,"Plot":8636,"\u0120problems":8637,"\u0120newline":8638,"RAW":8639,"ised":8640,"\u0120relationship":8641,"\u0120av":8642,"\u0120aws":8643,"OFP":8644,"\u0120difference":8645,"\u0120logic":8646,"\u0120mk":8647,"scene":8648,"Groups":8649,"COUNT":8650,"Running":8651,"\u0120considered":8652,"setObjectName":8653,"RESULT":8654,"IVE":8655,"FileName":8656,"\u0120episode":8657,"Encoding":8658,"\u0120lst":8659,"\u0120pending":8660,"FIELD":8661,"erge":8662,"logits":8663,"\u0120lar":8664,"\u0120ol":8665,"\u0120rng":8666,"DOWN":8667,"MC":8668,"FlexibleForeignKey":8669,"sci":8670,"LANGU":8671,"USED":8672,"800":8673,"utcnow":8674,"ingerprint":8675,"QuerysetEqual":8676,"\u0120strategy":8677,"ANT":8678,"Help":8679,"ADD":8680,"\u0120cast":8681,"migration":8682,"\u0120\u0120\u0120\u0120\u0120\u0120\u0120\u0120\u0120\u0120\u0120\u0120\u0120\u0120\u0120\u0120\u0120\u0120\u0120\u0120\u0120\u0120\u0120\u0120\u0120\u0120\u0120\u0120\u0120\u0120\u0120\u0120\u0120\u0120\u0120\u0120\u0120\u0120\u0120\u0120\u0120\u0120\u0120\u0120\u0120\u0120\u0120\u0120\u0120\u0120\u0120\u0120\u0120":8683,"\u0120Foo":8684,"\u0120rhs":8685,"dfs":8686,"\u0120Sign":8687,"'),)\",":8688,"\u0120parents":8689,"Generic":8690,"parametrize":8691,"ios":8692,"ino":8693,"\u0120dense":8694,"\u0120oauth":8695,"\u0120Token":8696,"Dest":8697,"needs":8698,"\u0120Def":8699,"snap":8700,"\u0120enter":8701,"().__":8702,"EMPL":8703,"\u0120solver":8704,"processors":8705,"cube":8706,"\u0120Cre":8707,"\u0120conven":8708,"assertQuerysetEqual":8709,"\u0120End":8710,"\u0120bel":8711,"\u0120sigma":8712,"idi":8713,"symmetrical":8714,"AX":8715,"bri":8716,"TARGET":8717,"ifier":8718,"\u0120filepath":8719,"DULE":8720,"\u0120OK":8721,"pull":8722,"\u0120thing":8723,"\u0120pys":8724,"\u0120conversion":8725,"\u0120fast":8726,"\u0120chars":8727,"\u0120checksum":8728,"locked":8729,"deploy":8730,"\u0120evaluate":8731,"EE":8732,"\u0120Int":8733,"\u0120rand":8734,"\u0120xmodule":8735,"coeff":8736,"/?":8737,"vered":8738,"SCHEMA":8739,"\u0120bundle":8740,"\u0120AWS":8741,"\u0120Dummy":8742,"\u0120week":8743,"\u0120js":8744,"\u0120\u0120\u0120\u0120\u0120\u0120\u0120\u0120\u0120\u0120\u0120\u0120\u0120\u0120\u0120\u0120\u0120\u0120\u0120\u0120\u0120\u0120\u0120\u0120\u0120\u0120\u0120\u0120\u0120\u0120\u0120\u0120\u0120\u0120\u0120\u0120\u0120\u0120\u0120\u0120\u0120\u0120\u0120\u0120\u0120\u0120\u0120\u0120\u0120\u0120\u0120\u0120\u0120\u0120\u0120":8745,"coverage":8746,"Enable":8747,"\u0120watch":8748,"Linear":8749,"\u0120phase":8750,"ulated":8751,"Language":8752,"\u0120Bad":8753,"\u0120300":8754,"Login":8755,"\u0120oslo":8756,"BR":8757,"customer":8758,"\u0120tp":8759,"locate":8760,"documentation":8761,"\u0120flatten":8762,"\u0120-----":8763,"Migration":8764,"Machine":8765,"\u0120hyper":8766,"written":8767,"\u0120defines":8768,"../../":8769,"unce":8770,"\u0120sol":8771,"\u0120article":8772,"udo":8773,"decoder":8774,"\u0120launch":8775,"wrapped":8776,"FEAT":8777,"subs":8778,"\u0120flush":8779,"Accept":8780,"\u0120globals":8781,"\u0120Person":8782,"////////////////":8783,"CCESS":8784,"Ip":8785,"\u0120wa":8786,"\u0120Article":8787,"listener":8788,"adow":8789,"Used":8790,"itch":8791,"\u0120light":8792,"\u0120Allow":8793,"aring":8794,"constraints":8795,"about":8796,"\u0120STATE":8797,"transpose":8798,"\u0120aggregate":8799,"met":8800,"\u0120Print":8801,"CF":8802,"\u0120materials":8803,"sic":8804,"\u0120webpage":8805,"\u0120workflow":8806,"TIM":8807,"verbosity":8808,"\u0120minutes":8809,"\u0120pointer":8810,"\u0120agree":8811,"UES":8812,"CLA":8813,"\u0120dirname":8814,"capacity":8815,"\u0120plain":8816,"Pr":8817,"-----":8818,"BUILD":8819,"lec":8820,"\u0120management":8821,"Optim":8822,"Copyright":8823,"desk":8824,"\u0120They":8825,"cenario":8826,"\u01202008":8827,"lenium":8828,"\u0120mesh":8829,"MOD":8830,"\u0120finish":8831,"Constant":8832,"\u0120ld":8833,"\u0120defaultdict":8834,"riteria":8835,"ACTI":8836,"Area":8837,"\"]),":8838,"POS":8839,"='%":8840,"Ed":8841,"\u0120Instance":8842,"sually":8843,"\u0120END":8844,"\u0120MIT":8845,"Scope":8846,"addCallback":8847,"\u0120keras":8848,"\u0120MAX":8849,"frequency":8850,"Interval":8851,"\u0120lazy":8852,"globals":8853,"\u0120inherit":8854,"ycle":8855,"ACTION":8856,"SERVICE":8857,"Spa":8858,"Region":8859,"cohort":8860,"~~~~~~~~~~~~~~~~":8861,"VEN":8862,"\u0120starts":8863,"deri":8864,"\u0120emp":8865,"cha":8866,"playlist":8867,"Axis":8868,"Byte":8869,"dhcp":8870,"\u0120Stream":8871,"Null":8872,"ABC":8873,"\u0120rout":8874,"\u0120compatible":8875,"\u0120FL":8876,"VEL":8877,"vpc":8878,"\u0120audio":8879,"\u0120car":8880,"zeug":8881,"SOCK":8882,"\u0120Current":8883,"\u0120frequency":8884,"\u0120stub":8885,"\u0120setuptools":8886,"arest":8887,"SN":8888,"quential":8889,"Screen":8890,"\u0120taken":8891,"Ansible":8892,"\u0120duplicate":8893,"seg":8894,"\u0120eps":8895,"kzeug":8896,"Initialize":8897,"hist":8898,"locals":8899,"\u0120functionality":8900,"lapsed":8901,"\u0120tol":8902,"\u0120cent":8903,"\u0120DataFrame":8904,"STREAM":8905,"\u0120libraries":8906,"\u0120consumer":8907,"Repo":8908,"\u0120Ren":8909,"\u0120ce":8910,"margin":8911,"OTE":8912,"ticket":8913,"astic":8914,"stan":8915,"fox":8916,"\u0120subscription":8917,"\u0120ready":8918,"Programming":8919,"INIT":8920,"\u0120few":8921,"DED":8922,"MESSAGE":8923,"ragma":8924,"WA":8925,"Scal":8926,"\u0120retrie":8927,"CONTENT":8928,"btn":8929,"processed":8930,"syntax":8931,"tabstop":8932,"'ve":8933,"chart":8934,"ESSION":8935,"\u0120sli":8936,"dll":8937,"\u0120AC":8938,"shake":8939,"tively":8940,"GIS":8941,"\u0120indicating":8942,"wave":8943,"Util":8944,"conditions":8945,"matched":8946,"cidr":8947,"\u0120pt":8948,"\u0120implements":8949,"IDENT":8950,"\u0120bounds":8951,"metry":8952,"union":8953,"\u0120incre":8954,"---------":8955,"lays":8956,"levant":8957,"\u0120receive":8958,"tially":8959,"Analy":8960,"\u0120lb":8961,"\u0120nest":8962,"rolled":8963,"lar":8964,"asc":8965,"\u012059":8966,"\u0120codes":8967,"\u0120Control":8968,"BLOCK":8969,"\u0120shouldn":8970,"\u0120''),":8971,"\u0120pg":8972,"foc":8973,"\u0120family":8974,"catenate":8975,"BL":8976,"\u0120exactly":8977,"dings":8978,"REC":8979,"Created":8980,"\u0120completed":8981,"\u0120inp":8982,"scen":8983,"\u0120Account":8984,"bank":8985,"CLO":8986,"\u0120fh":8987,"TEGER":8988,"\u0120trailing":8989,"\u0120nose":8990,"\u0120recursive":8991,"ante":8992,"\u0120cells":8993,"aign":8994,"\u0120Op":8995,"pread":8996,"plural":8997,"OUTPUT":8998,"\u0120Must":8999,"URES":9000,"clicked":9001,"serted":9002,"ldap":9003,"\u0120hit":9004,"\u0120slot":9005,"----------":9006,"\u0120whitespace":9007,"Sim":9008,"\u0120specifying":9009,"Mask":9010,"\u0120Format":9011,"meter":9012,"\u0120resulting":9013,"\u0120```":9014,"\u0120timer":9015,"ptime":9016,"\u0120abstract":9017,"typ":9018,"transfer":9019,"\u0120Graph":9020,"paper":9021,"\u0120upgrade":9022,"\u0120native":9023,"\u0120VAL":9024,"\u0120Queue":9025,"ientation":9026,"\u0120}),":9027,"specified":9028,"\u0120simply":9029,"\u0120guess":9030,"demo":9031,"validator":9032,"ctypes":9033,"=[]":9034,"[%":9035,"\u0120tor":9036,"\u0120chr":9037,"\u01202009":9038,"\u0120replaced":9039,"\u0120tax":9040,"\u0120Met":9041,"Release":9042,"\u0120boundary":9043,"\u0120\u0120\u0120\u010d\u010a":9044,"arrays":9045,"numeric":9046,"\u0120gamma":9047,"\"')":9048,"SIGN":9049,"\u0120logged":9050,")._":9051,"\u0120review":9052,"\u0120Since":9053,"modes":9054,"\u0120formatter":9055,"\u0120indicates":9056,"Decode":9057,"disconnect":9058,"\u0120bus":9059,"\u0120registration":9060,"Points":9061,"funcs":9062,"gre":9063,"\u0120canvas":9064,"\u0120vtk":9065,"scroll":9066,"MEDI":9067,"bn":9068,"bitrary":9069,"\u0120doing":9070,"cas":9071,"workers":9072,"\u0120Local":9073,"Eval":9074,"ROL":9075,"\u0120deli":9076,"??":9077,"ora":9078,"OPEN":9079,"\u0120With":9080,"foobar":9081,"returncode":9082,"\u0120Filter":9083,"bbox":9084,"Connect":9085,"duces":9086,"assertIsNotNone":9087,">.":9088,"Init":9089,"sione":9090,"cpus":9091,"lp":9092,"130":9093,"logo":9094,"Compute":9095,"DN":9096,"RGB":9097,"anned":9098,"\u0120Java":9099,"\u0120Select":9100,"\u0120INTER":9101,"\u0120activity":9102,"legend":9103,"\u0120fab":9104,"large":9105,"phi":9106,"kg":9107,"\u0120subset":9108,"Deferred":9109,"ranges":9110,"PDF":9111,"\u0120Basic":9112,"PN":9113,"abe":9114,"archy":9115,"\u0120numeric":9116,"Mac":9117,"\u0120Status":9118,"rating":9119,"ency":9120,"\u0120detect":9121,"Pe":9122,"har":9123,"pip":9124,"Summary":9125,"Listen":9126,"entropy":9127,"bet":9128,"annotation":9129,"\u0120\"{}":9130,"\u0120ET":9131,"ippet":9132,"\u0120alt":9133,"dual":9134,"vpn":9135,"till":9136,"SERT":9137,"\u0120ACTION":9138,"\u0120----------------":9139,"\u0120consume":9140,"\u0120Send":9141,"setitem":9142,"ki":9143,"addons":9144,"Inline":9145,"\u0120logits":9146,"precationWarning":9147,"incip":9148,"\u0120Main":9149,"\u0120alert":9150,"receiver":9151,"\u0120docker":9152,"\u0120subclasses":9153,"mass":9154,"\u0120zeros":9155,"UPDATE":9156,"FD":9157,"predictions":9158,"quent":9159,"\u0120ct":9160,"mf":9161,"\u0120categories":9162,"_[":9163,"10000":9164,"decorators":9165,"Mod":9166,"restart":9167,"\u0120fixture":9168,"supports":9169,"gene":9170,"ade":9171,"\u0120Storage":9172,"Env":9173,"Right":9174,"\u0120clip":9175,"CAS":9176,"Remote":9177,"seudo":9178,"\u0120Min":9179,"\u0120Back":9180,"\u0120currency":9181,"\u0120UP":9182,"ensemble":9183,"minimum":9184,"aci":9185,"spark":9186,"\u0120replacement":9187,"ities":9188,"\u0120Net":9189,"recipient":9190,"\u0120aff":9191,"GC":9192,"\u0120getting":9193,"numbers":9194,"'(":9195,"\u0120easy":9196,"filtered":9197,"\u0120initialized":9198,"signals":9199,"VT":9200,".'''":9201,"\u0120journal":9202,"pause":9203,"\u0120skipped":9204,"\u0120%.":9205,"nat":9206,"\u012029":9207,"marks":9208,"\u0120processes":9209,"smart":9210,"\u0120granted":9211,"rontend":9212,"Signal":9213,"iness":9214,"oute":9215,"\u0120analysis":9216,"MULTI":9217,"internet":9218,"\u0120Result":9219,"\u0120framework":9220,"oose":9221,"\u0120MagicMock":9222,"eager":9223,"fileno":9224,"VS":9225,"\u0120Sa":9226,"LOB":9227,"daemon":9228,"square":9229,"termine":9230,"\u0120UUID":9231,"clf":9232,"\u0120Context":9233,"vides":9234,"Install":9235,"forum":9236,"Red":9237,"identi":9238,"\u0120Exec":9239,"mouse":9240,"nav":9241,"ggest":9242,"aming":9243,"pie":9244,"\u012026":9245,"ategorical":9246,"tls":9247,"\u0120POS":9248,"places":9249,"Console":9250,"artist":9251,"BAD":9252,"inted":9253,"\u0120ws":9254,"priv":9255,"bib":9256,"bindings":9257,"\u0120fallback":9258,"METHOD":9259,"Django":9260,"\u0120\"\":":9261,"\u0120bias":9262,"\u0120ipv":9263,"\u0120iterations":9264,"\u0120merged":9265,"\u0120trying":9266,"Done":9267,"}]":9268,"lared":9269,"ssue":9270,"\u0120cach":9271,"\u0120vo":9272,"ticks":9273,"\u0120Label":9274,"\u0120ke":9275,"\u0120Assert":9276,"\u0120WSGI":9277,"MAL":9278,"\u0120having":9279,"lanation":9280,"Zip":9281,"\u0120mount":9282,"GT":9283,"\u0120markup":9284,"\u0120displayed":9285,"\u0120sending":9286,"Rate":9287,"TESTFN":9288,"\u0120Lay":9289,"removed":9290,"\u0120Place":9291,"ellow":9292,"levels":9293,"FAIL":9294,"\u0120DIRECT":9295,"\u0120Creates":9296,"\u0120accepted":9297,"postgres":9298,"^^":9299,"\u0120Random":9300,"CFG":9301,"\u0120eas":9302,"iface":9303,"\u0120tok":9304,"Align":9305,"=''):":9306,"PARAM":9307,"120":9308,"Widgets":9309,"TICE":9310,":/":9311,"quit":9312,"ffi":9313,"\u0120Empty":9314,"cep":9315,"los":9316,"Append":9317,"\u0120handles":9318,"\u0120restart":9319,"\u0120ss":9320,"\u0120detail":9321,"\u0120Map":9322,"\u012090":9323,"\u0120tail":9324,"iki":9325,"fk":9326,"\u0120GL":9327,">\")":9328,"contenttypes":9329,"vtk":9330,"\u0120RPC":9331,"prox":9332,"structions":9333,"TABLE":9334,"bp":9335,"\u0120[(\"":9336,"\u0120signals":9337,"mobile":9338,"\u0120separator":9339,"\u0120Char":9340,"restype":9341,"\u0120disp":9342,"\u0120\u0120\u0120\u0120\u0120\u0120\u0120\u0120\u0120\u0120\u0120\u0120\u0120\u0120\u0120\u0120\u0120\u0120\u0120\u0120\u0120\u0120\u0120\u0120\u0120\u0120\u0120\u0120\u0120\u0120\u0120\u0120\u0120\u0120\u0120\u0120\u0120\u0120\u0120\u0120\u0120\u0120\u0120\u0120\u0120\u0120\u0120\u0120\u0120\u0120\u0120\u0120\u0120\u0120":9343,"\u0120recipient":9344,"((\"":9345,"\u0120AL":9346,"sqlite":9347,"\u0120gettext":9348,"ardown":9349,"\u0120going":9350,"=\\\"":9351,"hw":9352,"horizontal":9353,"\u0120docstring":9354,"Static":9355,"ILED":9356,"ji":9357,"'\")":9358,"\u0120Host":9359,"\u0120passing":9360,"\u0120filesystem":9361,"iodic":9362,"\u0120coordinate":9363,"ami":9364,"commen":9365,"DESCR":9366,"HttpRequest":9367,"filenames":9368,"vendor":9369,"\u0120GOO":9370,"bins":9371,"ny":9372,"--------------":9373,"('{":9374,"\u0120outside":9375,"\u0120normalized":9376,"\u0120CONN":9377,"Unexpected":9378,"rical":9379,"\u0120\":":9380,"tour":9381,"PROJECT":9382,"MAN":9383,"movie":9384,"generated":9385,"\u0120letter":9386,"itation":9387,"\u0120SPECIAL":9388,"\u0120compression":9389,"thernet":9390,"2017":9391,"codec":9392,"irth":9393,"\u0120circ":9394,"\u0120manually":9395,"tell":9396,"Shell":9397,";'":9398,"OIN":9399,"\u0120locals":9400,"Algorithm":9401,"NotFoundError":9402,"\u0120increment":9403,"Xml":9404,"/\",":9405,"\u0120Address":9406,"........":9407,"Sensor":9408,"uk":9409,"\u0120aggreg":9410,"Creates":9411,"\u0120weak":9412,"\u0120requirements":9413,"abstractmethod":9414,"\u0120Access":9415,"\u0120today":9416,"argtypes":9417,"gw":9418,"\u0120cond":9419,"sudo":9420,"kv":9421,"\u0120Sim":9422,"\u0120nume":9423,"\u0120SP":9424,"))]":9425,"Bound":9426,"room":9427,"rac":9428,"FITS":9429,"neighbors":9430,"queries":9431,"\u0120further":9432,"WITH":9433,"mooth":9434,"ancy":9435,"ENAME":9436,"]=":9437,"rove":9438,"\u0120nn":9439,"locity":9440,"\u0120outer":9441,"\u0120POINTER":9442,"uplicates":9443,"ftp":9444,"Err":9445,"\u0120reproduce":9446,"sect":9447,"\u0120remain":9448,"orizon":9449,"Cleanup":9450,"\u0120View":9451,"secs":9452,"boto":9453,"ArgumentParser":9454,"ypes":9455,"dirty":9456,"roper":9457,"employee":9458,"chr":9459,"forma":9460,"itecture":9461,"catch":9462,"\u0120sg":9463,"arrow":9464,"assertRaisesRegexp":9465,"${":9466,"\u0120pred":9467,"\u0120contin":9468,"/\\":9469,"\u0120vocab":9470,"activation":9471,"MIS":9472,"ildcard":9473,"perf":9474,"CADE":9475,"\u0120DISCLA":9476,"modulestore":9477,"into":9478,"\u012027":9479,"MODULE":9480,"Identity":9481,"TL":9482,"Called":9483,"spawn":9484,"CLIENT":9485,"Events":9486,"\u0120ln":9487,"\u0120fu":9488,"\u0120vectors":9489,"separator":9490,")['":9491,"quantity":9492,"\u0120encoder":9493,"rypy":9494,"Editor":9495,"2009":9496,"general":9497,"\u0120mapped":9498,"adapter":9499,"BIN":9500,"\u0120adds":9501,"Assert":9502,"\u0120unused":9503,"altern":9504,"\u0120Symbol":9505,"\u0120ty":9506,"Pi":9507,"album":9508,"Pay":9509,"Switch":9510,"working":9511,"guest":9512,"sively":9513,"\u0120languages":9514,"inp":9515,"\u0120coord":9516,"\u0120DNS":9517,"rad":9518,"las":9519,"?',":9520,"Software":9521,"csr":9522,"LP":9523,"courses":9524,"\u0120\\\"":9525,"mn":9526,"\u0120didn":9527,"profiles":9528,"\u0120${":9529,"\u0120white":9530,"outine":9531,"lio":9532,"\u0120experiment":9533,"Cancel":9534,"\u0120retries":9535,"stic":9536,"surface":9537,"rences":9538,"\u0120'%(":9539,":,":9540,"\u0120waiting":9541,"SEQUENTIAL":9542,"\u0120places":9543,"legacy":9544,"\u0120nargs":9545,"retries":9546,"\u0120dates":9547,"ynchronous":9548,"pagin":9549,"Reset":9550,"+=":9551,"\u0120ugettext":9552,"\u0120fun":9553,"slash":9554,"\u0120submit":9555,"\u0120ratio":9556,"ilent":9557,"01234":9558,"mpaign":9559,"\u0120AUTHORS":9560,"lc":9561,"\u0120transfer":9562,"herited":9563,"\u0120pin":9564,"\u0120qual":9565,"shop":9566,"Draw":9567,"VIE":9568,"optimizer":9569,"RY":9570,"fallback":9571,"`)":9572,"Full":9573,"\u0120notify":9574,"\u0120Email":9575,"fetchall":9576,"failures":9577,"authorized":9578,"NOR":9579,"USERNAME":9580,"Den":9581,"\u0120bases":9582,"\u0120java":9583,"TRAN":9584,"strptime":9585,"\u0120Save":9586,"Schedule":9587,"\u0120Work":9588,"minutes":9589,"\u0120==============================================================================":9590,"SyntaxError":9591,"fid":9592,"CMD":9593,"sibly":9594,"ORIZ":9595,"ables":9596,"IMAGE":9597,"\u0120frames":9598,"det":9599,"\u0120certain":9600,"andatory":9601,"\u0120polling":9602,"\u0120LOSS":9603,"\u0120Environment":9604,"\u0120quality":9605,"\u0120SO":9606,"\u0120Mon":9607,"rics":9608,"estimators":9609,"\u0120roles":9610,"\u0120pixels":9611,"simul":9612,"ander":9613,"STIT":9614,"\u0120specifies":9615,"\u0120realm":9616,"capabilities":9617,"gence":9618,"\u0120locations":9619,"ortran":9620,"Dele":9621,"---+":9622,"tzinfo":9623,"*',":9624,"dbot":9625,"vin":9626,"\u0120Bit":9627,"\u0120br":9628,"\u0120({":9629,"KeyError":9630,"topics":9631,"aw":9632,"solve":9633,"\u0120integers":9634,"Win":9635,"\u0120CFG":9636,"!=":9637,"\u0120CONSEQUENTIAL":9638,"Represent":9639,"\u0120sqlite":9640,">[":9641,"AST":9642,"Pix":9643,"\u0120fully":9644,"land":9645,"Conv":9646,"equals":9647,"\u0120catalog":9648,"xi":9649,"\u0120Vector":9650,"\u0120fact":9651,"\u0120################################":9652,"\")]":9653,"\u0120looking":9654,"\u0120literal":9655,"noise":9656,";\"":9657,"\u0120thumbnail":9658,"Features":9659,"*\\":9660,"Sets":9661,"\u00e4\u00bb":9662,"\u0120initi":9663,"\u0120coverage":9664,"ims":9665,"uber":9666,"\u0120helpers":9667,"\u0120geom":9668,"nbsp":9669,"\u0120au":9670,"ERP":9671,"rator":9672,"arc":9673,"lare":9674,"unctuation":9675,"Fixed":9676,"\u0120building":9677,"assertContains":9678,"Internal":9679,"IGENCE":9680,"chunks":9681,"\u0120website":9682,"nic":9683,"\u0120Plugin":9684,"javascript":9685,"maximum":9686,"Registry":9687,"ao":9688,"\u0120band":9689,"posix":9690,"sink":9691,"broadcast":9692,"\u0120authors":9693,"\u0120Initialize":9694,"GLIGENCE":9695,"\u0120cn":9696,"After":9697,"PLAY":9698,"randn":9699,"guid":9700,"\u0120204":9701,"means":9702,"\u0120ARE":9703,"199":9704,"(\"_":9705,"temperature":9706,"GEN":9707,"\u0120indexes":9708,"\u0120leave":9709,"rollback":9710,"Push":9711,"Zero":9712,"\u0120validator":9713,"Adapter":9714,"\u00e3\u0124":9715,"ctionaries":9716,"dicts":9717,"\u0120INC":9718,"Checker":9719,"]-":9720,"dtemp":9721,"\u0120INDIRECT":9722,"QUE":9723,"shard":9724,"\u0120RO":9725,"\u0120contributor":9726,"\u0120sizes":9727,"rier":9728,"(\"\")":9729,"\u0120PROFITS":9730,"\u0120classifier":9731,"season":9732,"linspace":9733,"ggreg":9734,"\u0120Bytes":9735,"\u0120dx":9736,"semb":9737,"UPER":9738,"ddt":9739,"STITUTE":9740,"\u0120\"\"\"\\":9741,"AUT":9742,"\u0120restriction":9743,"Double":9744,"\u0120alph":9745,"\u0120Geo":9746,"180":9747,"Decoder":9748,"Pipe":9749,"\u0120salt":9750,"\u0120initializer":9751,"\u0120MySQL":9752,"\u0120variant":9753,"\u00d0\u00b0":9754,"UTC":9755,"SOURCE":9756,"\u0120leaf":9757,"sessions":9758,"}))":9759,"checked":9760,"\u0120pagin":9761,"etree":9762,"\u0120zipfile":9763,"\u0120windows":9764,"\u0120scripts":9765,"RUP":9766,"\u0120delimiter":9767,"\u0120parallel":9768,"\u0120deploy":9769,"benchmark":9770,"META":9771,"bootstrap":9772,"={},":9773,"\u0120Override":9774,"dependency":9775,"survey":9776,"Player":9777,"repos":9778,"\u0120ticket":9779,"\u0120TABLE":9780,"('__":9781,"velopers":9782,"bgp":9783,"meri":9784,"Fetch":9785,"TLS":9786,"\u0120ut":9787,"wrong":9788,"\u0120pdf":9789,"(\"[":9790,"\u0120attached":9791,"\u0120et":9792,"\u0120Rel":9793,"blog":9794,"\u0120gyp":9795,"\u0120quotes":9796,"dialect":9797,"aux":9798,"rouped":9799,"Move":9800,"Timestamp":9801,"\u00e5\u0131":9802,"\u0120fore":9803,"\u01202006":9804,"\u0120xmlns":9805,"SING":9806,"\u0120classi":9807,"degree":9808,"Lines":9809,"relu":9810,"Temporary":9811,"was":9812,"Public":9813,"communicate":9814,"lihood":9815,"\u0120noise":9816,"\u0120widgets":9817,"tency":9818,"\u01202007":9819,"\u0120HE":9820,"\u0120Float":9821,"\u0120NEGLIGENCE":9822,"retri":9823,"perms":9824,"\u0120performance":9825,"\u0120detected":9826,"\u0120basename":9827,"\u0120micro":9828,"spaces":9829,"\u0120benchmark":9830,"kl":9831,"LEVEL":9832,"ocus":9833,"\u0120pp":9834,"epochs":9835,"take":9836,"Topic":9837,"anted":9838,"\u0120issues":9839,"Renderer":9840,"\u0120macro":9841,"consume":9842,"Disk":9843,"gpl":9844,"\u0120payment":9845,"\u0120soft":9846,"ISED":9847,"intercept":9848,"\u0120charge":9849,"itable":9850,"\u0120Sets":9851,"Transaction":9852,"Upload":9853,"Distribution":9854,"orator":9855,"nm":9856,"cms":9857,"\u0120shall":9858,"DEVICE":9859,"\u0120learn":9860,"\u0120assignment":9861,"camera":9862,"classi":9863,"fee":9864,"lv":9865,"TEMP":9866,"Db":9867,"wind":9868,"\u0120extended":9869,"\u0120hold":9870,"calculate":9871,"}_":9872,"confir":9873,"inspect":9874,"Mar":9875,"\u0120Thread":9876,"decorator":9877,"tempdir":9878,"bing":9879,"clause":9880,"\u0120air":9881,"\u0120Manage":9882,"dead":9883,"\u0120overrides":9884,"stmt":9885,"\u0120Invenio":9886,"DP":9887,"amb":9888,"normpath":9889,"tage":9890,"]')":9891,"TOP":9892,"realpath":9893,"NODE":9894,"\u0120ide":9895,"\u0120production":9896,"3600":9897,"\u0120pprint":9898,"kwds":9899,"###############################################################################":9900,"\u0120distribute":9901,"opro":9902,"\u0120void":9903,"solver":9904,"simp":9905,"dicator":9906,"ju":9907,"urlencode":9908,"rnn":9909,"both":9910,"such":9911,"Long":9912,"\u0120css":9913,"ildbot":9914,"\u0120compiled":9915,"250":9916,"\u0120Cer":9917,"Game":9918,"enc":9919,"\u0120occurred":9920,"mut":9921,"\u0120pull":9922,"tainer":9923,"ov":9924,"stable":9925,"assignment":9926,"copg":9927,"\u0120deserialized":9928,"([-":9929,"BadRequest":9930,"collector":9931,"extends":9932,"\u0120initialization":9933,"bold":9934,"\u0120-->":9935,"balancer":9936,"frac":9937,"****************************************************************":9938,"gge":9939,"Real":9940,"\u0120expressions":9941,"\u0120limits":9942,"\u0120OAuth":9943,"'[":9944,"ilo":9945,"\u0120eigen":9946,"kely":9947,"\u0120UTF":9948,"$')":9949,"assets":9950,"\u0120May":9951,"ulip":9952,"\u0120ADV":9953,"\u0120listener":9954,"\u0120decoder":9955,"TIF":9956,"Prop":9957,"youtube":9958,"parsers":9959,"}\",":9960,"atable":9961,"\u0120rs":9962,"NUMBER":9963,"literal":9964,"\u0120prediction":9965,"phrase":9966,"\u0120systems":9967,"\u0120overridden":9968,"bidden":9969,"\u0120comparison":9970,"\u0120statistics":9971,"CAP":9972,"PG":9973,"\u0120dag":9974,"IMED":9975,"Limit":9976,"\u0120vpc":9977,"\u0120roll":9978,"Definition":9979,"LB":9980,"Desc":9981,"\u0120seg":9982,"\u0120BUS":9983,"Any":9984,"LAY":9985,"\u0120localhost":9986,"\u0120Linux":9987,"xxx":9988,"\u0120serializers":9989,"(\",":9990,"ACCESS":9991,"\u0120daemon":9992,"INDEX":9993,"cognized":9994,"dup":9995,"policies":9996,"boxes":9997,"\u0120Parameter":9998,"\u0120margin":9999,"setattr":10000,"enrollment":10001,"('''":10002,"xFF":10003,"Configured":10004,"datastore":10005,"\u0120beginning":10006,"\u0120Attributes":10007,"orse":10008,"\u0120third":10009,"poses":10010,"\u0120:]":10011,"Structure":10012,"processes":10013,"RequestHandler":10014,"WH":10015,"\u0120$(":10016,"scr":10017,"Namespace":10018,"\u0120blue":10019,"Platform":10020,"ORD":10021,".+?":10022,"STATIC":10023,"\u0120\u00d0":10024,"Combo":10025,"\u0120SUBSTITUTE":10026,"gain":10027,"registered":10028,"outfile":10029,"\u0120comma":10030,"!')":10031,"RF":10032,"\u0120However":10033,"strong":10034,"datasets":10035,"markup":10036,"...,":10037,"\u0120definitions":10038,"=\"\"\"":10039,"\u0120stock":10040,"LEFT":10041,"circ":10042,"Place":10043,"\u0120identify":10044,"IDD":10045,"\u0120DEBUG":10046,"callbacks":10047,"editable":10048,"Compiler":10049,"Word":10050,"()['":10051,"DA":10052,"ham":10053,"=\",":10054,"PM":10055,"\u0120tk":10056,"what":10057,"Packet":10058,"There":10059,"recursive":10060,"semble":10061,"\u0120cookies":10062,"=_('":10063,"\u0120addition":10064,"ima":10065,"\u0120nt":10066,"\u0120several":10067,"\u0120gui":10068,"tan":10069,"inverse":10070,"\u0120Configuration":10071,"crypto":10072,"duplicate":10073,"annotations":10074,"slave":10075,"\u0120Forti":10076,"logout":10077,"ZZ":10078,"lastic":10079,"containers":10080,"\u0120props":10081,"\u0120predict":10082,"videos":10083,"\u0120signed":10084,"aggreg":10085,"atoms":10086,"focus":10087,"\u0120live":10088,"Utf":10089,"perform":10090,"\u0120shapes":10091,"Media":10092,"\u0120frozenset":10093,"\u0120CPU":10094,"INESS":10095,"\u0120TYPE":10096,"WRITE":10097,"\u0120bra":10098,"\u0120together":10099,"\u0120dialect":10100,"rit":10101,"noti":10102,"\u0120tzinfo":10103,"\u0120implicit":10104,"Vari":10105,"\u0120previously":10106,"\u0120licenses":10107,"imize":10108,"Pop":10109,"DL":10110,"\u0120Non":10111,"\u012035":10112,"decl":10113,"\u0120broadcast":10114,"TeX":10115,"receive":10116,"\u0120Sequence":10117,"\u0120performed":10118,"urlopen":10119,"\u0120depending":10120,"\u0120Tree":10121,"\u0120bi":10122,"033":10123,"Ids":10124,"\u0120STRICT":10125,"125":10126,"Bool":10127,"WNER":10128,"incipal":10129,"...\")":10130,"(\"#":10131,"\u0120failures":10132,"\u0120poll":10133,"ATFORM":10134,"ggered":10135,"\u0120Link":10136,"\u0120levels":10137,"hexdigest":10138,"EMP":10139,"repeated":10140,"stor":10141,"compressed":10142,"erce":10143,"third":10144,"Distance":10145,"TOOL":10146,"ering":10147,"TODO":10148,"Small":10149,"eng":10150,"\u0120had":10151,"ECore":10152,"bsocket":10153,"\u0120approx":10154,"\u0120prox":10155,"bolic":10156,"Interrupt":10157,"Browser":10158,"isc":10159,"energy":10160,"FLAG":10161,"going":10162,"\u0120xbmc":10163,"...\"":10164,"\u0120regression":10165,"wi":10166,"gral":10167,"connector":10168,"\u0120Color":10169,"\u0120hours":10170,"pared":10171,"\u0120WAY":10172,"\u0120DISCLAIMED":10173,"\u0120card":10174,"\u0120firewall":10175,"\u0120immediately":10176,"uv":10177,"\u0120aren":10178,"extras":10179,"0000000":10180,"little":10181,"SIBILITY":10182,"IDENTAL":10183,"=\\":10184,"three":10185,"\u0120tornado":10186,"doctest":10187,"Other":10188,"Insert":10189,"tenance":10190,"Contents":10191,"remaining":10192,":]:":10193,"ech":10194,"\u0120['-":10195,"\u0120addon":10196,"$(":10197,"yield":10198,"\u0120Fa":10199,"ada":10200,"graphic":10201,"production":10202,"gtk":10203,"])[":10204,"\u0120dn":10205,"501":10206,"feat":10207,"fetchone":10208,"\u0120SERVICES":10209,"\"><":10210,"\u0120ADVISED":10211,"adoop":10212,"\u0120wave":10213,"ajax":10214,"\u0120iris":10215,"rfc":10216,"\u0120datastore":10217,"\u0120eff":10218,"vd":10219,"/{}":10220,"\u0120SUCH":10221,"\u0120INTERRUP":10222,"\u0120INCIDENTAL":10223,"\u0120obs":10224,"\u0120dup":10225,"scriptors":10226,"\u0120Ass":10227,"pdb":10228,"\u0120sections":10229,"\u0120calib":10230,"\u0120cmp":10231,"\u0120Param":10232,"))[":10233,"quiet":10234,"CASCADE":10235,"qos":10236,"tablename":10237,"Actions":10238,"fq":10239,"Headers":10240,"Monitor":10241,"\u0120BUSINESS":10242,"protobuf":10243,"\u0120POSSIBILITY":10244,"\u0120EVEN":10245,"\u0120Standard":10246,"\u0120gradients":10247,"maybe":10248,"\u0120Unit":10249,"Download":10250,"who":10251,"LOAT":10252,"CUREMENT":10253,"\u0120GOODS":10254,"\u0120networks":10255,"weak":10256,"WEVER":10257,"\u0120Additional":10258,"\u0120iso":10259,"filesystem":10260,"SubElement":10261,"\u0120care":10262,"ModelAdmin":10263,"EMPLARY":10264,"'\\\\":10265,"\u0120renderer":10266,"whitespace":10267,"\u0120DAMAGE":10268,"\u0120abort":10269,"\u0120Uti":10270,"002":10271,"sures":10272,"converter":10273,"Replay":10274,"2222":10275,"TON":10276,"shuffle":10277,"ares":10278,"\u0120making":10279,"Extractor":10280,"\u0120theta":10281,"\u0120Usage":10282,"\u0120'-'":10283,"\u0120HOWEVER":10284,"relationship":10285,"crets":10286,"dry":10287,"subdir":10288,"LIMIT":10289,"\u0120higher":10290,"MagicMock":10291,"\u0120:,":10292,"\u0120Device":10293,"\u0120digest":10294,"2008":10295,"formset":10296,"\u0120leading":10297,"__:":10298,"PON":10299,"fx":10300,"\u0120Required":10301,"\u0120EXEMPLARY":10302,"\u0120THEORY":10303,"Click":10304,"\u0120PROCUREMENT":10305,"cipher":10306,"dash":10307,"ster":10308,"\u0120INTERRUPTION":10309,"idle":10310,"tok":10311,"streams":10312,"\u0120CAUSED":10313,"\u0120topo":10314,"\u0120EOF":10315,"\u012002":10316,"\u0120smart":10317,"\u00e6\u013e":10318,"\u0120NON":10319,"includes":10320,"ctrl":10321,"\u0120generation":10322,"\u0120NOTICE":10323,"NA":10324,"paque":10325,"\u0120usually":10326,"Clear":10327,"\u0120arbitrary":10328,"\u0120IDs":10329,"\u0120tile":10330,"Iterator":10331,"GPL":10332,"lstrip":10333,"xblock":10334,"illing":10335,"submission":10336,"\u0120terminal":10337,"availability":10338,"\u0120age":10339,"AMP":10340,"\u0120azure":10341,"\u0120Enum":10342,"\u0120listed":10343,"\u0120URLs":10344,"\u0120specification":10345,"\u0120DRAW":10346,"Information":10347,"++++":10348,"managed":10349,"\u0120na":10350,"abcdef":10351,"\u0120polynomial":10352,"\u0120fabric":10353,"minor":10354,"\u0120regarding":10355,"directed":10356,"Program":10357,"\u0120Migration":10358,"SECRE":10359,"\u0120inverse":10360,"\u0120volumes":10361,"fileobj":10362,"rho":10363,"anonymous":10364,"completed":10365,"superuser":10366,"\u0120ownership":10367,"presented":10368,"partitions":10369,"PATTERN":10370,"uro":10371,"\u0120Port":10372,"annotate":10373,"\u0120cd":10374,"outline":10375,"skipUnless":10376,"\u0120CONNECTION":10377,")})":10378,"\u0120black":10379,"\u0120Enable":10380,"MODEL":10381,"\u0120promote":10382,"\u0120'..":10383,"\u0120xy":10384,"\u0120soup":10385,"gradients":10386,"xm":10387,"urement":10388,"AML":10389,"xF":10390,"\u0120choose":10391,"\u0120tick":10392,"\u0120Poly":10393,"ToOne":10394,"\u01202004":10395,"klass":10396,"REGEX":10397,"\u00d0\u00b5":10398,"Certificate":10399,"RENT":10400,"\u0120positions":10401,"CHO":10402,"topology":10403,"Should":10404,"orth":10405,"\u0120'{{":10406,"\u0120permit":10407,"Execute":10408,"\u0120panel":10409,"minute":10410,"pci":10411,"reo":10412,"pyc":10413,"uestion":10414,"\u0120SSH":10415,"CEPT":10416,"\u0120Library":10417,"positions":10418,"INET":10419,"\u0120shard":10420,"\u0120---":10421,"UNKNOWN":10422,"SG":10423,"\u0120Mac":10424,"\u0120moment":10425,"documents":10426,"replica":10427,"authenticated":10428,"COMMAND":10429,"\u0120gives":10430,"Da":10431,"licas":10432,"Progress":10433,"\u0109\u0109\u0109\u0109\u0109\u0109\u0109":10434,"\u0120LEFT":10435,"\u0120Dele":10436,"\u0120magic":10437,"nec":10438,"\u0120\"/\"":10439,"Operations":10440,"chemas":10441,"scriber":10442,"\u0120formset":10443,"servations":10444,"pan":10445,"Endpoint":10446,"FEATURES":10447,"lask":10448,"odb":10449,"extended":10450,"macro":10451,"fh":10452,"xxxxxxxx":10453,"hasattr":10454,"Details":10455,"asing":10456,"']],":10457,"Tags":10458,"\u0120substit":10459,"\u0120Exten":10460,"\u0120staff":10461,"ython":10462,"andbox":10463,"\u0120compo":10464,"LES":10465,"\u00d0\u00be":10466,"\u0120rename":10467,"\u0120refer":10468,"cont":10469,"needed":10470,"Mapper":10471,"describe":10472,"renderer":10473,"endly":10474,"Users":10475,"?\\":10476,"grp":10477,"sistency":10478,"scra":10479,"ONLY":10480,"('^":10481,"\";":10482,"\u0120Tri":10483,"Zone":10484,"combo":10485,"ipedia":10486,"cinder":10487,"requested":10488,"erkzeug":10489,"\u0120SET":10490,"AW":10491,"\u0120StopIteration":10492,"runs":10493,"routes":10494,"NEW":10495,"printer":10496,"\u0120xs":10497,"arb":10498,"']}":10499,"WID":10500,"\u0120hack":10501,"\u0120strides":10502,"radio":10503,"ky":10504,"extent":10505,"),(":10506,"________________":10507,"\u0120chart":10508,"codename":10509,"])))":10510,"\u00e6\u0137":10511,"150":10512,"ulary":10513,"aaaaaaaa":10514,"DK":10515,"\u0120BOX":10516,"something":10517,"(',')":10518,"UUUU":10519,"\u0120mid":10520,"manent":10521,"Ob":10522,"\u0120statements":10523,"\u0120typing":10524,"('[":10525,"\u0120calc":10526,"Fixture":10527,"une":10528,"\u0120preserve":10529,"ContentType":10530,"\u0120mysql":10531,"\u0120dry":10532,"rn":10533,"sembly":10534,"scaler":10535,"flash":10536,"chanism":10537,"fullname":10538,"\u0120bs":10539,"SparseTensor":10540,"\u0120_(":10541,"\u0120Info":10542,"\u0120annotation":10543,"AttributeError":10544,"information":10545,"lue":10546,"ganization":10547,"\u0120That":10548,"auti":10549,"\u0120sca":10550,"ponent":10551,"\u0120clause":10552,"each":10553,"\u0120vault":10554,"\u0120Hat":10555,"unix":10556,"\u0120cinder":10557,"\u0120binding":10558,"reated":10559,"Assign":10560,"nonzero":10561,"svg":10562,"_('":10563,"hp":10564,"roperly":10565,"pend":10566,"\u0120\"%(":10567,"foot":10568,"ARE":10569,"magic":10570,"Patch":10571,"1301":10572,"maries":10573,"\u0120cmds":10574,"vectors":10575,"\u0120Virtual":10576,"restri":10577,"\u0120Frank":10578,"mmutable":10579,"Keep":10580,"idity":10581,"hit":10582,"\u0120dc":10583,"\u0120Reference":10584,"icha":10585,"mapped":10586,"executor":10587,"redis":10588,"ura":10589,"\u0120probability":10590,"\u012036":10591,"\u0120fakes":10592,"stride":10593,"material":10594,"aking":10595,"\u0120maybe":10596,"AK":10597,"\u00e5\u012a":10598,"LAB":10599,"\u0120dp":10600,"\u0120stand":10601,"History":10602,"\u0120Display":10603,"ModuleError":10604,"pat":10605,"\u0120Component":10606,"Standard":10607,"gorithms":10608,"Execution":10609,"instrument":10610,"\u0120Product":10611,"\u0120Sum":10612,"Selector":10613,"floor":10614,"rpm":10615,"SECRET":10616,"cdf":10617,"2001":10618,"\u0120inc":10619,"caps":10620,"\u0120assumed":10621,"legal":10622,"tester":10623,"\u0120extend":10624,"Authorization":10625,"\u0120Target":10626,"Encode":10627,"cannot":10628,"INVALID":10629,"\u0120dictionaries":10630,"\u0120why":10631,"aker":10632,"\u0120pragma":10633,"deployment":10634,"libraries":10635,"\u0120looks":10636,"'/":10637,"robot":10638,"tacts":10639,"cmds":10640,"\u0120variance":10641,"\u0120navi":10642,"prime":10643,"\u0120indicate":10644,"least":10645,"\u0120DOUBLE":10646,"toms":10647,"inet":10648,"memo":10649,"Async":10650,"\u0120Cache":10651,"==\"":10652,"\u0120modulestore":10653,"Ang":10654,"2110":10655,"\u0120though":10656,"apis":10657,"curve":10658,"\u0120ha":10659,"\u0120PyQt":10660,"\u0120crash":10661,"ches":10662,"beat":10663,"rift":10664,"boundary":10665,"\u0120utility":10666,"iteral":10667,"\u0120FLAGS":10668,"()}":10669,"Labels":10670,"\u0120evaluation":10671,"\u0120namedtuple":10672,":')":10673,"\u0120marked":10674,"=-=-":10675,"\u0120PL":10676,"\u0120clock":10677,"\u0120ener":10678,"\u012045":10679,"SCRIPT":10680,"\u0120attachment":10681,"\u00e3\u0125":10682,"\u0120Redistribution":10683,"Wh":10684,"\u0120':'":10685,"\u0120Temp":10686,"\u0120spi":10687,"alph":10688,"abilities":10689,"Dummy":10690,"\u00c3\u00b3":10691,"\u0120Na":10692,"\u0120adjust":10693,"\u012033":10694,"iris":10695,"Origin":10696,"validators":10697,"\u01201234":10698,"_:":10699,"_):":10700,"\u0120dead":10701,"median":10702,"Worker":10703,"analytic":10704,"\u0120'@":10705,"\u0120dy":10706,"subtype":10707,"\u0120DRAWINGS":10708,"given":10709,"Dictionary":10710,"\u0120destroy":10711,"]/":10712,"\u0120consider":10713,"\u0120\"\".":10714,"\u0120highlight":10715,"\u0120Specifies":10716,"rhs":10717,"dimensions":10718,"\u0120echo":10719,"Tick":10720,"^{":10721,"ARM":10722,"half":10723,"\u0120pieces":10724,"\u0120Normal":10725,"SETT":10726,"due":10727,"chapter":10728,"sky":10729,"################################################################################":10730,"mkdtemp":10731,"\u0120swap":10732,"\u0120Tuple":10733,"sioned":10734,"Fn":10735,"pep":10736,"\u0120Entry":10737,"\u0120shutdown":10738,"serializers":10739,"\u0120integration":10740,"\u0120vertex":10741,"\u0120reads":10742,"\u0120organization":10743,"\u0120CONT":10744,"RR":10745,"finder":10746,"\u0120avg":10747,"\u0120ctxt":10748,"authentication":10749,"\u0120debugging":10750,"\u0120asyncio":10751,"Geo":10752,"fan":10753,"\u0120Protocol":10754,"\u0120equ":10755,"\u0120\u0120\u0120\u0120\u0120\u0120\u010d\u010a":10756,"olding":10757,"\u0120namespaces":10758,"isation":10759,"\u0109\u0109\u0109\u010d\u010a":10760,"\u0120pc":10761,"\u0120capture":10762,"\u0120SELECT":10763,"Condition":10764,"Stat":10765,"\u0120board":10766,"todo":10767,"\u0120legacy":10768,"vertices":10769,"lun":10770,"vided":10771,"nonce":10772,"cuts":10773,"\u0120||":10774,"\u0120installation":10775,"\u0120cid":10776,"character":10777,"2006":10778,"umen":10779,"ACTIVE":10780,"\u0120calendar":10781,"parallel":10782,"\u0120square":10783,"wers":10784,"\u0120bbox":10785,"publisher":10786,"anchor":10787,"\u0120Rule":10788,"guess":10789,"\u0120sheet":10790,"urlparse":10791,"\u0120Series":10792,"datas":10793,"fidence":10794,"scaling":10795,"\u0120GE":10796,"MI":10797,"ico":10798,"\u0120digit":10799,"CES":10800,"VOL":10801,"')).":10802,"\u0120unexpected":10803,"\u0120discovery":10804,"UDE":10805,"dg":10806,"GP":10807,"ple":10808,"\u0120decoded":10809,"\u0120Application":10810,"\u0120shuffle":10811,"rectives":10812,"iq":10813,"\u0120osv":10814,"\u0120converter":10815,"\u0120coefficients":10816,"\u0120sr":10817,"namespaces":10818,"Free":10819,"Gate":10820,"SUCCESS":10821,"()`":10822,"\u0120governed":10823,"Estimator":10824,"ope":10825,"latitude":10826,"CTYPE":10827,"Processor":10828,"\u0120important":10829,"Power":10830,"\u0120ring":10831,"\u0120Fin":10832,"\u0120gzip":10833,"\u0120deps":10834,"\u0120adapter":10835,"expires":10836,"Converter":10837,"resolution":10838,"pools":10839,".'))":10840,"\u0120Fail":10841,"ravel":10842,"\u0120followed":10843,"mirror":10844,"BoundedBig":10845,"Sli":10846,"quanti":10847,"Sizer":10848,"ffers":10849,"\u0120embedding":10850,"\u0120relevant":10851,"\u0120Frame":10852,")`":10853,"\u0120notes":10854,"Objects":10855,"adjust":10856,"Dist":10857,"SW":10858,"\u0120Franklin":10859,"directories":10860,"\"]))":10861,"\u0120matrices":10862,"\u0120mouse":10863,"hdr":10864,"Credentials":10865,"[@":10866,"touch":10867,"djang":10868,"\u0120middleware":10869,"\u0120\"&":10870,"Diff":10871,"./":10872,"clients":10873,"tmpl":10874,"\u0120cleaned":10875,"\u0120Show":10876,"\u0120hereby":10877,"depends":10878,"\u0120secure":10879,"NEL":10880,"\u0120platforms":10881,"SUPPORT":10882,"boardInterrupt":10883,"atomic":10884,"CLE":10885,"eth":10886,"anning":10887,"workspace":10888,"ttl":10889,"pacity":10890,"fromUtf":10891,"Short":10892,"ea":10893,"\u0120OpenERP":10894,"\u0120ite":10895,"arante":10896,"MARK":10897,"ased":10898,"\u0120Helper":10899,"STEM":10900,"\u0120\\'":10901,"\u0120reversed":10902,"\u0120issubclass":10903,"\u0120Management":10904,"gyp":10905,"ALI":10906,"\u0120Corp":10907,"reserved":10908,"\u0120segments":10909,"\u0120spatial":10910,"imated":10911,"CPU":10912,"\u0120repeat":10913,"}')":10914,"\u0120incoming":10915,"\u0120datasets":10916,"------------------------------------------------":10917,"descr":10918,"377":10919,"*'":10920,"\u0120submission":10921,"\u0120/=":10922,"hu":10923,"LANGUAGE":10924,"anitize":10925,"\u0120broken":10926,"\u0120xblock":10927,"\u0120ZZ":10928,"PROTOCOL":10929,"wizard":10930,"])]":10931,"ipt":10932,"\u0120Here":10933,"\u0120github":10934,"roperlyConfigured":10935,"\u0120resolution":10936,"\u0120Imple":10937,"terminal":10938,"ising":10939,"\u0120separated":10940,"\u0120silent":10941,"caller":10942,"\u0120memo":10943,"rottle":10944,"bes":10945,"Expr":10946,"Signature":10947,"Export":10948,"(.":10949,"\u0120Copy":10950,"Ass":10951,"\u0120Serial":10952,"\u0120persons":10953,"\u0120Using":10954,").\"\"\"":10955,"ALLOW":10956,"\u0120Site":10957,"\u0120Setup":10958,"RM":10959,"tuples":10960,"432":10961,"\u0120canonical":10962,"\u0120Linear":10963,"VIEW":10964,"\u012002110":10965,"PYTHON":10966,"\u0120happens":10967,"\")))":10968,"subplot":10969,"expanduser":10970,">/":10971,"\u0120*/":10972,"\u0120Dist":10973,"passwd":10974,"\u0120tv":10975,"\u0120iface":10976,"MEDIA":10977,"recipe":10978,"setLevel":10979,"\u0120others":10980,"\u0120delegate":10981,"hest":10982,"basedir":10983,"SED":10984,"xes":10985,"\u0120\u0120\u0120\u0120\u0120\u0120\u0120\u0120\u0120\u0120\u0120\u0120\u0120\u0120\u0120\u0120\u0120\u0120\u0120\u0120\u0120\u0120\u0120\u0120\u0120\u0120\u0120\u0120\u0120\u0120\u0120\u0120\u0120\u0120\u0120\u0120\u0120\u0120\u0120\u0120\u0120\u0120\u0120\u0120\u0120\u0120\u0120\u0120\u0120\u0120\u0120\u0120\u0120\u0120\u0120\u0120":10986,";')":10987,"\u0120Spa":10988,"\u0120tell":10989,"\u0120Constant":10990,"joined":10991,"beam":10992,"\u0120south":10993,"membership":10994,"\u0120Team":10995,"merica":10996,"recon":10997,"\u0120treated":10998,"'>":10999,"deferred":11000,"Minimum":11001,"social":11002,"\u0120dd":11003,"rng":11004,"\u0120reuse":11005,"\u0120tries":11006,"pem":11007,"\u0120ALL":11008,":].":11009,"sidual":11010,"mr":11011,"Inf":11012,"Alchemy":11013,"BUT":11014,"\u0120hint":11015,"\u0120Git":11016,"\u0120Wait":11017,"\u0120potential":11018,"\u0120posix":11019,"\u0120slow":11020,"sequent":11021,"!'":11022,"\u0120draft":11023,"compose":11024,"\u0120cen":11025,"\"></":11026,"\u0120scheduler":11027,"\u0120accepts":11028,"\u0120arc":11029,"ENV":11030,"GA":11031,"zones":11032,"hared":11033,"\u0120classification":11034,"autiful":11035,"IMP":11036,"IZE":11037,"tet":11038,"fortios":11039,"Optimizer":11040,"\u0120fri":11041,"visions":11042,"uby":11043,"\u0120limitation":11044,"foreignkey":11045,"Linux":11046,"\u0120frag":11047,"\u0120half":11048,"GY":11049,"\u0120SUPPORT":11050,"\u0120600":11051,"ylabel":11052,"\u0120nu":11053,"sequences":11054,"untry":11055,"viation":11056,"\u0120webob":11057,"\u0120surface":11058,"]\",":11059,"Trace":11060,"\u0120linked":11061,"\u0120gdata":11062,"REQUI":11063,"eek":11064,"torrent":11065,"untu":11066,"suc":11067,"sun":11068,"\u0120formatting":11069,"AAAAAAAA":11070,"RT":11071,"\u0120vec":11072,"\u0120nan":11073,"ponen":11074,"\u0120modes":11075,"\u0120green":11076,"\u0120sell":11077,"compiled":11078,"\u0120Adding":11079,"\u0120ASC":11080,"\u0120CLA":11081,"\u0120quota":11082,"ichael":11083,"alarm":11084,"Scene":11085,"\u0120aux":11086,"Chain":11087,"Selected":11088,"ban":11089,"ATTRIBUT":11090,"Actor":11091,"regions":11092,"leave":11093,"alone":11094,"capture":11095,"Using":11096,"ya":11097,"VC":11098,"morph":11099,"\u0120Settings":11100,"Pickle":11101,"alter":11102,"\u0120enc":11103,"\u0120attempts":11104,"alo":11105,"peg":11106,"\u0120confirm":11107,"\u0120wsgi":11108,"When":11109,"Support":11110,"\u0120ISO":11111,"\u0120cher":11112,"\u0120invenio":11113,"Factor":11114,"\u0120represented":11115,"YR":11116,"Counter":11117,"\u0120Chromium":11118,"throw":11119,"\u0120'|":11120,"\u0120confir":11121,"\u0120playlist":11122,"chmod":11123,"COOK":11124,"\u0120Univer":11125,"zation":11126,"\u0120Abstract":11127,"\u0120computation":11128,"\u0120Dictionary":11129,"Tools":11130,"izations":11131,"Java":11132,"\u0120IECore":11133,"401":11134,"AVE":11135,"Kind":11136,"\u0120reload":11137,"\u0120inserted":11138,"ODE":11139,"verti":11140,"\u0120compress":11141,"readed":11142,"\u0120123":11143,"subscriptions":11144,"\u0120CLI":11145,"\u0120pb":11146,"DY":11147,"Greater":11148,"\u0120RES":11149,"Rest":11150,"\u0120portions":11151,"\u0120trim":11152,"\u0120OpenStack":11153,"Bot":11154,"httplib":11155,"Enrollment":11156,"SPE":11157,"masked":11158,"pod":11159,"(\"{":11160,"\u0120Ph":11161,"\u0120iteritems":11162,"\u0120(<":11163,"Annot":11164,"your":11165,"sited":11166,"QUERY":11167,"FROM":11168,"PIO":11169,"TIT":11170,"ught":11171,"Finder":11172,"']).":11173,"\u0120health":11174,"concatenate":11175,"************************************************************************":11176,"onic":11177,"\u0120walk":11178,"\u0120dic":11179,"\u0120human":11180,"addCleanup":11181,"quee":11182,"arily":11183,"explicit":11184,"cluding":11185,"\u0120fc":11186,"quoted":11187,"\u0120coords":11188,"\u0120Radio":11189,"PB":11190,"NORMAL":11191,"\u0120combined":11192,"sam":11193,"\u0120cipher":11194,"STER":11195,"\u0120obtaining":11196,"nume":11197,"\u0120NUM":11198,"structed":11199,"('\\\\":11200,"\u0120spect":11201,"\u0120openstack":11202,"\u0120%%":11203,"UPERUSER":11204,"FromString":11205,"))),":11206,"scenario":11207,"+\\":11208,"\u0120Down":11209,"\u0120chosen":11210,"toggle":11211,"ffered":11212,"Notification":11213,"TX":11214,"\u0120lexer":11215,"RU":11216,"PUB":11217,"Bucket":11218,"latin":11219,"skipped":11220,"commended":11221,"CM":11222,"did":11223,"Same":11224,"completion":11225,"\u0120''))":11226,":.":11227,"Units":11228,"\u0120fall":11229,"ENTITY":11230,"\u0120samp":11231,"warehouse":11232,"DNS":11233,"']\"})":11234,"\u012010000":11235,"initialized":11236,"terable":11237,"Router":11238,"\u0120scene":11239,"don":11240,"\u0120cu":11241,"INSERT":11242,"\u0120sentence":11243,"\u0120nc":11244,"ived":11245,"\u0120rotation":11246,"Resolver":11247,"sb":11248,"\u0120expires":11249,"\u0120quick":11250,"\u0120touch":11251,"\u0120Match":11252,"aco":11253,"\u0120sudo":11254,"\u012099":11255,"\u0120agreements":11256,"\u0120But":11257,"Keyword":11258,"\u0120major":11259,"lications":11260,"ernel":11261,"NT":11262,"getenv":11263,"nounce":11264,"\u0120basis":11265,"\u0120endorse":11266,"StubOut":11267,"umulator":11268,"\u0120connector":11269,"\u0120._":11270,"...)":11271,"Team":11272,"ifth":11273,"patcher":11274,"\u0120tele":11275,"\u0120tmpdir":11276,"PAGE":11277,"oll":11278,"exclusive":11279,"Ptr":11280,"\u0120closing":11281,"BoundedBigAutoField":11282,"\u0120come":11283,"fieldname":11284,"cedure":11285,"\u0120From":11286,"ferer":11287,"Home":11288,"passed":11289,"twisted":11290,"Revision":11291,"\u0120appended":11292,"xlabel":11293,"\u0120gather":11294,"\u0120ForeignKey":11295,"QApplication":11296,"ighest":11297,"around":11298,"alignment":11299,"acle":11300,"\u012034":11301,"AWS":11302,"encrypt":11303,"logged":11304,"\u0120Sm":11305,"vote":11306,"\u0120AnsibleError":11307,"verified":11308,"$\",":11309,"angular":11310,"\u0120Api":11311,"abort":11312,"\u0120prece":11313,"Coordin":11314,"vrf":11315,"\u0120bg":11316,"8888":11317,"RESPON":11318,"\u0120lf":11319,"FAILED":11320,"Plan":11321,"etag":11322,"\u0120sel":11323,"linked":11324,"Partition":11325,"\u0120Struct":11326,"\u0120solve":11327,"visibility":11328,"\u0120managed":11329,"\u0120ends":11330,"Sync":11331,"ROW":11332,"]\")":11333,"\u0120tmpl":11334,"Sur":11335,"dee":11336,"spatial":11337,"disp":11338,"\u0120JOIN":11339,"cident":11340,"discussion":11341,"\u0120snap":11342,"iny":11343,"pection":11344,"serialization":11345,"\u0120repeated":11346,"photo":11347,"coordinates":11348,"OAuth":11349,"longitude":11350,"paragraph":11351,"Equals":11352,"otor":11353,"\u0120hist":11354,"\u0120BytesIO":11355,"SESSION":11356,"multipart":11357,"\u0120contained":11358,"\u0120Comple":11359,"toolbar":11360,"\u0120whom":11361,"hold":11362,"WithMock":11363,"Ent":11364,"gather":11365,"trunk":11366,"\u0120updating":11367,"EXP":11368,"adj":11369,"enqueue":11370,"intersection":11371,"lator":11372,"sentinel":11373,"yper":11374,"checkout":11375,"ROP":11376,"resolvers":11377,"igure":11378,"\u0120retrieved":11379,"EMENT":11380,"pyplot":11381,"covered":11382,"\u0120\"\"\"<":11383,"\u0120========":11384,"\u0120processor":11385,"ReplayAll":11386,"ignored":11387,"\u0120Global":11388,"netes":11389,"\u0120vertical":11390,"ubernetes":11391,"languages":11392,"undefined":11393,"\u0120bins":11394,"\u0120masked":11395,"\u0120deferred":11396,"\u0120cnt":11397,"regexp":11398,"Hex":11399,"grpc":11400,"hints":11401,"\u0120monkey":11402,"TemporaryFile":11403,"racle":11404,"\u0120*,":11405,"\u0120Record":11406,"IA":11407,"Include":11408,"\u0120operators":11409,"tailed":11410,"organ":11411,"Fit":11412,"\u0120follows":11413,"FRING":11414,"accuracy":11415,"'(?":11416,"\u0120Let":11417,"110":11418,"imports":11419,"readable":11420,"normalized":11421,"\u0120eg":11422,"\u0120bridge":11423,"ulse":11424,"every":11425,"rg":11426,"regression":11427,"Polygon":11428,"\"%(":11429,"\u0120prec":11430,"CAL":11431,"\u0120glyph":11432,"ongs":11433,"fork":11434,"\u0120deployment":11435,"\u0120meaning":11436,"news":11437,"Edge":11438,"Route":11439,"SB":11440,"itro":11441,"\u0120invoked":11442,"footer":11443,"routing":11444,"\u0120design":11445,";&":11446,"\u0120requirement":11447,"America":11448,"ENTER":11449,"enroll":11450,"\u0120Conn":11451,"[::-":11452,"threading":11453,"\u00e8\u00af":11454,"('/',":11455,"StubOutWithMock":11456,"BUTTON":11457,"FRINGEMENT":11458,"vertex":11459,"\u0120512":11460,"\u0120reach":11461,"\u0120div":11462,"\u0120Static":11463,"rich":11464,"lengths":11465,"alax":11466,"partment":11467,"\u0120projects":11468,"BA":11469,"\u0120material":11470,"apters":11471,"Unique":11472,"Publish":11473,"vative":11474,"FILTER":11475,"\u0120authenticate":11476,"\u00e5\u0132":11477,"\u0120larger":11478,"\u00e5\u0127":11479,"moid":11480,"\u0120populate":11481,"Metric":11482,"plots":11483,"reporter":11484,"TICAL":11485,"\u0120Engine":11486,"fm":11487,"SHO":11488,"segments":11489,"Mis":11490,"\u0120checker":11491,"esh":11492,"()'":11493,"IPv":11494,"\u0120LaTeX":11495,"dimensional":11496,"\u0120intern":11497,"IDs":11498,"webpage":11499,"\u0120multiprocessing":11500,"Soup":11501,"yml":11502,"\u0120four":11503,"\u0120Will":11504,"tele":11505,"\u0120temperature":11506,"vp":11507,"bases":11508,"\u0120suitable":11509,"\u0120executor":11510,"hier":11511,"Dump":11512,"Dev":11513,"\u0120callbacks":11514,"frozen":11515,"compression":11516,"\u0120sale":11517,"INF":11518,"SSH":11519,"rem":11520,"critical":11521,"DATAB":11522,"nectivity":11523,"elastic":11524,"\u0120\u0120\u0120\u0120\u0120\u0120\u0120\u0120\u0120\u0120\u0120\u0120\u0120\u0120\u0120\u0120\u0120\u0120\u0120\u0120\u0120\u0120\u0120\u0120\u0120\u0120\u0120\u0120\u0120\u0120\u0120\u0120\u0120\u0120\u0120\u0120\u0120\u0120\u0120\u0120\u0120\u0120\u0120\u0120\u0120\u0120\u0120\u0120\u0120\u0120\u0120\u0120\u0120\u0120\u0120\u0120\u0120":11525,"\u0120El":11526,"OURCE":11527,"jump":11528,"\u0120'</":11529,"Google":11530,"\u0120likely":11531,"\u0120calculated":11532,"vest":11533,"COD":11534,"Sto":11535,"wire":11536,"ience":11537,"anger":11538,"Collector":11539,"\u0120FILE":11540,"BIT":11541,"gcc":11542,"swift":11543,"UME":11544,"\u0120receiver":11545,"\u0120clients":11546,"Construct":11547,"\u0120ERROR":11548,";',":11549,"CY":11550,"\u0120Need":11551,"Idx":11552,"docstring":11553,"creds":11554,"\u0120density":11555,"\u0120USER":11556,"products":11557,"ole":11558,"\u0120Street":11559,"CV":11560,"riterion":11561,"ATH":11562,"agg":11563,"undo":11564,"\u0120','.":11565,"\u0120Home":11566,"soup":11567,"zoom":11568,"\u0120jo":11569,"appings":11570,"hic":11571,"scatter":11572,"afka":11573,"Fore":11574,"BOT":11575,"lhs":11576,"msgs":11577,"quick":11578,"Ns":11579,"overrides":11580,"COMMENT":11581,"statistics":11582,"populate":11583,"gzip":11584,"(\"\",":11585,"Face":11586,"\u0120cherrypy":11587,"\u0120Floor":11588,"noop":11589,"Addr":11590,"lapse":11591,"\u0120bulk":11592,"tif":11593,"detect":11594,"roots":11595,"DOM":11596,"rotate":11597,"\u0120fraction":11598,"OBJECT":11599,"\u0120anchor":11600,"etched":11601,"\u0120tested":11602,"ym":11603,"Override":11604,"sessment":11605,"\u0120hooks":11606,"mv":11607,"\u0120fileobj":11608,"notifications":11609,"Dimen":11610,"ALLED":11611,"Maximum":11612,"\u0120nick":11613,"\u00ef\u00bc\u012e":11614,"\u0120seems":11615,"Less":11616,"VIS":11617,"inters":11618,"gray":11619,"\u0120Proxy":11620,"ndims":11621,"\u0120dicts":11622,"bz":11623,"\u0120tgt":11624,"\u0120occurs":11625,"assigned":11626,"\u0120Security":11627,"uids":11628,"\u0120guest":11629,"\u0120UI":11630,"\u0120jinja":11631,"istributed":11632,"\u0120{}).":11633,"arp":11634,"oproject":11635,"Center":11636,"2005":11637,"squared":11638,"popen":11639,"represent":11640,"infos":11641,"transition":11642,"\u0120TCP":11643,"hashes":11644,"\u0120appears":11645,"TestSuite":11646,"\u0120courses":11647,"logfile":11648,"APPS":11649,"shal":11650,"Bal":11651,"reactor":11652,"\u0120cont":11653,"\u0120notifications":11654,"Locator":11655,")==":11656,"RST":11657,"LONG":11658,"\u0120bytearray":11659,"classifier":11660,"\u0120Report":11661,"\u0120opened":11662,"spin":11663,"HH":11664,"\u0120ranges":11665,"exchange":11666,"isect":11667,"\u0120epsilon":11668,"\u0120DateTime":11669,"prior":11670,"toc":11671,"txid":11672,"salt":11673,"igi":11674,",[":11675,"FLOAT":11676,"scopes":11677,"INFRINGEMENT":11678,"\u0120completion":11679,"\u00e6\u0138":11680,"chi":11681,"/#":11682,"Bin":11683,"Merge":11684,"Separ":11685,"\u0120Calculate":11686,"];":11687,"\u0120330":11688,".\"))":11689,"HAND":11690,"\u0120Does":11691,"within":11692,"Scalar":11693,"wallet":11694,"Snapshot":11695,"'%(":11696,"\u0120ASF":11697,"005":11698,"dicates":11699,"zzzz":11700,"bon":11701,"\u0120(),":11702,"Try":11703,"vors":11704,"\u0120pm":11705,"builds":11706,"viding":11707,"hg":11708,"\u0120QU":11709,"\u0120Moved":11710,"sat":11711,"\u0120away":11712,"ByName":11713,")\"\"\"":11714,"El":11715,"\u0120transformation":11716,"\u0120described":11717,"ISH":11718,"MessageBox":11719,"\u0120tolerance":11720,"\u0120Suite":11721,"tu":11722,"physical":11723,"grity":11724,"-+-+-+-+":11725,"codings":11726,"weighted":11727,"\u0120Bar":11728,"{}\".":11729,"ggestion":11730,"ARGS":11731,"zzy":11732,"velope":11733,"pic":11734,"spy":11735,"ToString":11736,"via":11737,"\u0120UInt":11738,"\u01202005":11739,"you":11740,"atever":11741,"erm":11742,"xE":11743,"\u0120phi":11744,"\u0120\"\"\",":11745,"crash":11746,"\u0120smaller":11747,"bert":11748,"Mat":11749,"\u0120Layer":11750,"rink":11751,"radi":11752,"comme":11753,"transactions":11754,"\u0120communic":11755,"Validation":11756,"blah":11757,"RS":11758,"\u0120subs":11759,"\"{":11760,"\u00e7\u0136":11761,"twitter":11762,"\u0120todo":11763,"\u0120abc":11764,"TED":11765,"\u01202018":11766,"Listener":11767,"\u0120consistent":11768,"\u0120balance":11769,"lfile":11770,"\u0120energy":11771,"\u0120NAME":11772,"\u0120autos":11773,"\u0120rd":11774,"\u0120robot":11775,"\u0120extracted":11776,"fraction":11777,"quad":11778,"Regression":11779,"ocation":11780,"ADDRESS":11781,"\u0120accuracy":11782,"ponential":11783,"pagate":11784,"alty":11785,"Two":11786,"\u0120UTC":11787,"\u0120quantity":11788,"dium":11789,"224":11790,"amble":11791,"iterations":11792,"\u0120determined":11793,"\u0120Ap":11794,"acters":11795,"pot":11796,"xA":11797,"\u0120camera":11798,"unexpected":11799,"\u0120Fifth":11800,"GO":11801,"\u0120dmp":11802,"posal":11803,"Available":11804,"onts":11805,"verts":11806,"Pair":11807,"\u0120fw":11808,"\u0120transition":11809,"tivi":11810,"setValue":11811,"plug":11812,"\u0120cube":11813,"asm":11814,"FloatField":11815,"NETWORK":11816,"umented":11817,"cxx":11818,"fab":11819,"\u00c3\u0143":11820,"\u0120gdb":11821,"ALIAS":11822,"\u0120far":11823,"answers":11824,"builtins":11825,"ens":11826,"composition":11827,"datatype":11828,"attempts":11829,"setEnabled":11830,"integration":11831,"prom":11832,"percentage":11833,"\u0120Split":11834,"\u0120TEXT":11835,"\u0120para":11836,"deletion":11837,"ITER":11838,"djangoproject":11839,"sz":11840,"iving":11841,"CERT":11842,"interactive":11843,"\u0120clusters":11844,"\u0120sl":11845,"unary":11846,"amel":11847,"\u0120theano":11848,"='')":11849,"\u0120PR":11850,"stantial":11851,"])),":11852,"IDE":11853,"heap":11854,"\u0120consist":11855,"\u0120minute":11856,"iner":11857,"\u0120feat":11858,"Begin":11859,"arness":11860,"\u0120little":11861,"\u0120Core":11862,"ablish":11863,"backward":11864,"FAKE":11865,"blocking":11866,"lope":11867,"\u0120Pe":11868,"WEB":11869,"\u0120elapsed":11870,"\u0120Interface":11871,"tearDown":11872,"\u0120DOMAIN":11873,"386":11874,"\u0120ent":11875,"FFIX":11876,"\u0120hier":11877,"contin":11878,"\u0120quanti":11879,"\u0120enqueue":11880,"Ctrl":11881,"\u0120goal":11882,"Score":11883,"\u0120CLAIM":11884,"\u0120Store":11885,"\u0120alignment":11886,"ansion":11887,"FFER":11888,"overwrite":11889,"\u0120[['":11890,")``":11891,"ALINGS":11892,"\u0120mass":11893,"___":11894,"\u0120distributions":11895,"\u0120embedded":11896,"prediction":11897,"EXTR":11898,"TV":11899,"\u0120fos":11900,"AU":11901,"EXEC":11902,"mute":11903,"regularizer":11904,"||":11905,"ulator":11906,"Segment":11907,"\u0120After":11908,"\u0120perf":11909,"\u0120men":11910,"TestBase":11911,"\u0120substantial":11912,"']])":11913,"Strategy":11914,"Cat":11915,"ncy":11916,"\u0120degree":11917,"\u0120guarante":11918,"rack":11919,"testcase":11920,"fromstring":11921,"initi":11922,")'),":11923,"MQ":11924,"stroke":11925,"=/":11926,"=[('":11927,"crop":11928,"interpre":11929,"\u0120ImproperlyConfigured":11930,"bw":11931,"ormed":11932,"stopped":11933,"\u0120Define":11934,"urnished":11935,"CB":11936,"\u0120tabs":11937,"uel":11938,"fold":11939,"rated":11940,"resume":11941,"\u0120DEALINGS":11942,"dw":11943,"wkt":11944,"Rows":11945,"112":11946,"\u0120pow":11947,"\u0120ance":11948,"Finished":11949,"\u0120kill":11950,"\u0120Register":11951,"\u0120Package":11952,"rightness":11953,"_\"":11954,"\u0120Solution":11955,"=\"#":11956,"rotation":11957,"combine":11958,"Intera":11959,"\u0120NONINFRINGEMENT":11960,"udi":11961,"2007":11962,"(':')":11963,"\u0120removing":11964,"\u0120minor":11965,"emails":11966,"\u0120&&":11967,"\u0120footer":11968,"whitelist":11969,"istent":11970,"\u0120flash":11971,"\u0120lu":11972,"\u0120sublicense":11973,"\u0120Manager":11974,"DAY":11975,"paren":11976,"Paths":11977,"Methods":11978,"\u0120#----------------------------------------------------------------":11979,"\u0120room":11980,"\u0120downloaded":11981,"chn":11982,"-------":11983,"\u012048":11984,"trees":11985,"even":11986,"proba":11987,"argo":11988,"srid":11989,"\u0120deep":11990,"\u0120cpp":11991,"Atom":11992,"unsigned":11993,"\u0120netloc":11994,"\u0120STAT":11995,"brid":11996,"\u0120season":11997,"portal":11998,"\u0120corresponds":11999,"Checked":12000,"styles":12001,"\u0120plural":12002,"alaxy":12003,"spider":12004,"204":12005,"\u0120409":12006,"\u0120Validate":12007,"\u0120resolved":12008,"\u0120visual":12009,"Changes":12010,"\u0120enrollment":12011,"\u0120movie":12012,"\u0120moving":12013,"\u0120containers":12014,"ToOneField":12015,"exam":12016,"patches":12017,"\u0120interpreted":12018,"\u0120Async":12019,"\u0120migrate":12020,"\u0120opcode":12021,"chromium":12022,">\"\"\"":12023,"\u0120instrument":12024,"yellow":12025,"Constructor":12026,"\u0120Extension":12027,"LEX":12028,"FORMS":12029,"built":12030,"\u0120unsigned":12031,"Archive":12032,"\u0120TR":12033,"then":12034,"\u0120RIGHT":12035,"\u0120Job":12036,"buttons":12037,"kins":12038,"\u0120werkzeug":12039,"baseline":12040,"canonical":12041,"\u0120bc":12042,"vif":12043,"abb":12044,"\u0120workspace":12045,"embedding":12046,"WINDO":12047,"\u0120tex":12048,"URSE":12049,"mixed":12050,"\u0120invoke":12051,"reach":12052,"Chunk":12053,"\u0120physical":12054,"\u0120normally":12055,"#:":12056,"\u0120psy":12057,"ppings":12058,"\u0120Media":12059,"Microsoft":12060,"tia":12061,"batches":12062,"tient":12063,"\u0120Top":12064,"motion":12065,"IPTION":12066,"\u0120prog":12067,"\u0120expanded":12068,"\u0120combine":12069,"\u0120Plot":12070,"RESPONSE":12071,"\u0120ident":12072,"Retry":12073,"003":12074,"Ext":12075,"\u0120recv":12076,"ota":12077,"\u0120escaped":12078,"Relation":12079,"Registration":12080,"mozilla":12081,"\u0120Testing":12082,"\u0120purpose":12083,"\u0120compressed":12084,"\u0120'').":12085,"become":12086,"+)\\":12087,"\u0120paragraph":12088,"already":12089,"\u0120Modi":12090,"\u0120prefixes":12091,"childNodes":12092,"PROCESS":12093,"Modified":12094,"parsing":12095,"kwarg":12096,"\u0120proj":12097,"reports":12098,"failUnlessEqual":12099,"scipy":12100,"\u00d0\u00b8":12101,"people":12102,"Ep":12103,"rw":12104,"\u0120wizard":12105,"retrieve":12106,"references":12107,"mand":12108,"Logging":12109,"authorize":12110,"translations":12111,"ala":12112,"endpoints":12113,"\u0120Location":12114,"Mail":12115,"DateField":12116,"\u0120ldap":12117,"goal":12118,"timing":12119,"lexer":12120,"cntl":12121,"mmar":12122,"FIELDS":12123,"IPS":12124,"angles":12125,"140":12126,"folders":12127,"audit":12128,"truncate":12129,"xen":12130,"\u0120Wh":12131,"\u0120independent":12132,"itors":12133,"RuntimeError":12134,"Vertex":12135,"avatar":12136,"different":12137,"colour":12138,"']=":12139,"cessible":12140,"\u0120KeyboardInterrupt":12141,"\u0120generating":12142,"SETTINGS":12143,"EPS":12144,"[_":12145,"configured":12146,"\u0120sessions":12147,"classification":12148,"\u0120['_":12149,"\u0120Description":12150,"-----------":12151,"\u0120sense":12152,"\u0120Either":12153,"STOP":12154,"://%":12155,"\u0120lhs":12156,"enerated":12157,"Tracker":12158,"\u0120rm":12159,"ASF":12160,"grads":12161,"\u0120pat":12162,"\u01202000":12163,"possible":12164,"\u0120purposes":12165,"rss":12166,"\u0120Password":12167,"\u0120serve":12168,"\u0120\u0120\u0120\u0120\u0120\u0120\u0120\u0120\u0120\u0120\u0120\u0120\u0120\u0120\u0120\u0120\u0120\u0120\u0120\u0120\u0120\u0120\u0120\u0120\u0120\u0120\u0120\u0120\u0120\u0120\u0120\u0120\u0120\u0120\u0120\u0120\u0120\u0120\u0120\u0120\u0120\u0120\u0120\u0120\u0120\u0120\u0120\u0120\u0120\u0120\u0120\u0120\u0120\u0120\u0120\u0120\u0120\u0120\u0120\u0120\u0120\u0120\u0120\u0120":12169,"pathname":12170,"ADMIN":12171,"WIDTH":12172,"Hub":12173,"\u0120domains":12174,"\u0120SY":12175,"\u0120certificates":12176,"LOBAL":12177,"\u0120tt":12178,"MOTE":12179,"\u0120Schema":12180,"\u0120403":12181,"ICAL":12182,"\u0120AP":12183,"pets":12184,"challenge":12185,"\u0120Called":12186,"WAIT":12187,"\u0120logical":12188,"Alter":12189,"\u0120Domain":12190,"hub":12191,"\u0120manip":12192,"omin":12193,"sistence":12194,"\u0120purchase":12195,"east":12196,"design":12197,"\u0120foreign":12198,"\u0120interactive":12199,"STM":12200,"\u0120lead":12201,"beard":12202,"sphere":12203,"PEND":12204,"coped":12205,"]})":12206,"()``":12207,"ets":12208,"\u0120saving":12209,"\u0120\u0120\u0120\u0120\u0120\u0120\u0120\u0120\u0120\u0120\u0120\u0120\u0120\u0120\u0120\u0120\u0120\u0120\u0120\u0120\u010d\u010a":12210,"\u0120middle":12211,"\u0120pen":12212,"\u0120thus":12213,"matmul":12214,"ffffffff":12215,"greater":12216,"lize":12217,"0101":12218,"arehouse":12219,"TRY":12220,"unquote":12221,"MON":12222,"\u0120bb":12223,"Aggreg":12224,"navi":12225,"vies":12226,"between":12227,"\u0120beam":12228,"relpath":12229,"picking":12230,"ceptable":12231,"apic":12232,"\u0120startup":12233,"\u0120authorization":12234,"IGIT":12235,"\u0120comes":12236,"\u0120Clean":12237,"ewidth":12238,"\u0120reached":12239,"fits":12240,"sia":12241,"+')":12242,"\u0120minimal":12243,"illed":12244,"\u0120covariance":12245,"mor":12246,"\u0120excluded":12247,"\u012070":12248,"AI":12249,"Sig":12250,"\u0120affect":12251,"\u0120Perform":12252,"REEK":12253,"Pixmap":12254,"STOR":12255,"again":12256,"Html":12257,"getAttribute":12258,"High":12259,"\u0120moved":12260,"\u0120older":12261,"tack":12262,"\u0120302":12263,"authenticate":12264,"mappings":12265,"Ok":12266,"operators":12267,"\u0120HttpResponseRedirect":12268,"instructor":12269,"\u0120Checks":12270,"ENTRY":12271,"CN":12272,"Qual":12273,"trim":12274,"\u0120Common":12275,"wner":12276,"asket":12277,"\u0120Sparse":12278,"hh":12279,"delivery":12280,"cg":12281,"loration":12282,"skin":12283,"\u0120intended":12284,"lling":12285,"Private":12286,"\u0120Neither":12287,"rout":12288,"\u0120ga":12289,"Framework":12290,"\u0120pn":12291,"\u0120401":12292,"\u0120readable":12293,"RB":12294,"\u0120fcntl":12295,"\u0120applies":12296,"\u0120accounts":12297,"dog":12298,"\u0120workers":12299,"\u0120goes":12300,"OVER":12301,"}/{":12302,"ILLIC":12303,"\u0120span":12304,"\u0120Documentation":12305,"YRILLIC":12306,"izable":12307,"Canvas":12308,"\u0120Retrieve":12309,"\u0120faster":12310,"calib":12311,"HTTPError":12312,"\u0120'!":12313,"queeze":12314,"Master":12315,"listed":12316,"central":12317,"\u0120gene":12318,"Checks":12319,"\u0120textwrap":12320,"<!":12321,"TagName":12322,"isnan":12323,"isters":12324,"Unsupported":12325,"sqlalchemy":12326,"story":12327,"eper":12328,"ASCI":12329,"\u0120Json":12330,"\u0120optimization":12331,"conti":12332,"\u0120maintain":12333,"VARI":12334,"\u0120objs":12335,"LABEL":12336,"\u0120hide":12337,"\u0120199":12338,"\u0120exe":12339,"\u0120interpolation":12340,"Ignore":12341,"\u0120Extract":12342,"DOT":12343,"\u0120past":12344,"\u0120Internal":12345,"secondary":12346,"upon":12347,"\u0120cov":12348,"SKIP":12349,">[^":12350,"thresh":12351,"arded":12352,"\u0120xpath":12353,"coroutine":12354,"\u0120validators":12355,"drivers":12356,"multiply":12357,"hop":12358,"\u0120stores":12359,"Rot":12360,"anc":12361,"distinct":12362,"sound":12363,"TZ":12364,"lli":12365,"recent":12366,"\u0120plus":12367,"*)":12368,"\u0120Profile":12369,"\u0120ll":12370,"symlink":12371,"\u0120TLS":12372,"Day":12373,"Sys":12374,"\u0120curve":12375,"utations":12376,"opener":12377,"rawtransaction":12378,"\u0120positional":12379,"prise":12380,"maker":12381,"\u0120101":12382,"\u0120td":12383,"\u0120mocker":12384,"splits":12385,"\u0120Specify":12386,"sto":12387,"Uri":12388,"iteration":12389,"VO":12390,"mps":12391,"\u0120lr":12392,"12345":12393,"xhtml":12394,"\u0120prod":12395,"\u0120Tk":12396,"\u0120OptionParser":12397,"\u0120rendering":12398,"$'":12399,"_(\"":12400,"Join":12401,"\u0120peak":12402,"\u0120SQLAlchemy":12403,"lacing":12404,"kele":12405,"0000000000000000":12406,"Attach":12407,"\u0120Geometry":12408,"GU":12409,"INTEGER":12410,"vac":12411,"VED":12412,"also":12413,"station":12414,"another":12415,"gressor":12416,"LT":12417,"\u0120tun":12418,"\u0120REST":12419,"567":12420,"Columns":12421,"\u0120Parser":12422,
[...]
